#ifndef DEMO_QAT8_GESTURE_H
#define DEMO_QAT8_GESTURE_H


static const unsigned int demo_qat8_gesture_len = 22288;
static const unsigned char demo_qat8_gesture[] = {
 0x1c, 0x00, 0x00, 0x00, 0x54, 0x46, 0x4c, 0x33, 0x14, 0x00, 0x20, 0x00,
  0x1c, 0x00, 0x18, 0x00, 0x14, 0x00, 0x10, 0x00, 0x0c, 0x00, 0x00, 0x00,
  0x08, 0x00, 0x04, 0x00, 0x14, 0x00, 0x00, 0x00, 0x1c, 0x00, 0x00, 0x00,
  0x84, 0x00, 0x00, 0x00, 0xdc, 0x00, 0x00, 0x00, 0x44, 0x17, 0x00, 0x00,
  0x54, 0x17, 0x00, 0x00, 0x54, 0x55, 0x00, 0x00, 0x03, 0x00, 0x00, 0x00,
  0x01, 0x00, 0x00, 0x00, 0x04, 0x00, 0x00, 0x00, 0x8e, 0xdd, 0xff, 0xff,
  0x0c, 0x00, 0x00, 0x00, 0x1c, 0x00, 0x00, 0x00, 0x3c, 0x00, 0x00, 0x00,
  0x0f, 0x00, 0x00, 0x00, 0x73, 0x65, 0x72, 0x76, 0x69, 0x6e, 0x67, 0x5f,
  0x64, 0x65, 0x66, 0x61, 0x75, 0x6c, 0x74, 0x00, 0x01, 0x00, 0x00, 0x00,
  0x04, 0x00, 0x00, 0x00, 0x98, 0xff, 0xff, 0xff, 0x58, 0x00, 0x00, 0x00,
  0x04, 0x00, 0x00, 0x00, 0x0a, 0x00, 0x00, 0x00, 0x61, 0x63, 0x74, 0x69,
  0x76, 0x61, 0x74, 0x69, 0x6f, 0x6e, 0x00, 0x00, 0x01, 0x00, 0x00, 0x00,
  0x04, 0x00, 0x00, 0x00, 0x96, 0xdd, 0xff, 0xff, 0x04, 0x00, 0x00, 0x00,
  0x07, 0x00, 0x00, 0x00, 0x69, 0x6e, 0x70, 0x75, 0x74, 0x5f, 0x31, 0x00,
  0x02, 0x00, 0x00, 0x00, 0x34, 0x00, 0x00, 0x00, 0x04, 0x00, 0x00, 0x00,
  0xdc, 0xff, 0xff, 0xff, 0x5b, 0x00, 0x00, 0x00, 0x04, 0x00, 0x00, 0x00,
  0x13, 0x00, 0x00, 0x00, 0x43, 0x4f, 0x4e, 0x56, 0x45, 0x52, 0x53, 0x49,
  0x4f, 0x4e, 0x5f, 0x4d, 0x45, 0x54, 0x41, 0x44, 0x41, 0x54, 0x41, 0x00,
  0x08, 0x00, 0x0c, 0x00, 0x08, 0x00, 0x04, 0x00, 0x08, 0x00, 0x00, 0x00,
  0x5a, 0x00, 0x00, 0x00, 0x04, 0x00, 0x00, 0x00, 0x13, 0x00, 0x00, 0x00,
  0x6d, 0x69, 0x6e, 0x5f, 0x72, 0x75, 0x6e, 0x74, 0x69, 0x6d, 0x65, 0x5f,
  0x76, 0x65, 0x72, 0x73, 0x69, 0x6f, 0x6e, 0x00, 0x5c, 0x00, 0x00, 0x00,
  0x64, 0x16, 0x00, 0x00, 0x5c, 0x16, 0x00, 0x00, 0x48, 0x16, 0x00, 0x00,
  0x34, 0x16, 0x00, 0x00, 0x20, 0x16, 0x00, 0x00, 0x0c, 0x16, 0x00, 0x00,
  0xf8, 0x15, 0x00, 0x00, 0xe0, 0x15, 0x00, 0x00, 0xb0, 0x15, 0x00, 0x00,
  0xa0, 0x14, 0x00, 0x00, 0x10, 0x14, 0x00, 0x00, 0x00, 0x0c, 0x00, 0x00,
  0xf8, 0x0b, 0x00, 0x00, 0xf0, 0x0b, 0x00, 0x00, 0xe8, 0x0b, 0x00, 0x00,
  0xb8, 0x0b, 0x00, 0x00, 0x68, 0x05, 0x00, 0x00, 0x54, 0x05, 0x00, 0x00,
  0x4c, 0x05, 0x00, 0x00, 0x44, 0x05, 0x00, 0x00, 0x3c, 0x05, 0x00, 0x00,
  0x34, 0x05, 0x00, 0x00, 0x2c, 0x05, 0x00, 0x00, 0x24, 0x05, 0x00, 0x00,
  0xf4, 0x04, 0x00, 0x00, 0x8c, 0x02, 0x00, 0x00, 0x84, 0x02, 0x00, 0x00,
  0x7c, 0x02, 0x00, 0x00, 0x74, 0x02, 0x00, 0x00, 0x6c, 0x02, 0x00, 0x00,
  0x64, 0x02, 0x00, 0x00, 0x5c, 0x02, 0x00, 0x00, 0x54, 0x02, 0x00, 0x00,
  0x4c, 0x02, 0x00, 0x00, 0x44, 0x02, 0x00, 0x00, 0x3c, 0x02, 0x00, 0x00,
  0x34, 0x02, 0x00, 0x00, 0x2c, 0x02, 0x00, 0x00, 0x24, 0x02, 0x00, 0x00,
  0x1c, 0x02, 0x00, 0x00, 0x14, 0x02, 0x00, 0x00, 0x0c, 0x02, 0x00, 0x00,
  0x04, 0x02, 0x00, 0x00, 0xfc, 0x01, 0x00, 0x00, 0xf4, 0x01, 0x00, 0x00,
  0xec, 0x01, 0x00, 0x00, 0xe4, 0x01, 0x00, 0x00, 0xdc, 0x01, 0x00, 0x00,
  0xd4, 0x01, 0x00, 0x00, 0xcc, 0x01, 0x00, 0x00, 0xc4, 0x01, 0x00, 0x00,
  0xbc, 0x01, 0x00, 0x00, 0xb4, 0x01, 0x00, 0x00, 0xac, 0x01, 0x00, 0x00,
  0xa4, 0x01, 0x00, 0x00, 0x9c, 0x01, 0x00, 0x00, 0x94, 0x01, 0x00, 0x00,
  0x8c, 0x01, 0x00, 0x00, 0x84, 0x01, 0x00, 0x00, 0x7c, 0x01, 0x00, 0x00,
  0x74, 0x01, 0x00, 0x00, 0x6c, 0x01, 0x00, 0x00, 0x64, 0x01, 0x00, 0x00,
  0x5c, 0x01, 0x00, 0x00, 0x54, 0x01, 0x00, 0x00, 0x4c, 0x01, 0x00, 0x00,
  0x44, 0x01, 0x00, 0x00, 0x3c, 0x01, 0x00, 0x00, 0x34, 0x01, 0x00, 0x00,
  0x2c, 0x01, 0x00, 0x00, 0x24, 0x01, 0x00, 0x00, 0x1c, 0x01, 0x00, 0x00,
  0x14, 0x01, 0x00, 0x00, 0x0c, 0x01, 0x00, 0x00, 0x04, 0x01, 0x00, 0x00,
  0xfc, 0x00, 0x00, 0x00, 0xf4, 0x00, 0x00, 0x00, 0xec, 0x00, 0x00, 0x00,
  0xe4, 0x00, 0x00, 0x00, 0xdc, 0x00, 0x00, 0x00, 0xd4, 0x00, 0x00, 0x00,
  0xcc, 0x00, 0x00, 0x00, 0xc4, 0x00, 0x00, 0x00, 0xbc, 0x00, 0x00, 0x00,
  0xb4, 0x00, 0x00, 0x00, 0xac, 0x00, 0x00, 0x00, 0xa4, 0x00, 0x00, 0x00,
  0x9c, 0x00, 0x00, 0x00, 0x94, 0x00, 0x00, 0x00, 0x8c, 0x00, 0x00, 0x00,
  0x6c, 0x00, 0x00, 0x00, 0x04, 0x00, 0x00, 0x00, 0x7a, 0xdf, 0xff, 0xff,
  0x04, 0x00, 0x00, 0x00, 0x58, 0x00, 0x00, 0x00, 0x0c, 0x00, 0x00, 0x00,
  0x08, 0x00, 0x0e, 0x00, 0x08, 0x00, 0x04, 0x00, 0x08, 0x00, 0x00, 0x00,
  0x10, 0x00, 0x00, 0x00, 0x28, 0x00, 0x00, 0x00, 0x00, 0x00, 0x06, 0x00,
  0x08, 0x00, 0x04, 0x00, 0x06, 0x00, 0x00, 0x00, 0x04, 0x00, 0x00, 0x00,
  0x01, 0x00, 0x00, 0x00, 0xeb, 0x03, 0x00, 0x00, 0x00, 0x00, 0x0a, 0x00,
  0x10, 0x00, 0x0c, 0x00, 0x08, 0x00, 0x04, 0x00, 0x0a, 0x00, 0x00, 0x00,
  0x02, 0x00, 0x00, 0x00, 0x02, 0x00, 0x00, 0x00, 0x04, 0x00, 0x00, 0x00,
  0x06, 0x00, 0x00, 0x00, 0x32, 0x2e, 0x31, 0x35, 0x2e, 0x30, 0x00, 0x00,
  0xde, 0xdf, 0xff, 0xff, 0x04, 0x00, 0x00, 0x00, 0x10, 0x00, 0x00, 0x00,
  0x32, 0x2e, 0x35, 0x2e, 0x30, 0x00, 0x00, 0x00, 0x00, 0x00, 0x00, 0x00,
  0x00, 0x00, 0x00, 0x00, 0x54, 0xae, 0xff, 0xff, 0x58, 0xae, 0xff, 0xff,
  0x5c, 0xae, 0xff, 0xff, 0x60, 0xae, 0xff, 0xff, 0x64, 0xae, 0xff, 0xff,
  0x68, 0xae, 0xff, 0xff, 0x6c, 0xae, 0xff, 0xff, 0x70, 0xae, 0xff, 0xff,
  0x74, 0xae, 0xff, 0xff, 0x78, 0xae, 0xff, 0xff, 0x7c, 0xae, 0xff, 0xff,
  0x80, 0xae, 0xff, 0xff, 0x84, 0xae, 0xff, 0xff, 0x88, 0xae, 0xff, 0xff,
  0x8c, 0xae, 0xff, 0xff, 0x90, 0xae, 0xff, 0xff, 0x94, 0xae, 0xff, 0xff,
  0x98, 0xae, 0xff, 0xff, 0x9c, 0xae, 0xff, 0xff, 0xa0, 0xae, 0xff, 0xff,
  0xa4, 0xae, 0xff, 0xff, 0xa8, 0xae, 0xff, 0xff, 0xac, 0xae, 0xff, 0xff,
  0xb0, 0xae, 0xff, 0xff, 0xb4, 0xae, 0xff, 0xff, 0xb8, 0xae, 0xff, 0xff,
  0xbc, 0xae, 0xff, 0xff, 0xc0, 0xae, 0xff, 0xff, 0xc4, 0xae, 0xff, 0xff,
  0xc8, 0xae, 0xff, 0xff, 0xcc, 0xae, 0xff, 0xff, 0xd0, 0xae, 0xff, 0xff,
  0xd4, 0xae, 0xff, 0xff, 0xd8, 0xae, 0xff, 0xff, 0xdc, 0xae, 0xff, 0xff,
  0xe0, 0xae, 0xff, 0xff, 0xe4, 0xae, 0xff, 0xff, 0xe8, 0xae, 0xff, 0xff,
  0xec, 0xae, 0xff, 0xff, 0xf0, 0xae, 0xff, 0xff, 0xf4, 0xae, 0xff, 0xff,
  0xf8, 0xae, 0xff, 0xff, 0xfc, 0xae, 0xff, 0xff, 0x00, 0xaf, 0xff, 0xff,
  0x04, 0xaf, 0xff, 0xff, 0x08, 0xaf, 0xff, 0xff, 0x0c, 0xaf, 0xff, 0xff,
  0x10, 0xaf, 0xff, 0xff, 0x14, 0xaf, 0xff, 0xff, 0x18, 0xaf, 0xff, 0xff,
  0x1c, 0xaf, 0xff, 0xff, 0x20, 0xaf, 0xff, 0xff, 0x24, 0xaf, 0xff, 0xff,
  0x28, 0xaf, 0xff, 0xff, 0x2c, 0xaf, 0xff, 0xff, 0x30, 0xaf, 0xff, 0xff,
  0x34, 0xaf, 0xff, 0xff, 0x38, 0xaf, 0xff, 0xff, 0x3c, 0xaf, 0xff, 0xff,
  0x40, 0xaf, 0xff, 0xff, 0x44, 0xaf, 0xff, 0xff, 0x48, 0xaf, 0xff, 0xff,
  0x4c, 0xaf, 0xff, 0xff, 0x50, 0xaf, 0xff, 0xff, 0xfa, 0xe0, 0xff, 0xff,
  0x04, 0x00, 0x00, 0x00, 0x58, 0x02, 0x00, 0x00, 0x18, 0x0b, 0x42, 0xf3,
  0xbf, 0xf9, 0x6b, 0xf5, 0xc7, 0xbf, 0x2d, 0xb2, 0x21, 0x5d, 0xea, 0x1a,
  0x22, 0xc6, 0xbf, 0x6b, 0xd8, 0x25, 0xc7, 0xcc, 0xfd, 0x18, 0xf5, 0xad,
  0xed, 0x3e, 0xe4, 0x14, 0x07, 0x03, 0x29, 0xb9, 0x3d, 0xf4, 0x7f, 0x9a,
  0xa2, 0xd8, 0xea, 0xd3, 0xb9, 0xcf, 0x36, 0xe2, 0x1a, 0x15, 0x4f, 0xd6,
  0xef, 0x26, 0x89, 0xe3, 0x43, 0x82, 0x59, 0x4b, 0x1d, 0xed, 0x57, 0x30,
  0xf5, 0xb3, 0x28, 0xb2, 0x2c, 0x07, 0x9f, 0x05, 0xdb, 0x1e, 0xfb, 0x2f,
  0x19, 0xf4, 0x15, 0xda, 0x26, 0xe0, 0x4b, 0xda, 0xcc, 0x4f, 0xff, 0xeb,
  0xad, 0xef, 0x97, 0x1b, 0x36, 0x1f, 0xc4, 0x82, 0xc8, 0xc6, 0x81, 0x17,
  0x17, 0x61, 0x09, 0x34, 0xea, 0xcf, 0x0a, 0x26, 0xb5, 0xf8, 0x94, 0xf6,
  0xf2, 0xfb, 0x5c, 0x0d, 0x45, 0x36, 0x09, 0x17, 0x53, 0x26, 0x2c, 0x71,
  0xa7, 0xbb, 0xfc, 0x3d, 0xf8, 0x24, 0xa1, 0xf8, 0x4e, 0x10, 0xc8, 0x38,
  0xf6, 0xe0, 0x5b, 0x23, 0xdd, 0xe2, 0xdd, 0xc3, 0x38, 0x6d, 0x4a, 0x33,
  0xeb, 0x2f, 0xd4, 0x2c, 0x67, 0xbd, 0x59, 0x10, 0x9d, 0x51, 0xda, 0xdf,
  0x10, 0x0f, 0xd2, 0xc6, 0xe0, 0xc5, 0xe7, 0xab, 0x2f, 0x3d, 0xe7, 0xbe,
  0x06, 0x21, 0x22, 0x7f, 0xc3, 0xe7, 0xe6, 0x30, 0xb9, 0x13, 0x2e, 0x15,
  0xfe, 0x3f, 0xbd, 0x49, 0xbf, 0x3d, 0x62, 0xf8, 0xee, 0x0b, 0x5f, 0x22,
  0xb6, 0x13, 0xe8, 0xd7, 0xfe, 0x08, 0x45, 0x3e, 0x14, 0x22, 0x14, 0xde,
  0xdc, 0x42, 0xe7, 0x1b, 0x33, 0xd4, 0xfc, 0x56, 0x1a, 0x28, 0xe8, 0xe0,
  0x16, 0xe7, 0xe4, 0x12, 0xcb, 0x50, 0x63, 0xdd, 0xec, 0xa9, 0xa4, 0x41,
  0xf5, 0xd1, 0x0b, 0x48, 0xde, 0x29, 0x26, 0x45, 0x1c, 0xd6, 0x2d, 0xf0,
  0xcf, 0xf3, 0x30, 0xbe, 0x8e, 0xa3, 0x34, 0x34, 0x01, 0x2f, 0x93, 0x33,
  0xc0, 0xc0, 0x48, 0xca, 0xda, 0x6e, 0xc2, 0x22, 0xf8, 0x0e, 0xe8, 0x85,
  0xd1, 0x74, 0xe8, 0x06, 0x0e, 0xc2, 0xe9, 0xb4, 0xfc, 0x37, 0xf2, 0xeb,
  0xf5, 0xde, 0x5a, 0x6f, 0xeb, 0xcd, 0x0a, 0xbe, 0xc0, 0x25, 0x98, 0x08,
  0x1b, 0xb7, 0x4c, 0xb8, 0xf9, 0x56, 0x30, 0x81, 0xaa, 0x4b, 0x18, 0x9f,
  0xca, 0xff, 0x04, 0xcc, 0xf3, 0x07, 0xd8, 0x31, 0x0c, 0xb1, 0x16, 0xfd,
  0xe2, 0x28, 0xf8, 0x0b, 0xc6, 0xa9, 0x00, 0x4f, 0x1d, 0x2a, 0xaa, 0x09,
  0xb5, 0xe2, 0x32, 0xfc, 0x29, 0x1d, 0x3d, 0xe6, 0x35, 0x88, 0xd4, 0xdb,
  0xbe, 0xd7, 0x47, 0x3c, 0xb3, 0x29, 0xd7, 0x18, 0x47, 0x38, 0x19, 0x59,
  0x61, 0x29, 0xfc, 0x19, 0x2d, 0x81, 0xd7, 0xda, 0xef, 0x69, 0x04, 0x05,
  0x90, 0xae, 0x07, 0xdc, 0xa2, 0x0c, 0xd6, 0x67, 0x62, 0x08, 0x35, 0x30,
  0xf8, 0x2c, 0xde, 0x1f, 0xef, 0x0c, 0x4d, 0x26, 0x81, 0x01, 0xd0, 0xcf,
  0xdd, 0x5b, 0x1c, 0xdd, 0x00, 0x22, 0xc9, 0xbc, 0xf5, 0xad, 0xe1, 0x30,
  0x22, 0xc5, 0x73, 0x23, 0x08, 0x13, 0xed, 0x1d, 0x0e, 0xe0, 0x24, 0xe4,
  0xe3, 0x04, 0x97, 0x71, 0x4f, 0x48, 0xb0, 0x02, 0xf6, 0xe8, 0x31, 0x2b,
  0xea, 0x22, 0x0c, 0xf9, 0xfe, 0xec, 0x29, 0x02, 0x3d, 0x13, 0x0c, 0x05,
  0x2e, 0x00, 0xf3, 0x2f, 0x02, 0xd6, 0x62, 0x01, 0x28, 0xc6, 0xa0, 0xc3,
  0x35, 0x31, 0x89, 0xa0, 0x93, 0x1d, 0xd3, 0xe5, 0xf1, 0x00, 0xc9, 0xe7,
  0x12, 0xf8, 0xcb, 0xc4, 0xda, 0xf4, 0x12, 0x0c, 0xb2, 0x38, 0xd6, 0x24,
  0x7c, 0x42, 0x7f, 0x69, 0xc4, 0xdf, 0xf8, 0xd7, 0x1f, 0x44, 0x51, 0xf4,
  0x1d, 0x04, 0x19, 0x56, 0x0a, 0x22, 0x0e, 0x64, 0x9e, 0x73, 0xab, 0x05,
  0x0e, 0xdc, 0x08, 0xd4, 0xed, 0x34, 0xd3, 0x28, 0xb4, 0xfd, 0xab, 0x03,
  0xf9, 0x00, 0x9c, 0x6c, 0xee, 0x1e, 0xde, 0x8b, 0x9c, 0xd6, 0x26, 0x05,
  0xfb, 0x12, 0xc5, 0xfb, 0xfc, 0x06, 0x10, 0xf2, 0x66, 0xec, 0x81, 0x7c,
  0x03, 0xf3, 0x01, 0xe5, 0x3e, 0xb0, 0x66, 0xeb, 0x19, 0xf8, 0xb1, 0x1e,
  0x42, 0x88, 0xb4, 0x14, 0xdb, 0x38, 0x31, 0x04, 0xeb, 0xfa, 0xf5, 0x06,
  0x08, 0xfa, 0xb1, 0x75, 0xbc, 0x40, 0xa1, 0x11, 0xc9, 0x1e, 0x06, 0x66,
  0x08, 0xe5, 0xc6, 0x6d, 0x0b, 0x01, 0x34, 0xf0, 0x00, 0x28, 0xbe, 0xc8,
  0xfc, 0x87, 0x20, 0x31, 0x37, 0x68, 0xb7, 0x2d, 0x36, 0x0b, 0x11, 0x14,
  0xff, 0x9f, 0xf8, 0x1e, 0xe9, 0x6f, 0xe4, 0xde, 0x5e, 0xe3, 0xff, 0xff,
  0x04, 0x00, 0x00, 0x00, 0x20, 0x00, 0x00, 0x00, 0x09, 0x01, 0x00, 0x00,
  0x6c, 0xfd, 0xff, 0xff, 0xd1, 0xff, 0xff, 0xff, 0xaf, 0xf8, 0xff, 0xff,
  0xad, 0x03, 0x00, 0x00, 0x84, 0xfe, 0xff, 0xff, 0xe4, 0xfa, 0xff, 0xff,
  0xe3, 0xfb, 0xff, 0xff, 0xe4, 0xb1, 0xff, 0xff, 0xe8, 0xb1, 0xff, 0xff,
  0xec, 0xb1, 0xff, 0xff, 0xf0, 0xb1, 0xff, 0xff, 0xf4, 0xb1, 0xff, 0xff,
  0xf8, 0xb1, 0xff, 0xff, 0xa2, 0xe3, 0xff, 0xff, 0x04, 0x00, 0x00, 0x00,
  0x01, 0x00, 0x00, 0x00, 0x7f, 0x00, 0x00, 0x00, 0xb2, 0xe3, 0xff, 0xff,
  0x04, 0x00, 0x00, 0x00, 0x40, 0x06, 0x00, 0x00, 0xd3, 0x45, 0x4b, 0x1d,
  0x3d, 0x02, 0x81, 0xaf, 0xc2, 0x14, 0x45, 0x09, 0xf2, 0x0e, 0xd4, 0xf9,
  0xfe, 0xf9, 0xe4, 0x0b, 0x8a, 0x35, 0xe5, 0xbc, 0x40, 0x20, 0x19, 0xf2,
  0xc8, 0x71, 0x7d, 0x3e, 0x1a, 0xff, 0x24, 0x1c, 0xd3, 0xcb, 0xfc, 0xc5,
  0x47, 0x08, 0x11, 0x14, 0xdd, 0xcf, 0xf6, 0x37, 0xcc, 0xe1, 0xc2, 0x13,
  0x1b, 0xae, 0xb0, 0x0d, 0x41, 0x0a, 0x09, 0x4c, 0xba, 0xed, 0x22, 0xb9,
  0xf3, 0xe6, 0x6a, 0xe1, 0x25, 0x1a, 0x2a, 0xf6, 0x04, 0x15, 0x52, 0xc8,
  0x15, 0xc7, 0x9a, 0x2a, 0x33, 0xd4, 0x16, 0xe5, 0x29, 0x24, 0x31, 0xef,
  0xf5, 0x22, 0x28, 0x1b, 0xbd, 0xd4, 0xbf, 0x49, 0x3b, 0x3c, 0x1a, 0x2b,
  0xd0, 0xc5, 0x53, 0x09, 0xb2, 0xdd, 0xc0, 0xe6, 0x2f, 0x57, 0x2c, 0xac,
  0xcd, 0xd7, 0xd3, 0xe3, 0xf1, 0xb6, 0x3d, 0xe0, 0x02, 0x0e, 0x43, 0x75,
  0x21, 0x27, 0x45, 0x4f, 0xd0, 0x2e, 0x38, 0x33, 0x2f, 0x53, 0x2e, 0xcc,
  0xd8, 0xe1, 0x48, 0xf2, 0xcb, 0xb8, 0xeb, 0x2a, 0xf1, 0xe0, 0x1e, 0xee,
  0xe7, 0xd3, 0xf6, 0x2d, 0x52, 0xd7, 0x08, 0x13, 0xc7, 0xd6, 0x07, 0xbf,
  0xe2, 0xed, 0x0e, 0x20, 0x81, 0xf2, 0xdd, 0xe5, 0x3e, 0x37, 0xa2, 0x4e,
  0x51, 0xda, 0x41, 0x04, 0x08, 0x21, 0x2c, 0xf8, 0xcf, 0xcd, 0x05, 0x51,
  0xe9, 0x37, 0x4b, 0xdc, 0x1c, 0xfe, 0x2a, 0x15, 0xbb, 0x1d, 0xee, 0x17,
  0xa8, 0x06, 0xc4, 0x24, 0x28, 0x13, 0x5c, 0x22, 0x23, 0x0b, 0xfe, 0xf6,
  0x0c, 0x2b, 0x3f, 0xc5, 0x33, 0x38, 0xe5, 0x74, 0xd4, 0x43, 0x0d, 0x09,
  0xa1, 0x22, 0x59, 0x40, 0xbe, 0xc0, 0x3a, 0x17, 0x0e, 0x03, 0xec, 0x81,
  0xac, 0x62, 0x0a, 0xfd, 0xdb, 0x7f, 0x7f, 0x00, 0xca, 0x39, 0x49, 0xaa,
  0x05, 0x3b, 0x00, 0x03, 0xd6, 0xd9, 0x1f, 0xe7, 0xaa, 0x4e, 0x52, 0x3a,
  0xd6, 0x14, 0x37, 0x43, 0xc6, 0xe6, 0x75, 0x17, 0xaa, 0xc9, 0x00, 0xea,
  0xcc, 0x81, 0xe6, 0xed, 0x67, 0xe3, 0xae, 0xeb, 0x25, 0x1b, 0xa7, 0x7f,
  0x19, 0x04, 0xd1, 0x3e, 0x20, 0x32, 0xb1, 0x05, 0x01, 0x36, 0x56, 0x25,
  0x43, 0x28, 0x05, 0xd2, 0x3c, 0x35, 0xb8, 0x4e, 0x13, 0xb9, 0x43, 0xc7,
  0x27, 0x4d, 0x48, 0x3f, 0xce, 0xa8, 0x08, 0x04, 0x18, 0xc7, 0xdc, 0x11,
  0xfc, 0x31, 0x87, 0x3c, 0xfb, 0xce, 0x34, 0xa1, 0xe1, 0x7f, 0xf0, 0xba,
  0x1e, 0xfa, 0xc3, 0xcc, 0xff, 0x1d, 0x62, 0x2b, 0x1f, 0x01, 0xf3, 0x9a,
  0xf8, 0x0b, 0xe9, 0xe9, 0x42, 0x10, 0x06, 0xc5, 0xca, 0x25, 0x42, 0x39,
  0xe8, 0x2d, 0x1e, 0xf4, 0xd4, 0xde, 0xac, 0x24, 0x0d, 0x3e, 0x21, 0x29,
  0xfb, 0xe9, 0x40, 0xb0, 0xe3, 0x1b, 0xdf, 0xdb, 0xf3, 0xf7, 0x1b, 0xc1,
  0xe0, 0x15, 0xf8, 0xe1, 0xf3, 0x2f, 0xe6, 0xc4, 0xc4, 0x25, 0x2c, 0x1f,
  0x05, 0x31, 0x20, 0x15, 0x42, 0xb1, 0xf6, 0x01, 0x1d, 0x5e, 0xc8, 0xeb,
  0xa0, 0x14, 0xd5, 0xe7, 0x3d, 0x1f, 0xc9, 0x42, 0x0d, 0xd4, 0x33, 0xe7,
  0xae, 0x53, 0x54, 0xb0, 0xf8, 0xba, 0xf8, 0xf0, 0xb7, 0x1e, 0x34, 0x2f,
  0xb6, 0x55, 0xc5, 0xdb, 0xb4, 0xe6, 0x32, 0x4b, 0x6c, 0xcc, 0xa9, 0x93,
  0xd4, 0x2d, 0x25, 0x22, 0x27, 0x58, 0xe6, 0x1c, 0x3c, 0x1e, 0xcc, 0x46,
  0x1a, 0x25, 0x1b, 0x0a, 0x60, 0xf3, 0x39, 0xe2, 0x18, 0xe3, 0xf3, 0xf4,
  0x3b, 0xef, 0xeb, 0xc2, 0x35, 0x0d, 0x20, 0xe6, 0x47, 0xc2, 0xae, 0x77,
  0x02, 0x99, 0x3e, 0x8f, 0x53, 0xc6, 0xf4, 0x31, 0xdc, 0x14, 0xee, 0xed,
  0xcb, 0x27, 0x56, 0x44, 0x99, 0x10, 0x5a, 0x91, 0x29, 0x3b, 0x0c, 0xb9,
  0x11, 0x7f, 0xa7, 0x66, 0xae, 0x1c, 0x0f, 0x2f, 0x0c, 0x42, 0xe9, 0xdd,
  0x1f, 0x37, 0xfc, 0xd1, 0x6a, 0x0b, 0xf3, 0x49, 0xb7, 0x18, 0x15, 0xdd,
  0x67, 0x27, 0x57, 0xfd, 0x1a, 0xe6, 0x20, 0xf5, 0xcd, 0x1f, 0x2b, 0x13,
  0xce, 0x73, 0x54, 0x38, 0xe7, 0x2d, 0x58, 0xe4, 0xdd, 0x12, 0x32, 0xc3,
  0xfe, 0xcf, 0xc1, 0xee, 0x3d, 0x33, 0x97, 0x0c, 0x09, 0xbc, 0x3b, 0xcd,
  0xfe, 0xca, 0xf2, 0xfa, 0xc5, 0x2a, 0xb6, 0x37, 0xdb, 0x86, 0x8b, 0x17,
  0x2f, 0x37, 0x0d, 0x30, 0x39, 0x06, 0xfa, 0xf7, 0x36, 0x31, 0x93, 0xf9,
  0x2e, 0x1b, 0xcd, 0x19, 0x31, 0x21, 0x09, 0xc7, 0xd7, 0xba, 0x7f, 0x2a,
  0x1b, 0x52, 0x3f, 0x08, 0x02, 0xb6, 0x11, 0xc9, 0x38, 0xf2, 0x7f, 0x22,
  0x01, 0x4f, 0x60, 0x9d, 0xf9, 0x2c, 0x07, 0x16, 0x66, 0x4e, 0xcb, 0x94,
  0x04, 0x29, 0xc5, 0xc3, 0xde, 0xb4, 0x64, 0x29, 0xd6, 0x09, 0xb9, 0x38,
  0xd3, 0xf2, 0x19, 0xf3, 0xb5, 0xf3, 0xa4, 0xf8, 0x09, 0xd0, 0x81, 0x01,
  0x40, 0xde, 0x14, 0xf5, 0xfb, 0x2f, 0xdd, 0x41, 0x96, 0xe1, 0xbc, 0xc4,
  0x3d, 0x23, 0xfa, 0xe8, 0x38, 0xd5, 0xb0, 0x3a, 0xfd, 0xf2, 0xf0, 0xc0,
  0x41, 0x01, 0xf2, 0xe4, 0x44, 0x1a, 0x39, 0x1c, 0x9d, 0x37, 0x1b, 0x5b,
  0x16, 0x46, 0xd5, 0x2d, 0x1d, 0x5e, 0x6f, 0x42, 0xf1, 0x11, 0x1c, 0x3c,
  0x42, 0xce, 0x42, 0x1d, 0x20, 0xa6, 0xdd, 0xfd, 0xd7, 0xe2, 0xbc, 0x65,
  0xd7, 0xdc, 0x2f, 0xc1, 0x45, 0x22, 0x6e, 0x03, 0xcd, 0xfb, 0x3c, 0x1c,
  0xd3, 0xf3, 0xba, 0xdd, 0x09, 0x01, 0xcf, 0x48, 0xd1, 0x03, 0xfb, 0x00,
  0x8e, 0x7f, 0x10, 0x9b, 0xd4, 0x17, 0x95, 0x0c, 0xd1, 0x22, 0xba, 0x01,
  0xd9, 0x03, 0x22, 0xbe, 0x28, 0xea, 0x11, 0x87, 0xaa, 0xe5, 0x43, 0x1c,
  0x09, 0x4a, 0xea, 0x1e, 0xc8, 0xcd, 0x2b, 0xd0, 0xac, 0xe7, 0xd2, 0xec,
  0xc9, 0x35, 0xf5, 0xff, 0x0e, 0xf3, 0x1c, 0x09, 0x05, 0xd6, 0x08, 0x54,
  0x16, 0x54, 0xab, 0x04, 0xf3, 0xe4, 0x4b, 0x12, 0x12, 0x1a, 0x09, 0xce,
  0xb4, 0xf3, 0x4c, 0xfb, 0xf8, 0x1a, 0xf3, 0x09, 0x24, 0xd8, 0xd1, 0xeb,
  0x07, 0xd0, 0x60, 0x3c, 0x14, 0xdd, 0x52, 0x27, 0x04, 0xea, 0xda, 0x54,
  0xaf, 0x55, 0xf1, 0x5f, 0x36, 0x07, 0x25, 0xe8, 0x4d, 0xe4, 0x10, 0xd5,
  0x00, 0x45, 0xcc, 0xf1, 0x3f, 0x39, 0xf7, 0xf4, 0xef, 0xc2, 0x19, 0x52,
  0xe3, 0xbc, 0x1f, 0xdf, 0x2c, 0xdf, 0xf4, 0x36, 0xeb, 0x81, 0x04, 0x3a,
  0xe8, 0xcb, 0x21, 0x28, 0xf5, 0xd9, 0x98, 0x23, 0xf2, 0xbd, 0xfa, 0x3e,
  0xf6, 0x2d, 0x08, 0xfe, 0x1c, 0xed, 0xc2, 0xf2, 0x31, 0x25, 0xfb, 0x32,
  0x4b, 0x12, 0xd6, 0x62, 0xe1, 0x17, 0x4b, 0xda, 0xcb, 0x03, 0xb5, 0x25,
  0xf1, 0xaf, 0x0e, 0x3c, 0x14, 0x77, 0x10, 0x15, 0xd8, 0x14, 0x0b, 0x34,
  0xe4, 0xce, 0x34, 0x10, 0xf7, 0xd2, 0x2b, 0xc7, 0x19, 0x19, 0xee, 0x4a,
  0xd0, 0xc5, 0x06, 0x26, 0xf4, 0x11, 0xc0, 0x72, 0x53, 0xbf, 0x0c, 0xe2,
  0x0c, 0xd5, 0x32, 0x0c, 0xb1, 0x1b, 0x25, 0x08, 0x9e, 0x3b, 0x3b, 0x22,
  0xe2, 0x4c, 0x15, 0xce, 0xd3, 0xbe, 0xf9, 0xda, 0xfe, 0xd2, 0x0a, 0xc5,
  0x9c, 0x1e, 0x3d, 0x12, 0xa9, 0xe7, 0xa9, 0x4d, 0x0f, 0xed, 0xf9, 0xee,
  0xa8, 0xf9, 0x92, 0x39, 0x1f, 0xb3, 0x00, 0xf5, 0x01, 0x01, 0x2e, 0xf5,
  0x19, 0xd9, 0x3f, 0x42, 0xdd, 0x29, 0x6e, 0x73, 0x1b, 0xbe, 0x19, 0xe9,
  0xeb, 0x12, 0x0e, 0x11, 0x52, 0x5d, 0x65, 0x06, 0x81, 0xf6, 0x23, 0x2b,
  0x25, 0x07, 0xcc, 0xcf, 0x2f, 0xe4, 0x84, 0x2a, 0xbd, 0xe0, 0x34, 0x01,
  0xd0, 0xe3, 0xde, 0xcb, 0x58, 0xf2, 0xd6, 0xcf, 0x06, 0xa9, 0x2d, 0xfe,
  0x00, 0xe4, 0x24, 0x2f, 0x1f, 0x15, 0x1f, 0x09, 0xa8, 0xd7, 0xd8, 0xe9,
  0x3b, 0xe6, 0x3b, 0xb2, 0xfc, 0xcc, 0x2d, 0xaf, 0x03, 0x1b, 0x11, 0x81,
  0x46, 0xaf, 0x65, 0x58, 0xbe, 0xd3, 0xe7, 0xe4, 0xd0, 0xeb, 0x20, 0xe1,
  0xea, 0xfc, 0x19, 0xf9, 0xef, 0x86, 0xe8, 0x4b, 0x1a, 0xf4, 0x08, 0xb0,
  0x0f, 0xa0, 0x49, 0x01, 0x55, 0xbf, 0x06, 0x0e, 0x0a, 0x9d, 0xd6, 0x07,
  0x63, 0xae, 0x59, 0xf8, 0x38, 0xf2, 0x00, 0xfc, 0x0e, 0x36, 0x97, 0x27,
  0xcb, 0xa0, 0x4b, 0x0a, 0xf1, 0x21, 0x00, 0x11, 0xd7, 0x2d, 0x4b, 0xd3,
  0x0d, 0x01, 0x6a, 0x22, 0xe4, 0x35, 0x48, 0x15, 0xd0, 0x65, 0xed, 0xff,
  0x31, 0x0e, 0x2d, 0xf3, 0xd8, 0x57, 0x06, 0x35, 0xfa, 0xec, 0x1f, 0x25,
  0x95, 0xe1, 0x26, 0xd4, 0x1c, 0x6d, 0x7f, 0x10, 0xbf, 0xf1, 0x12, 0x9b,
  0xf1, 0xdd, 0x08, 0x3d, 0xed, 0x1f, 0x36, 0xbb, 0xeb, 0x5f, 0x30, 0xb2,
  0x07, 0x0f, 0x3a, 0x11, 0x15, 0xe7, 0xf7, 0xdf, 0x1d, 0x12, 0x0d, 0xdf,
  0xd3, 0x81, 0xe6, 0x51, 0xe7, 0x21, 0xfa, 0xde, 0x1b, 0xd7, 0x48, 0xc6,
  0xa4, 0x26, 0xea, 0xbc, 0xbb, 0x47, 0xf2, 0x57, 0x20, 0x2c, 0xe6, 0xf2,
  0x23, 0xc3, 0x0f, 0xb4, 0x4e, 0xb5, 0xfc, 0xfa, 0x34, 0xe9, 0x7f, 0xee,
  0xea, 0x98, 0x38, 0x20, 0xe6, 0x69, 0x50, 0x8d, 0xca, 0xf6, 0xd8, 0x1c,
  0xea, 0x34, 0x12, 0xf7, 0x06, 0xbc, 0xe7, 0x8d, 0xf3, 0xef, 0x2e, 0x4f,
  0xf2, 0xf3, 0xb1, 0xf1, 0x1f, 0x4c, 0xfa, 0x27, 0x81, 0x01, 0xbf, 0xb9,
  0xd4, 0xd9, 0xcd, 0x29, 0xa5, 0x04, 0x88, 0x29, 0xb5, 0x0c, 0x01, 0x46,
  0xe1, 0xf1, 0xe4, 0x66, 0xee, 0x8d, 0x07, 0x23, 0xbf, 0x59, 0xf8, 0xe6,
  0x61, 0xae, 0x33, 0xea, 0x83, 0xd9, 0xed, 0xdb, 0x39, 0x0e, 0xa0, 0x1a,
  0x95, 0xff, 0x42, 0xf2, 0xe4, 0xbc, 0x9a, 0x44, 0xe5, 0xb0, 0x0b, 0x2d,
  0x09, 0x14, 0x1b, 0xde, 0xea, 0x38, 0xff, 0xfc, 0xc2, 0x33, 0xa4, 0x0d,
  0xdb, 0xfa, 0x94, 0xf7, 0xfe, 0x37, 0x20, 0xa4, 0xf4, 0xed, 0xfa, 0xe1,
  0x32, 0x01, 0xaf, 0xc2, 0xd0, 0x6f, 0xed, 0x4c, 0xa9, 0x3d, 0xe7, 0x6b,
  0xc3, 0x1f, 0xdb, 0x2d, 0x22, 0xd9, 0xf7, 0xb8, 0x1b, 0xe2, 0xc7, 0x45,
  0xf0, 0xe0, 0xec, 0x12, 0xd8, 0xfe, 0xe0, 0xf3, 0x41, 0x28, 0xd9, 0xf4,
  0xd1, 0x47, 0x49, 0x25, 0xff, 0xf0, 0xc8, 0xdc, 0x34, 0x1b, 0xf6, 0x35,
  0xd0, 0xb1, 0x09, 0x10, 0xb9, 0x16, 0xd7, 0x34, 0xe7, 0xfc, 0xc6, 0xaf,
  0x21, 0x2b, 0xd3, 0x62, 0x11, 0x88, 0xe2, 0x93, 0x2a, 0x54, 0xb3, 0x59,
  0x43, 0xe3, 0x2f, 0x2d, 0x57, 0xfa, 0xfe, 0xf6, 0xfb, 0xfa, 0xf9, 0x83,
  0x2a, 0x35, 0xfa, 0xf8, 0x01, 0x71, 0x16, 0x2c, 0xd2, 0x11, 0xe1, 0xe8,
  0xcc, 0x75, 0x26, 0xdc, 0x23, 0x08, 0x9c, 0x25, 0xec, 0x08, 0x91, 0xf5,
  0xf6, 0x30, 0xb6, 0xb3, 0x3c, 0xc2, 0xf7, 0x0c, 0xd3, 0x69, 0x39, 0x04,
  0x51, 0xfc, 0x12, 0x33, 0xcf, 0xe3, 0x18, 0x6c, 0x49, 0xec, 0xf8, 0xcb,
  0x52, 0x22, 0x3e, 0xaf, 0x24, 0xf3, 0x37, 0x1e, 0xee, 0xe4, 0xe2, 0xfa,
  0x22, 0xde, 0xb9, 0xe2, 0xf7, 0x48, 0x16, 0x0a, 0x1c, 0x9c, 0xfb, 0xe4,
  0x2c, 0x3f, 0xbc, 0xb6, 0x1f, 0xf6, 0x07, 0xd4, 0x1e, 0xee, 0xeb, 0xe4,
  0x13, 0xed, 0x25, 0xe3, 0xb9, 0xff, 0xd6, 0xc4, 0xf1, 0x38, 0x30, 0x40,
  0xe8, 0xce, 0xfc, 0xe9, 0x60, 0x75, 0xf4, 0xfa, 0xd4, 0x06, 0x02, 0x2a,
  0x2a, 0x5d, 0x3d, 0xd8, 0x38, 0xe2, 0xf4, 0xae, 0x99, 0x63, 0xcf, 0xb6,
  0x02, 0x4e, 0x37, 0xf3, 0xec, 0x1b, 0xb1, 0xd0, 0xde, 0xbe, 0xfd, 0x56,
  0xd9, 0x2b, 0xe4, 0x8c, 0x1a, 0x81, 0xca, 0xe5, 0x22, 0x30, 0x0f, 0x58,
  0xe7, 0x40, 0x04, 0xf6, 0x14, 0xf3, 0xf7, 0xeb, 0x20, 0xac, 0x0b, 0x15,
  0x0f, 0x05, 0x22, 0x31, 0x1c, 0xc3, 0x28, 0xd8, 0xc8, 0x00, 0xd9, 0x2e,
  0xdd, 0xf1, 0x35, 0xe4, 0xab, 0xd9, 0xea, 0xdd, 0x1e, 0xf2, 0x31, 0xe0,
  0xe5, 0xc9, 0x02, 0x41, 0x25, 0x11, 0xf3, 0xc0, 0xd8, 0x21, 0xe8, 0x7a,
  0x3b, 0x87, 0x25, 0xb9, 0xc0, 0xe8, 0xa2, 0x22, 0xd0, 0x00, 0x7f, 0xe9,
  0x4a, 0xd9, 0xea, 0xee, 0xf0, 0x33, 0xfb, 0x4b, 0xdb, 0xf1, 0x32, 0x55,
  0xfe, 0xe9, 0xff, 0xff, 0x04, 0x00, 0x00, 0x00, 0x20, 0x00, 0x00, 0x00,
  0x99, 0xe3, 0xff, 0xff, 0x74, 0x49, 0xff, 0xff, 0x0b, 0x3a, 0xff, 0xff,
  0x1c, 0x38, 0x00, 0x00, 0x19, 0xb0, 0xff, 0xff, 0xcc, 0xe6, 0xff, 0xff,
  0x2b, 0xf1, 0x00, 0x00, 0x36, 0x1f, 0x00, 0x00, 0x84, 0xb8, 0xff, 0xff,
  0x88, 0xb8, 0xff, 0xff, 0x8c, 0xb8, 0xff, 0xff, 0x36, 0xea, 0xff, 0xff,
  0x04, 0x00, 0x00, 0x00, 0x00, 0x08, 0x00, 0x00, 0xe7, 0xe0, 0xd6, 0xcd,
  0x19, 0x32, 0xe8, 0x1f, 0xcc, 0x28, 0x0b, 0x04, 0xe0, 0x05, 0x1c, 0x16,
  0xf7, 0x1b, 0xee, 0x46, 0xee, 0xf1, 0xe0, 0xff, 0x07, 0xea, 0x16, 0x1b,
  0x30, 0xf8, 0xf6, 0x15, 0x29, 0x16, 0xf2, 0xf3, 0x1f, 0xf5, 0xc1, 0x1b,
  0xc6, 0x07, 0xf7, 0x02, 0x2d, 0x1c, 0xf5, 0xcf, 0x10, 0x04, 0x55, 0x23,
  0x15, 0x0d, 0x23, 0x18, 0x1a, 0x26, 0x37, 0x39, 0x32, 0xc9, 0xec, 0x30,
  0x0d, 0xd9, 0xe9, 0xb5, 0xeb, 0xd0, 0x7f, 0x00, 0xdc, 0xf8, 0x05, 0xd2,
  0xde, 0x4c, 0x09, 0x0e, 0x30, 0x1c, 0xfd, 0x07, 0x0b, 0xee, 0x28, 0x02,
  0x3e, 0x13, 0x2c, 0xef, 0x2e, 0x07, 0xdf, 0xed, 0x04, 0x29, 0xf0, 0xe1,
  0xf0, 0x1e, 0x17, 0xad, 0xe3, 0xcc, 0x5d, 0x3a, 0xfc, 0xd0, 0x05, 0x60,
  0xf1, 0xda, 0x54, 0xd9, 0x2f, 0x0b, 0xf4, 0x2f, 0x69, 0x15, 0xe1, 0xd1,
  0x05, 0xe3, 0x49, 0x2f, 0xdc, 0x02, 0xe7, 0x44, 0xdc, 0xee, 0xd9, 0x0b,
  0xeb, 0x0d, 0x12, 0x29, 0x02, 0xe2, 0x0e, 0xd4, 0x05, 0xf5, 0x00, 0x16,
  0x2a, 0x06, 0x1a, 0x09, 0x09, 0xfa, 0x19, 0xff, 0x0d, 0x17, 0xb5, 0xfa,
  0x1d, 0x1c, 0x05, 0xf5, 0x1e, 0x02, 0xf5, 0x05, 0xde, 0xfe, 0xe2, 0x2d,
  0xe3, 0x18, 0xe4, 0xee, 0x28, 0x1a, 0x1f, 0x01, 0xf7, 0x13, 0x37, 0x28,
  0x1f, 0x17, 0x05, 0xea, 0x1b, 0xef, 0x12, 0xfd, 0x1f, 0x0a, 0xf7, 0xf2,
  0xc2, 0xda, 0xe3, 0x1a, 0x10, 0xcb, 0x04, 0x29, 0x20, 0xef, 0xfd, 0x1e,
  0xdf, 0x41, 0x14, 0xea, 0x0b, 0xce, 0x0c, 0xde, 0xe6, 0x01, 0xf5, 0xde,
  0xc8, 0x2b, 0xf7, 0xea, 0x0c, 0xf2, 0xc4, 0xde, 0x37, 0xcd, 0x40, 0xdb,
  0x24, 0xfb, 0xdd, 0x13, 0xe2, 0xff, 0xf0, 0xee, 0xd9, 0xea, 0xf9, 0xd6,
  0xb6, 0x02, 0x14, 0x12, 0x21, 0x00, 0xfd, 0xd6, 0x11, 0xc6, 0x01, 0xf2,
  0x28, 0xf9, 0x13, 0xe9, 0xd1, 0x20, 0xee, 0xe8, 0x22, 0xf4, 0xf9, 0xe8,
  0xbb, 0x40, 0x0a, 0x2a, 0x13, 0xe3, 0x07, 0xd4, 0xf5, 0x01, 0xd1, 0xe6,
  0xbe, 0xe1, 0xe8, 0xe6, 0xf4, 0x21, 0x1e, 0x02, 0x24, 0xfa, 0x19, 0xb7,
  0xfd, 0x0c, 0x01, 0x2e, 0x14, 0x14, 0xc1, 0xec, 0x13, 0xe0, 0xee, 0x12,
  0xf3, 0xee, 0xb7, 0x10, 0x07, 0x24, 0xcb, 0xfd, 0xba, 0xcd, 0xe0, 0x42,
  0x2c, 0x39, 0xdb, 0x37, 0xd8, 0x00, 0xed, 0x34, 0x09, 0x34, 0x1a, 0x2d,
  0xe5, 0xe0, 0xd5, 0xd3, 0xe2, 0xee, 0x17, 0xe9, 0x1e, 0xf8, 0x27, 0xef,
  0x07, 0x2c, 0x2b, 0xda, 0x2d, 0xd3, 0xed, 0xe4, 0x0b, 0xed, 0xe8, 0xfd,
  0x0d, 0xed, 0x34, 0x06, 0x03, 0x34, 0xcc, 0x29, 0x22, 0xf6, 0xcc, 0xf2,
  0x19, 0x19, 0xdb, 0xd7, 0xf0, 0x0a, 0xfa, 0x22, 0x34, 0xf3, 0xf7, 0xcc,
  0xe5, 0x24, 0x34, 0xec, 0x11, 0xd1, 0xe0, 0x07, 0x13, 0x2f, 0x16, 0xf9,
  0xbf, 0x1c, 0xdb, 0xf5, 0x25, 0x22, 0xf4, 0x08, 0xd2, 0x0e, 0xed, 0x04,
  0xf8, 0x2e, 0x02, 0xb5, 0x10, 0xf2, 0x09, 0x12, 0xce, 0xf8, 0xb6, 0xc2,
  0x3b, 0x31, 0x01, 0xf3, 0x08, 0xe0, 0x05, 0xde, 0x1a, 0xe2, 0xe6, 0xe2,
  0xe2, 0xeb, 0x00, 0x1b, 0x26, 0xf5, 0x18, 0x39, 0xdb, 0x00, 0xf2, 0xf6,
  0x15, 0x53, 0xf2, 0x07, 0x08, 0xe3, 0xf2, 0x08, 0xf2, 0x0a, 0xe5, 0x00,
  0x08, 0xed, 0x28, 0x1b, 0xdc, 0xea, 0xe9, 0x4a, 0x21, 0xe8, 0x1b, 0x13,
  0x25, 0x17, 0x0a, 0x26, 0xda, 0x23, 0xe9, 0x03, 0x17, 0x0e, 0xf4, 0x08,
  0x0f, 0x41, 0xda, 0xec, 0x0a, 0xff, 0x0b, 0xe8, 0x19, 0x06, 0x0b, 0xe5,
  0x39, 0x1a, 0x08, 0xf1, 0xea, 0xec, 0x05, 0xe4, 0x02, 0xf0, 0x03, 0xd8,
  0x0d, 0x28, 0x01, 0x02, 0xf8, 0x25, 0x0c, 0x13, 0xeb, 0xd7, 0xec, 0x1a,
  0x37, 0x12, 0xcc, 0xd5, 0x03, 0xd2, 0x31, 0xe1, 0xfd, 0xc3, 0x3a, 0xdb,
  0x26, 0xcf, 0xec, 0x1f, 0x1f, 0xb3, 0x06, 0x2f, 0xd7, 0xf1, 0xc3, 0xf9,
  0x02, 0x07, 0xf3, 0xd2, 0xd6, 0x5d, 0x0f, 0xdd, 0x01, 0x01, 0xd7, 0x15,
  0xe5, 0x07, 0xd1, 0x2d, 0x2e, 0x0c, 0x31, 0xef, 0x2d, 0x22, 0x34, 0xfe,
  0xee, 0x20, 0x0d, 0x22, 0x0d, 0xd9, 0x07, 0x07, 0xe4, 0xdf, 0x27, 0xfc,
  0x17, 0x05, 0x00, 0x0f, 0xc6, 0x18, 0x0e, 0xd8, 0xe8, 0xf0, 0x0e, 0x0c,
  0x42, 0xf3, 0x09, 0xb4, 0x2d, 0xfd, 0xd9, 0x31, 0x1b, 0x30, 0xb1, 0x04,
  0x0a, 0x0e, 0xdc, 0x1f, 0x2f, 0x01, 0x1d, 0x28, 0xff, 0xfd, 0xf9, 0xf9,
  0xf4, 0xff, 0xc8, 0xe7, 0x07, 0xd8, 0x10, 0x26, 0x10, 0x20, 0x01, 0x1b,
  0x1a, 0x04, 0x38, 0x3d, 0xd1, 0x46, 0x01, 0xff, 0x21, 0x17, 0xbc, 0x0b,
  0x06, 0xd7, 0x2d, 0xde, 0x15, 0x1d, 0x1a, 0x13, 0xcb, 0xf8, 0xcd, 0xb7,
  0xee, 0x07, 0x3d, 0x07, 0xf6, 0x07, 0xec, 0xac, 0x0d, 0x18, 0xe8, 0x1f,
  0x01, 0xc8, 0xea, 0xf0, 0x1b, 0xb9, 0xf0, 0xfd, 0xda, 0x0d, 0xd9, 0x0a,
  0x08, 0x01, 0x0f, 0xee, 0xe6, 0x2a, 0xff, 0x1f, 0xff, 0xf8, 0xf1, 0xe3,
  0xef, 0xe6, 0x06, 0x13, 0xe6, 0xe0, 0xbe, 0xcf, 0x09, 0x08, 0xe6, 0xf6,
  0x13, 0x16, 0xe3, 0xef, 0xd1, 0xfd, 0xce, 0xe6, 0xdf, 0xfe, 0xd7, 0xfa,
  0xf1, 0xcf, 0xd3, 0xf5, 0xd6, 0x2d, 0xef, 0xfb, 0x23, 0x0f, 0x04, 0xff,
  0xe0, 0x1b, 0x22, 0x04, 0x04, 0xfe, 0x08, 0x17, 0x00, 0x15, 0x28, 0xda,
  0x13, 0x23, 0xf4, 0x19, 0x10, 0x08, 0xed, 0x1d, 0x26, 0x1f, 0xcf, 0xd0,
  0x17, 0xc4, 0xf0, 0xf9, 0xeb, 0xe6, 0x30, 0xf6, 0xf5, 0xd5, 0xf6, 0xe4,
  0xf7, 0x15, 0xdb, 0xd3, 0xda, 0x15, 0xe3, 0xf4, 0x08, 0xef, 0xfb, 0x14,
  0x16, 0xf3, 0xe8, 0x03, 0xe0, 0xf5, 0x12, 0xda, 0xc9, 0x3c, 0x0f, 0xf7,
  0xca, 0x03, 0xfd, 0xc3, 0x41, 0xdc, 0xf8, 0x0d, 0x00, 0x0d, 0x07, 0x10,
  0xef, 0x44, 0xdf, 0xd2, 0xee, 0xed, 0xee, 0xf7, 0xbd, 0xf3, 0x03, 0xdf,
  0xfe, 0x04, 0xe6, 0x11, 0xed, 0xcf, 0x17, 0xe2, 0x07, 0x05, 0xd6, 0x25,
  0x06, 0xde, 0xec, 0x01, 0x20, 0xdd, 0x31, 0x41, 0x02, 0xef, 0x09, 0x21,
  0x29, 0x06, 0xea, 0xf4, 0x08, 0xda, 0xdf, 0xf9, 0xf7, 0x12, 0xd6, 0x01,
  0x20, 0xd0, 0xbe, 0xcc, 0x01, 0xf0, 0x2f, 0x03, 0xe4, 0xc3, 0x15, 0xec,
  0x12, 0xf8, 0x36, 0xf3, 0xf0, 0x04, 0xf2, 0xf0, 0x13, 0x06, 0x28, 0xd7,
  0x3c, 0xfa, 0xe1, 0x42, 0x17, 0x14, 0xdb, 0x0c, 0x0f, 0xfe, 0xce, 0x22,
  0xdf, 0xfc, 0x08, 0xf4, 0x1f, 0x28, 0x2a, 0x3b, 0x41, 0x34, 0x10, 0xde,
  0xf7, 0xd6, 0x2d, 0xfc, 0x25, 0xf5, 0x17, 0x01, 0x19, 0x2e, 0x20, 0xdb,
  0x0d, 0xd8, 0x29, 0xe4, 0x0a, 0x29, 0xfb, 0xf9, 0xf7, 0xc3, 0xfb, 0xdb,
  0x3e, 0x01, 0xfe, 0x09, 0xd2, 0xe2, 0x06, 0x27, 0x1b, 0xed, 0xef, 0x17,
  0x24, 0x05, 0xf4, 0xf6, 0xba, 0x10, 0x3c, 0x21, 0xcc, 0xff, 0x1b, 0x0d,
  0xda, 0x3f, 0xf9, 0xf7, 0xf7, 0xe5, 0x21, 0x2d, 0x1c, 0x1b, 0xd7, 0xda,
  0xe5, 0xd4, 0x17, 0x29, 0x31, 0xe8, 0xd7, 0xcc, 0xd5, 0xd9, 0x10, 0x10,
  0x2b, 0xf5, 0xd7, 0xba, 0xc0, 0x14, 0x36, 0x05, 0x13, 0xb1, 0x15, 0x01,
  0x06, 0xc5, 0x5b, 0xd7, 0xd5, 0x06, 0xeb, 0x2f, 0x34, 0xdb, 0x16, 0x35,
  0xd8, 0x1b, 0xc2, 0x0b, 0x32, 0x04, 0x07, 0xee, 0x09, 0x4c, 0xf4, 0xd8,
  0x0c, 0xea, 0xec, 0x07, 0xef, 0x14, 0xea, 0xea, 0x14, 0xe5, 0x2b, 0x22,
  0x1a, 0x0a, 0x4e, 0xd7, 0x22, 0x20, 0xf5, 0x31, 0x1d, 0xd9, 0xed, 0x0f,
  0x06, 0xe5, 0x17, 0x04, 0x0c, 0x00, 0xf4, 0x08, 0xd1, 0xf7, 0x0b, 0x27,
  0x17, 0x02, 0x01, 0xc3, 0xe4, 0xf3, 0x10, 0xeb, 0x31, 0xf8, 0x37, 0xe7,
  0xd9, 0xfd, 0xf4, 0x20, 0x15, 0x35, 0xf5, 0x16, 0x13, 0xf6, 0xd2, 0xe9,
  0xf3, 0x0c, 0x01, 0x3c, 0x09, 0x03, 0x2d, 0x19, 0xee, 0xf2, 0x0c, 0xfa,
  0x37, 0xde, 0xfc, 0x0e, 0x1a, 0x39, 0xed, 0x0f, 0x0c, 0xcd, 0x16, 0x23,
  0x29, 0xae, 0x08, 0xf8, 0xf2, 0x1c, 0x13, 0x2e, 0x41, 0xe1, 0x2b, 0x13,
  0xe0, 0x08, 0x1c, 0x0b, 0xff, 0xf5, 0x25, 0x07, 0x05, 0xe1, 0x09, 0x12,
  0x0f, 0xf2, 0xd4, 0x17, 0xe2, 0xf3, 0xe9, 0x0f, 0x27, 0xf7, 0x01, 0x23,
  0xe6, 0xf4, 0x1f, 0x04, 0x17, 0xe6, 0x15, 0xed, 0xf2, 0xfc, 0x10, 0xf2,
  0xfc, 0xee, 0x12, 0x0d, 0xed, 0x08, 0x30, 0x2a, 0x0e, 0xf5, 0x21, 0x0a,
  0xed, 0xe0, 0x06, 0x10, 0x18, 0x03, 0x09, 0xd7, 0xe3, 0x00, 0xf2, 0xea,
  0xf8, 0xfc, 0x05, 0xe5, 0x19, 0xde, 0xf1, 0xdb, 0xc2, 0xff, 0xfe, 0x53,
  0x0f, 0x21, 0xdd, 0x66, 0xe4, 0xfc, 0xce, 0x21, 0x3a, 0x02, 0x9a, 0x0b,
  0xe7, 0x13, 0x28, 0x59, 0xdb, 0x2c, 0xf7, 0x1b, 0x36, 0x07, 0x24, 0x28,
  0x13, 0xfe, 0x25, 0x0f, 0x2c, 0xe4, 0xd5, 0x0a, 0xe4, 0x54, 0xe1, 0xe4,
  0xd2, 0xd4, 0xd4, 0xf2, 0xce, 0x4c, 0x0d, 0xc3, 0xcd, 0x2c, 0x04, 0xfa,
  0x10, 0x04, 0xcc, 0xf5, 0x21, 0xec, 0xf3, 0x16, 0x31, 0x03, 0xe4, 0xc9,
  0xbf, 0xfe, 0xbf, 0x18, 0xf2, 0x1a, 0x1b, 0x13, 0xe2, 0x18, 0xce, 0xd5,
  0xe1, 0x47, 0x0f, 0xf8, 0xf2, 0x1f, 0x13, 0x3f, 0xd3, 0x3e, 0xfe, 0x0b,
  0x2d, 0xcf, 0xe0, 0xff, 0x1e, 0xf0, 0xe5, 0x1e, 0xfe, 0x21, 0xdc, 0x42,
  0xe5, 0xea, 0x0b, 0x14, 0xd3, 0xca, 0x24, 0x18, 0xdc, 0xd3, 0x27, 0xd3,
  0xdf, 0x19, 0xfe, 0xd9, 0x1f, 0xc9, 0x13, 0xf5, 0x0e, 0x1c, 0x35, 0xe5,
  0x20, 0x08, 0xcf, 0x10, 0x26, 0xd2, 0xf3, 0xb9, 0x07, 0x2d, 0x55, 0xfa,
  0xee, 0xca, 0x16, 0x03, 0x13, 0x09, 0xda, 0x32, 0x08, 0xd1, 0xfb, 0x26,
  0x00, 0xe8, 0xfa, 0x1e, 0x16, 0x5f, 0x0e, 0x5d, 0x0a, 0xfa, 0x0f, 0x00,
  0xd5, 0x06, 0x2f, 0xf2, 0x0f, 0x17, 0x17, 0xab, 0xf8, 0xf6, 0xe3, 0x0f,
  0x18, 0xed, 0x1f, 0x48, 0xe0, 0x15, 0x42, 0xe1, 0xbe, 0x33, 0x12, 0x03,
  0x43, 0x18, 0x46, 0xad, 0x10, 0x05, 0xe3, 0x14, 0xf9, 0xe0, 0x00, 0x37,
  0x40, 0x21, 0xc6, 0xf9, 0xec, 0xf9, 0x1c, 0x0d, 0x20, 0x2c, 0xc8, 0x19,
  0xfd, 0xeb, 0x07, 0x4f, 0x13, 0x1c, 0xdb, 0xff, 0x69, 0xe0, 0x06, 0x69,
  0x07, 0x24, 0x0c, 0x0c, 0x07, 0xfe, 0xe9, 0x27, 0xd0, 0x10, 0xe1, 0xe1,
  0x11, 0x07, 0xf2, 0x11, 0x19, 0x00, 0xf4, 0x0b, 0xc7, 0xc6, 0xf9, 0xf9,
  0x1a, 0x10, 0xc2, 0x33, 0x21, 0x2a, 0x41, 0xfe, 0xfe, 0x15, 0x33, 0x20,
  0x24, 0xd1, 0x08, 0xe5, 0xe6, 0x2e, 0x05, 0x2e, 0xe3, 0x0c, 0xae, 0xce,
  0x0f, 0x3a, 0xf1, 0x05, 0x14, 0xfe, 0x16, 0xe1, 0xe5, 0xe0, 0xd0, 0xe3,
  0x1f, 0xc0, 0xf7, 0xdb, 0x1d, 0xe0, 0xed, 0x02, 0x2d, 0x0f, 0x36, 0xe0,
  0xfe, 0xe7, 0xef, 0xf4, 0x09, 0x0b, 0xea, 0xbb, 0x28, 0xf2, 0xe5, 0xfe,
  0xbd, 0x1e, 0xf4, 0xef, 0xee, 0x56, 0x0c, 0xf5, 0xcb, 0xea, 0x27, 0x02,
  0x2b, 0x04, 0xf5, 0x25, 0x4b, 0xea, 0x73, 0x0d, 0x40, 0x10, 0x40, 0xbd,
  0x38, 0x2a, 0xb5, 0x22, 0xf9, 0xd7, 0x42, 0x11, 0xdf, 0xde, 0x28, 0xdb,
  0x2e, 0xd0, 0xf1, 0x0c, 0x56, 0xe3, 0xa9, 0xd3, 0x14, 0xfd, 0xd4, 0x09,
  0xfe, 0xf5, 0xf1, 0x0d, 0xc2, 0x01, 0x0d, 0x16, 0xff, 0xbc, 0x2a, 0xef,
  0x1c, 0x0d, 0xd2, 0xf2, 0xbd, 0x1f, 0xe0, 0xf9, 0x0c, 0xf4, 0xfb, 0x32,
  0xb7, 0x25, 0xda, 0x07, 0xc0, 0xfb, 0xc9, 0xc4, 0xfc, 0x14, 0xe4, 0xda,
  0x4e, 0x24, 0xd3, 0xee, 0xfe, 0xd7, 0xff, 0xcc, 0xf6, 0xd9, 0x4a, 0x27,
  0x15, 0x25, 0x19, 0xd7, 0xfc, 0x12, 0xfe, 0xfb, 0x91, 0x0d, 0xed, 0xda,
  0xfc, 0xcc, 0xd4, 0xee, 0x0c, 0xf3, 0xf4, 0x2d, 0xeb, 0x06, 0xa3, 0x44,
  0x1e, 0x18, 0x2b, 0x26, 0x08, 0x3f, 0xd6, 0xef, 0xda, 0x54, 0x24, 0xff,
  0x3d, 0xc8, 0x31, 0x17, 0xd8, 0x28, 0xfc, 0x0b, 0x53, 0x2e, 0x2c, 0x05,
  0xe5, 0xc7, 0x4a, 0xe8, 0x28, 0x24, 0xf8, 0xe9, 0xde, 0xfc, 0x2c, 0x05,
  0x21, 0xef, 0xe4, 0xe3, 0x10, 0x1f, 0xe0, 0x29, 0x14, 0xfc, 0xce, 0x2a,
  0x35, 0x02, 0xfb, 0x22, 0x02, 0x14, 0xef, 0xc3, 0x03, 0x1b, 0xd4, 0x0a,
  0x01, 0xd8, 0xfd, 0xf8, 0xfb, 0x12, 0x25, 0xdc, 0xd8, 0x21, 0xfc, 0xe1,
  0xe9, 0xf2, 0x0e, 0x10, 0xfd, 0x1a, 0xff, 0x2c, 0x2d, 0xff, 0xcb, 0xdf,
  0xe1, 0x16, 0x26, 0x0e, 0x07, 0xd7, 0x05, 0xfd, 0x27, 0xce, 0xf9, 0xe8,
  0x33, 0x15, 0xdf, 0x36, 0x09, 0x03, 0x46, 0x43, 0xf2, 0xfc, 0x18, 0xd7,
  0x27, 0x09, 0x2d, 0x2b, 0xc3, 0x0b, 0xe4, 0xf7, 0x35, 0x33, 0x2b, 0xf7,
  0xfd, 0xfb, 0xf3, 0x15, 0x05, 0x0d, 0x3f, 0x21, 0x2a, 0x23, 0x12, 0x11,
  0xf3, 0xec, 0xe7, 0x26, 0xf9, 0x11, 0xdd, 0xc3, 0xe3, 0x11, 0x31, 0xed,
  0x1d, 0xef, 0xd0, 0xe7, 0xfb, 0x19, 0xe4, 0xd7, 0x33, 0xd7, 0xcc, 0x43,
  0xde, 0xd2, 0x1b, 0xe8, 0x0b, 0x2d, 0xf8, 0xb5, 0x2e, 0x38, 0xcd, 0xec,
  0xfe, 0xc6, 0x11, 0x56, 0xd6, 0x18, 0x3d, 0x14, 0x3e, 0xcf, 0x1c, 0x2e,
  0xe8, 0xf1, 0x0d, 0xdc, 0xe5, 0x35, 0xe8, 0xde, 0x07, 0x1b, 0x18, 0xf7,
  0x07, 0xe8, 0xf6, 0xca, 0xf1, 0xcc, 0x32, 0xda, 0xda, 0xe1, 0x10, 0xae,
  0xdc, 0x2c, 0x23, 0x32, 0x18, 0x37, 0x2d, 0xdf, 0x36, 0xe7, 0xf6, 0x0e,
  0x20, 0x3e, 0x40, 0xce, 0x21, 0x0e, 0xec, 0xbb, 0x34, 0xf6, 0x0a, 0xd9,
  0x09, 0xe1, 0x48, 0xf5, 0xf0, 0xff, 0xe8, 0xdd, 0x22, 0xec, 0xd2, 0xe0,
  0x07, 0xff, 0x2d, 0xce, 0x0d, 0xd9, 0xe8, 0x07, 0xdf, 0xee, 0x12, 0xd3,
  0xee, 0xdb, 0xd1, 0xef, 0x26, 0x1a, 0xf7, 0xc3, 0x1c, 0x02, 0xc5, 0x12,
  0xd3, 0xea, 0xf6, 0x21, 0x1e, 0x17, 0x1c, 0xf4, 0xd7, 0x30, 0x0a, 0xef,
  0xed, 0xeb, 0xf2, 0x2d, 0x20, 0xbc, 0xdc, 0x14, 0xc0, 0x28, 0x28, 0x26,
  0xe7, 0xfb, 0xcc, 0xd2, 0xd5, 0xf1, 0x36, 0xfa, 0x0a, 0xf7, 0xfe, 0xf6,
  0xe5, 0xff, 0x34, 0x1a, 0x1b, 0xe1, 0x2a, 0xee, 0x48, 0x0c, 0x40, 0xed,
  0x20, 0x31, 0x24, 0x0a, 0x11, 0x2c, 0xfa, 0x15, 0xf1, 0x17, 0xd7, 0xf1,
  0xfe, 0xdc, 0x2e, 0x3b, 0xe1, 0xd6, 0x04, 0xf6, 0x33, 0x4d, 0x13, 0xdf,
  0xeb, 0x23, 0xd8, 0xdf, 0x4b, 0x11, 0x17, 0xfb, 0xfe, 0x2b, 0x21, 0x01,
  0x14, 0x03, 0xf1, 0x0b, 0xc2, 0x01, 0x21, 0x01, 0x07, 0x25, 0xc3, 0x1b,
  0x26, 0xd8, 0xe4, 0x12, 0x13, 0x08, 0x11, 0x22, 0xd5, 0x14, 0xdf, 0x21,
  0xd7, 0x2a, 0x18, 0xd3, 0xd5, 0xe9, 0xf7, 0x06, 0xff, 0xcc, 0x0c, 0x14,
  0x16, 0x07, 0xed, 0xe6, 0x1b, 0xf4, 0x13, 0x11, 0xea, 0x03, 0x35, 0xd6,
  0xdf, 0xfc, 0x47, 0xec, 0xf7, 0xfc, 0x14, 0x0d, 0xf6, 0xf3, 0x40, 0xff,
  0xc5, 0xf8, 0xa1, 0xe4, 0x02, 0xd9, 0x40, 0xbb, 0x06, 0x17, 0x26, 0xea,
  0x14, 0x36, 0x1d, 0xde, 0x1c, 0x2e, 0x2f, 0x47, 0x12, 0xf3, 0x17, 0x18,
  0xb1, 0xee, 0x1c, 0x2b, 0xde, 0x10, 0x1d, 0x17, 0xf3, 0x2c, 0xee, 0x2c,
  0xf2, 0x28, 0x00, 0xfc, 0x0f, 0xeb, 0xf8, 0xfb, 0xb1, 0x18, 0x20, 0x0b,
  0xe1, 0x0e, 0x29, 0xe7, 0x11, 0xe1, 0x08, 0x1f, 0x37, 0x2f, 0x40, 0xbc,
  0x19, 0x10, 0x0a, 0x40, 0x42, 0xf2, 0xff, 0xff, 0x04, 0x00, 0x00, 0x00,
  0x80, 0x00, 0x00, 0x00, 0x37, 0x33, 0xff, 0xff, 0x6c, 0xd4, 0xfe, 0xff,
  0xff, 0x9d, 0xff, 0xff, 0xa3, 0x29, 0x01, 0x00, 0x5b, 0x7f, 0x00, 0x00,
  0xfe, 0x39, 0x00, 0x00, 0xcd, 0x6a, 0x00, 0x00, 0xe2, 0x54, 0xff, 0xff,
  0xf6, 0xb9, 0xff, 0xff, 0xb2, 0x93, 0xff, 0xff, 0x86, 0x94, 0x01, 0x00,
  0x4c, 0x71, 0x00, 0x00, 0x34, 0x93, 0x00, 0x00, 0xec, 0x27, 0xff, 0xff,
  0xdd, 0x5b, 0x00, 0x00, 0x65, 0x26, 0xff, 0xff, 0x6e, 0xea, 0xfe, 0xff,
  0x1b, 0x36, 0x00, 0x00, 0x57, 0x01, 0x00, 0x00, 0xd9, 0x96, 0x00, 0x00,
  0xc4, 0x19, 0xff, 0xff, 0x54, 0xd7, 0xfe, 0xff, 0x33, 0xc3, 0x00, 0x00,
  0x4c, 0x3a, 0x00, 0x00, 0xfd, 0xea, 0xff, 0xff, 0x54, 0xe2, 0xff, 0xff,
  0xaa, 0x18, 0xff, 0xff, 0xb9, 0x1e, 0x00, 0x00, 0xde, 0x6a, 0x00, 0x00,
  0xbe, 0x1f, 0xff, 0xff, 0xf5, 0x4e, 0x00, 0x00, 0xf8, 0xa1, 0xff, 0xff,
  0xce, 0xf2, 0xff, 0xff, 0x04, 0x00, 0x00, 0x00, 0x00, 0x01, 0x00, 0x00,
  0xae, 0xb1, 0x45, 0xd3, 0xc7, 0xce, 0xa8, 0x81, 0xb4, 0x6f, 0x6e, 0x2c,
  0x93, 0xb6, 0x33, 0xd8, 0xb5, 0xea, 0x4f, 0x62, 0x17, 0x33, 0x86, 0x12,
  0x9f, 0x61, 0xf7, 0x3d, 0xd4, 0xa4, 0x53, 0x43, 0x19, 0xe0, 0x04, 0x36,
  0x2d, 0x97, 0x21, 0x61, 0xbf, 0xb1, 0xe8, 0x4e, 0x9c, 0xc7, 0x9b, 0xbb,
  0x3a, 0xaf, 0x58, 0xe7, 0x17, 0x56, 0x29, 0x98, 0xa5, 0x59, 0xaf, 0x03,
  0xee, 0xf7, 0x3e, 0xc2, 0x67, 0x16, 0x48, 0xc1, 0xba, 0x2e, 0x98, 0xc4,
  0x92, 0xca, 0xd3, 0xb9, 0xc1, 0x4d, 0xcd, 0x9e, 0xc2, 0xf2, 0x4c, 0x54,
  0x07, 0x22, 0x16, 0x81, 0x30, 0xb5, 0xc5, 0x34, 0xed, 0x3e, 0x15, 0x65,
  0xc3, 0xb1, 0xad, 0x17, 0x41, 0x96, 0x51, 0xcc, 0xd7, 0xe4, 0xe5, 0x42,
  0x5c, 0xad, 0x45, 0xf3, 0x5e, 0xd9, 0x81, 0xe7, 0xe4, 0xdc, 0x83, 0xc2,
  0x22, 0xe0, 0x48, 0x9c, 0x24, 0xac, 0x69, 0x58, 0x58, 0x0d, 0x96, 0x8f,
  0xb5, 0x95, 0xb7, 0xbf, 0x1e, 0x37, 0xc5, 0xf4, 0xd0, 0x4c, 0xc3, 0x4b,
  0x21, 0xa3, 0xb6, 0xf3, 0x22, 0x4d, 0xe8, 0x4d, 0x1e, 0x5b, 0xd8, 0x85,
  0x4f, 0xc7, 0xe7, 0x2c, 0xd1, 0x33, 0xfb, 0x17, 0xc0, 0xa8, 0xe9, 0x31,
  0x10, 0xcc, 0xbc, 0x97, 0xf9, 0x1d, 0x51, 0x48, 0x4b, 0x61, 0xc0, 0xe4,
  0x37, 0x83, 0xd3, 0xd7, 0xa2, 0xcc, 0x5b, 0x3d, 0x92, 0x70, 0xe3, 0x02,
  0xfb, 0xaa, 0x36, 0x2a, 0xcb, 0x23, 0xbc, 0x55, 0x35, 0x55, 0x9c, 0x3e,
  0xca, 0x31, 0xd8, 0x47, 0x91, 0x12, 0x2a, 0xfd, 0x81, 0xa7, 0xdb, 0x41,
  0x3b, 0xb6, 0x41, 0x81, 0x8f, 0xe2, 0xf9, 0x99, 0x0e, 0xd2, 0xe7, 0x97,
  0x74, 0x39, 0x03, 0x00, 0xbc, 0xc3, 0x60, 0x23, 0x28, 0xa8, 0xe9, 0xf1,
  0xc2, 0x01, 0xf8, 0x23, 0x82, 0xc2, 0x70, 0x63, 0x0d, 0xcc, 0xd4, 0xf4,
  0x47, 0x62, 0xad, 0x8d, 0xda, 0xf3, 0xff, 0xff, 0x04, 0x00, 0x00, 0x00,
  0x20, 0x00, 0x00, 0x00, 0xa9, 0xfe, 0xff, 0xff, 0xfe, 0xf5, 0xff, 0xff,
  0xbf, 0xfe, 0xff, 0xff, 0x3b, 0x03, 0x00, 0x00, 0x52, 0x06, 0x00, 0x00,
  0x21, 0xf7, 0xff, 0xff, 0x5e, 0x05, 0x00, 0x00, 0xb0, 0x03, 0x00, 0x00,
  0x06, 0xf4, 0xff, 0xff, 0x04, 0x00, 0x00, 0x00, 0x08, 0x00, 0x00, 0x00,
  0xff, 0xff, 0xff, 0xff, 0x40, 0x00, 0x00, 0x00, 0x1a, 0xf4, 0xff, 0xff,
  0x04, 0x00, 0x00, 0x00, 0x04, 0x00, 0x00, 0x00, 0x03, 0x00, 0x00, 0x00,
  0x2a, 0xf4, 0xff, 0xff, 0x04, 0x00, 0x00, 0x00, 0x04, 0x00, 0x00, 0x00,
  0x04, 0x00, 0x00, 0x00, 0x3a, 0xf4, 0xff, 0xff, 0x04, 0x00, 0x00, 0x00,
  0x04, 0x00, 0x00, 0x00, 0x08, 0x00, 0x00, 0x00, 0x4a, 0xf4, 0xff, 0xff,
  0x04, 0x00, 0x00, 0x00, 0x04, 0x00, 0x00, 0x00, 0x01, 0x00, 0x00, 0x00,
  0x5a, 0xf4, 0xff, 0xff, 0x04, 0x00, 0x00, 0x00, 0x04, 0x00, 0x00, 0x00,
  0x00, 0x00, 0x00, 0x00, 0xc4, 0xc2, 0xff, 0xff, 0xc8, 0xc2, 0xff, 0xff,
  0x0f, 0x00, 0x00, 0x00, 0x4d, 0x4c, 0x49, 0x52, 0x20, 0x43, 0x6f, 0x6e,
  0x76, 0x65, 0x72, 0x74, 0x65, 0x64, 0x2e, 0x00, 0x01, 0x00, 0x00, 0x00,
  0x14, 0x00, 0x00, 0x00, 0x00, 0x00, 0x0e, 0x00, 0x18, 0x00, 0x14, 0x00,
  0x10, 0x00, 0x0c, 0x00, 0x08, 0x00, 0x04, 0x00, 0x0e, 0x00, 0x00, 0x00,
  0x14, 0x00, 0x00, 0x00, 0x1c, 0x00, 0x00, 0x00, 0x3c, 0x0c, 0x00, 0x00,
  0x40, 0x0c, 0x00, 0x00, 0x44, 0x0c, 0x00, 0x00, 0x04, 0x00, 0x00, 0x00,
  0x6d, 0x61, 0x69, 0x6e, 0x00, 0x00, 0x00, 0x00, 0x40, 0x00, 0x00, 0x00,
  0x04, 0x0c, 0x00, 0x00, 0xbc, 0x0b, 0x00, 0x00, 0x5c, 0x0b, 0x00, 0x00,
  0x14, 0x0b, 0x00, 0x00, 0xec, 0x0a, 0x00, 0x00, 0xa0, 0x0a, 0x00, 0x00,
  0x78, 0x0a, 0x00, 0x00, 0x54, 0x0a, 0x00, 0x00, 0x20, 0x0a, 0x00, 0x00,
  0xfc, 0x09, 0x00, 0x00, 0xd8, 0x09, 0x00, 0x00, 0xb8, 0x09, 0x00, 0x00,
  0x84, 0x09, 0x00, 0x00, 0x50, 0x09, 0x00, 0x00, 0x1c, 0x09, 0x00, 0x00,
  0xf4, 0x08, 0x00, 0x00, 0xd0, 0x08, 0x00, 0x00, 0x9c, 0x08, 0x00, 0x00,
  0x74, 0x08, 0x00, 0x00, 0x40, 0x08, 0x00, 0x00, 0x08, 0x08, 0x00, 0x00,
  0xd4, 0x07, 0x00, 0x00, 0xa0, 0x07, 0x00, 0x00, 0x60, 0x07, 0x00, 0x00,
  0x38, 0x07, 0x00, 0x00, 0x14, 0x07, 0x00, 0x00, 0xe0, 0x06, 0x00, 0x00,
  0xbc, 0x06, 0x00, 0x00, 0x98, 0x06, 0x00, 0x00, 0x78, 0x06, 0x00, 0x00,
  0x44, 0x06, 0x00, 0x00, 0x10, 0x06, 0x00, 0x00, 0xdc, 0x05, 0x00, 0x00,
  0xb4, 0x05, 0x00, 0x00, 0x90, 0x05, 0x00, 0x00, 0x5c, 0x05, 0x00, 0x00,
  0x34, 0x05, 0x00, 0x00, 0x00, 0x05, 0x00, 0x00, 0xc8, 0x04, 0x00, 0x00,
  0x94, 0x04, 0x00, 0x00, 0x60, 0x04, 0x00, 0x00, 0x0c, 0x04, 0x00, 0x00,
  0xe4, 0x03, 0x00, 0x00, 0xac, 0x03, 0x00, 0x00, 0x84, 0x03, 0x00, 0x00,
  0x48, 0x03, 0x00, 0x00, 0x10, 0x03, 0x00, 0x00, 0xec, 0x02, 0x00, 0x00,
  0xc8, 0x02, 0x00, 0x00, 0xa8, 0x02, 0x00, 0x00, 0x74, 0x02, 0x00, 0x00,
  0x40, 0x02, 0x00, 0x00, 0x0c, 0x02, 0x00, 0x00, 0xe4, 0x01, 0x00, 0x00,
  0xc0, 0x01, 0x00, 0x00, 0x8c, 0x01, 0x00, 0x00, 0x64, 0x01, 0x00, 0x00,
  0x30, 0x01, 0x00, 0x00, 0xf8, 0x00, 0x00, 0x00, 0xc4, 0x00, 0x00, 0x00,
  0x90, 0x00, 0x00, 0x00, 0x58, 0x00, 0x00, 0x00, 0x24, 0x00, 0x00, 0x00,
  0x04, 0x00, 0x00, 0x00, 0x06, 0xf5, 0xff, 0xff, 0x08, 0x00, 0x00, 0x00,
  0x0c, 0x00, 0x00, 0x00, 0x01, 0x00, 0x00, 0x00, 0x58, 0x00, 0x00, 0x00,
  0x01, 0x00, 0x00, 0x00, 0x57, 0x00, 0x00, 0x00, 0x6a, 0xf5, 0xff, 0xff,
  0x14, 0x00, 0x00, 0x00, 0x00, 0x00, 0x00, 0x09, 0x14, 0x00, 0x00, 0x00,
  0x18, 0x00, 0x00, 0x00, 0x12, 0x00, 0x00, 0x00, 0xfa, 0xf5, 0xff, 0xff,
  0x00, 0x00, 0x80, 0x3f, 0x01, 0x00, 0x00, 0x00, 0x57, 0x00, 0x00, 0x00,
  0x01, 0x00, 0x00, 0x00, 0x56, 0x00, 0x00, 0x00, 0x9a, 0xf5, 0xff, 0xff,
  0x14, 0x00, 0x00, 0x00, 0x00, 0x00, 0x00, 0x08, 0x10, 0x00, 0x00, 0x00,
  0x14, 0x00, 0x00, 0x00, 0x11, 0x00, 0x00, 0x00, 0x84, 0xc4, 0xff, 0xff,
  0x01, 0x00, 0x00, 0x00, 0x56, 0x00, 0x00, 0x00, 0x03, 0x00, 0x00, 0x00,
  0x55, 0x00, 0x00, 0x00, 0x08, 0x00, 0x00, 0x00, 0x07, 0x00, 0x00, 0x00,
  0xce, 0xf5, 0xff, 0xff, 0x14, 0x00, 0x00, 0x00, 0x00, 0x00, 0x00, 0x0b,
  0x10, 0x00, 0x00, 0x00, 0x14, 0x00, 0x00, 0x00, 0x0c, 0x00, 0x00, 0x00,
  0xb8, 0xc4, 0xff, 0xff, 0x01, 0x00, 0x00, 0x00, 0x55, 0x00, 0x00, 0x00,
  0x02, 0x00, 0x00, 0x00, 0x53, 0x00, 0x00, 0x00, 0x54, 0x00, 0x00, 0x00,
  0xfe, 0xf5, 0xff, 0xff, 0x14, 0x00, 0x00, 0x00, 0x00, 0x00, 0x00, 0x1c,
  0x10, 0x00, 0x00, 0x00, 0x14, 0x00, 0x00, 0x00, 0x0b, 0x00, 0x00, 0x00,
  0xe8, 0xc4, 0xff, 0xff, 0x01, 0x00, 0x00, 0x00, 0x54, 0x00, 0x00, 0x00,
  0x02, 0x00, 0x00, 0x00, 0x4f, 0x00, 0x00, 0x00, 0x53, 0x00, 0x00, 0x00,
  0x2e, 0xf6, 0xff, 0xff, 0x14, 0x00, 0x00, 0x00, 0x00, 0x00, 0x00, 0x62,
  0x10, 0x00, 0x00, 0x00, 0x14, 0x00, 0x00, 0x00, 0x0f, 0x00, 0x00, 0x00,
  0x18, 0xc5, 0xff, 0xff, 0x01, 0x00, 0x00, 0x00, 0x53, 0x00, 0x00, 0x00,
  0x03, 0x00, 0x00, 0x00, 0x45, 0x00, 0x00, 0x00, 0x46, 0x00, 0x00, 0x00,
  0x52, 0x00, 0x00, 0x00, 0x62, 0xf6, 0xff, 0xff, 0x14, 0x00, 0x00, 0x00,
  0x00, 0x00, 0x00, 0x15, 0x10, 0x00, 0x00, 0x00, 0x14, 0x00, 0x00, 0x00,
  0x08, 0x00, 0x00, 0x00, 0x4c, 0xc5, 0xff, 0xff, 0x01, 0x00, 0x00, 0x00,
  0x52, 0x00, 0x00, 0x00, 0x02, 0x00, 0x00, 0x00, 0x51, 0x00, 0x00, 0x00,
  0x16, 0x00, 0x00, 0x00, 0x52, 0xf7, 0xff, 0xff, 0x0c, 0x00, 0x00, 0x00,
  0x10, 0x00, 0x00, 0x00, 0x0e, 0x00, 0x00, 0x00, 0x01, 0x00, 0x00, 0x00,
  0x51, 0x00, 0x00, 0x00, 0x02, 0x00, 0x00, 0x00, 0x10, 0x00, 0x00, 0x00,
  0x50, 0x00, 0x00, 0x00, 0xb6, 0xf6, 0xff, 0xff, 0x14, 0x00, 0x00, 0x00,
  0x00, 0x00, 0x00, 0x37, 0x14, 0x00, 0x00, 0x00, 0x18, 0x00, 0x00, 0x00,
  0x01, 0x00, 0x00, 0x00, 0xa6, 0xf6, 0xff, 0xff, 0x00, 0x00, 0x00, 0x04,
  0x01, 0x00, 0x00, 0x00, 0x50, 0x00, 0x00, 0x00, 0x01, 0x00, 0x00, 0x00,
  0x44, 0x00, 0x00, 0x00, 0xa6, 0xf7, 0xff, 0xff, 0x0c, 0x00, 0x00, 0x00,
  0x10, 0x00, 0x00, 0x00, 0x07, 0x00, 0x00, 0x00, 0x01, 0x00, 0x00, 0x00,
  0x4f, 0x00, 0x00, 0x00, 0x01, 0x00, 0x00, 0x00, 0x4e, 0x00, 0x00, 0x00,
  0xc6, 0xf7, 0xff, 0xff, 0x0c, 0x00, 0x00, 0x00, 0x10, 0x00, 0x00, 0x00,
  0x0d, 0x00, 0x00, 0x00, 0x01, 0x00, 0x00, 0x00, 0x4e, 0x00, 0x00, 0x00,
  0x02, 0x00, 0x00, 0x00, 0x4d, 0x00, 0x00, 0x00, 0x15, 0x00, 0x00, 0x00,
  0x2a, 0xf7, 0xff, 0xff, 0x14, 0x00, 0x00, 0x00, 0x00, 0x00, 0x00, 0x15,
  0x10, 0x00, 0x00, 0x00, 0x14, 0x00, 0x00, 0x00, 0x08, 0x00, 0x00, 0x00,
  0x14, 0xc6, 0xff, 0xff, 0x01, 0x00, 0x00, 0x00, 0x4d, 0x00, 0x00, 0x00,
  0x02, 0x00, 0x00, 0x00, 0x4c, 0x00, 0x00, 0x00, 0x11, 0x00, 0x00, 0x00,
  0x5a, 0xf7, 0xff, 0xff, 0x14, 0x00, 0x00, 0x00, 0x00, 0x00, 0x00, 0x0b,
  0x10, 0x00, 0x00, 0x00, 0x14, 0x00, 0x00, 0x00, 0x0c, 0x00, 0x00, 0x00,
  0x44, 0xc6, 0xff, 0xff, 0x01, 0x00, 0x00, 0x00, 0x4c, 0x00, 0x00, 0x00,
  0x02, 0x00, 0x00, 0x00, 0x47, 0x00, 0x00, 0x00, 0x4b, 0x00, 0x00, 0x00,
  0x8a, 0xf7, 0xff, 0xff, 0x14, 0x00, 0x00, 0x00, 0x00, 0x00, 0x00, 0x1c,
  0x10, 0x00, 0x00, 0x00, 0x14, 0x00, 0x00, 0x00, 0x0b, 0x00, 0x00, 0x00,
  0x74, 0xc6, 0xff, 0xff, 0x01, 0x00, 0x00, 0x00, 0x4b, 0x00, 0x00, 0x00,
  0x02, 0x00, 0x00, 0x00, 0x4a, 0x00, 0x00, 0x00, 0x47, 0x00, 0x00, 0x00,
  0x72, 0xf7, 0xff, 0xff, 0x08, 0x00, 0x00, 0x00, 0x0c, 0x00, 0x00, 0x00,
  0x01, 0x00, 0x00, 0x00, 0x4a, 0x00, 0x00, 0x00, 0x01, 0x00, 0x00, 0x00,
  0x49, 0x00, 0x00, 0x00, 0x96, 0xf8, 0xff, 0xff, 0x0c, 0x00, 0x00, 0x00,
  0x10, 0x00, 0x00, 0x00, 0x0a, 0x00, 0x00, 0x00, 0x01, 0x00, 0x00, 0x00,
  0x49, 0x00, 0x00, 0x00, 0x01, 0x00, 0x00, 0x00, 0x48, 0x00, 0x00, 0x00,
  0xb6, 0xf8, 0xff, 0xff, 0x0c, 0x00, 0x00, 0x00, 0x10, 0x00, 0x00, 0x00,
  0x09, 0x00, 0x00, 0x00, 0x01, 0x00, 0x00, 0x00, 0x48, 0x00, 0x00, 0x00,
  0x01, 0x00, 0x00, 0x00, 0x47, 0x00, 0x00, 0x00, 0x16, 0xf8, 0xff, 0xff,
  0x14, 0x00, 0x00, 0x00, 0x00, 0x00, 0x00, 0x08, 0x10, 0x00, 0x00, 0x00,
  0x14, 0x00, 0x00, 0x00, 0x11, 0x00, 0x00, 0x00, 0x00, 0xc7, 0xff, 0xff,
  0x01, 0x00, 0x00, 0x00, 0x47, 0x00, 0x00, 0x00, 0x03, 0x00, 0x00, 0x00,
  0x43, 0x00, 0x00, 0x00, 0x0a, 0x00, 0x00, 0x00, 0x09, 0x00, 0x00, 0x00,
  0x4a, 0xf8, 0xff, 0xff, 0x14, 0x00, 0x00, 0x00, 0x00, 0x00, 0x00, 0x08,
  0x14, 0x00, 0x00, 0x00, 0x18, 0x00, 0x00, 0x00, 0x11, 0x00, 0x00, 0x00,
  0x3a, 0xf8, 0xff, 0xff, 0x00, 0x00, 0x00, 0x01, 0x01, 0x00, 0x00, 0x00,
  0x46, 0x00, 0x00, 0x00, 0x03, 0x00, 0x00, 0x00, 0x43, 0x00, 0x00, 0x00,
  0x0d, 0x00, 0x00, 0x00, 0x0c, 0x00, 0x00, 0x00, 0x42, 0xf9, 0xff, 0xff,
  0x0c, 0x00, 0x00, 0x00, 0x10, 0x00, 0x00, 0x00, 0x06, 0x00, 0x00, 0x00,
  0x01, 0x00, 0x00, 0x00, 0x45, 0x00, 0x00, 0x00, 0x02, 0x00, 0x00, 0x00,
  0x44, 0x00, 0x00, 0x00, 0x16, 0x00, 0x00, 0x00, 0xa6, 0xf8, 0xff, 0xff,
  0x14, 0x00, 0x00, 0x00, 0x00, 0x00, 0x00, 0x08, 0x10, 0x00, 0x00, 0x00,
  0x14, 0x00, 0x00, 0x00, 0x11, 0x00, 0x00, 0x00, 0x90, 0xc7, 0xff, 0xff,
  0x01, 0x00, 0x00, 0x00, 0x44, 0x00, 0x00, 0x00, 0x03, 0x00, 0x00, 0x00,
  0x43, 0x00, 0x00, 0x00, 0x0d, 0x00, 0x00, 0x00, 0x0b, 0x00, 0x00, 0x00,
  0x9a, 0xf9, 0xff, 0xff, 0x0c, 0x00, 0x00, 0x00, 0x10, 0x00, 0x00, 0x00,
  0x04, 0x00, 0x00, 0x00, 0x01, 0x00, 0x00, 0x00, 0x43, 0x00, 0x00, 0x00,
  0x02, 0x00, 0x00, 0x00, 0x42, 0x00, 0x00, 0x00, 0x06, 0x00, 0x00, 0x00,
  0xfe, 0xf8, 0xff, 0xff, 0x24, 0x00, 0x00, 0x00, 0x00, 0x00, 0x00, 0x05,
  0x34, 0x00, 0x00, 0x00, 0x38, 0x00, 0x00, 0x00, 0x10, 0x00, 0x00, 0x00,
  0x00, 0x00, 0x0e, 0x00, 0x18, 0x00, 0x17, 0x00, 0x10, 0x00, 0x0c, 0x00,
  0x08, 0x00, 0x04, 0x00, 0x0e, 0x00, 0x00, 0x00, 0x02, 0x00, 0x00, 0x00,
  0x02, 0x00, 0x00, 0x00, 0x02, 0x00, 0x00, 0x00, 0x02, 0x00, 0x00, 0x00,
  0x00, 0x00, 0x00, 0x01, 0x01, 0x00, 0x00, 0x00, 0x42, 0x00, 0x00, 0x00,
  0x01, 0x00, 0x00, 0x00, 0x41, 0x00, 0x00, 0x00, 0x4e, 0xf9, 0xff, 0xff,
  0x14, 0x00, 0x00, 0x00, 0x00, 0x00, 0x00, 0x0b, 0x10, 0x00, 0x00, 0x00,
  0x14, 0x00, 0x00, 0x00, 0x0c, 0x00, 0x00, 0x00, 0x38, 0xc8, 0xff, 0xff,
  0x01, 0x00, 0x00, 0x00, 0x41, 0x00, 0x00, 0x00, 0x02, 0x00, 0x00, 0x00,
  0x3f, 0x00, 0x00, 0x00, 0x40, 0x00, 0x00, 0x00, 0x7e, 0xf9, 0xff, 0xff,
  0x14, 0x00, 0x00, 0x00, 0x00, 0x00, 0x00, 0x1c, 0x10, 0x00, 0x00, 0x00,
  0x14, 0x00, 0x00, 0x00, 0x0b, 0x00, 0x00, 0x00, 0x68, 0xc8, 0xff, 0xff,
  0x01, 0x00, 0x00, 0x00, 0x40, 0x00, 0x00, 0x00, 0x02, 0x00, 0x00, 0x00,
  0x3b, 0x00, 0x00, 0x00, 0x3f, 0x00, 0x00, 0x00, 0xae, 0xf9, 0xff, 0xff,
  0x14, 0x00, 0x00, 0x00, 0x00, 0x00, 0x00, 0x62, 0x10, 0x00, 0x00, 0x00,
  0x14, 0x00, 0x00, 0x00, 0x0f, 0x00, 0x00, 0x00, 0x98, 0xc8, 0xff, 0xff,
  0x01, 0x00, 0x00, 0x00, 0x3f, 0x00, 0x00, 0x00, 0x03, 0x00, 0x00, 0x00,
  0x31, 0x00, 0x00, 0x00, 0x32, 0x00, 0x00, 0x00, 0x3e, 0x00, 0x00, 0x00,
  0xe2, 0xf9, 0xff, 0xff, 0x14, 0x00, 0x00, 0x00, 0x00, 0x00, 0x00, 0x15,
  0x10, 0x00, 0x00, 0x00, 0x14, 0x00, 0x00, 0x00, 0x08, 0x00, 0x00, 0x00,
  0xcc, 0xc8, 0xff, 0xff, 0x01, 0x00, 0x00, 0x00, 0x3e, 0x00, 0x00, 0x00,
  0x02, 0x00, 0x00, 0x00, 0x3d, 0x00, 0x00, 0x00, 0x16, 0x00, 0x00, 0x00,
  0xd2, 0xfa, 0xff, 0xff, 0x0c, 0x00, 0x00, 0x00, 0x10, 0x00, 0x00, 0x00,
  0x0e, 0x00, 0x00, 0x00, 0x01, 0x00, 0x00, 0x00, 0x3d, 0x00, 0x00, 0x00,
  0x02, 0x00, 0x00, 0x00, 0x10, 0x00, 0x00, 0x00, 0x3c, 0x00, 0x00, 0x00,
  0x36, 0xfa, 0xff, 0xff, 0x14, 0x00, 0x00, 0x00, 0x00, 0x00, 0x00, 0x37,
  0x14, 0x00, 0x00, 0x00, 0x18, 0x00, 0x00, 0x00, 0x01, 0x00, 0x00, 0x00,
  0x26, 0xfa, 0xff, 0xff, 0x00, 0x00, 0x00, 0x04, 0x01, 0x00, 0x00, 0x00,
  0x3c, 0x00, 0x00, 0x00, 0x01, 0x00, 0x00, 0x00, 0x30, 0x00, 0x00, 0x00,
  0x26, 0xfb, 0xff, 0xff, 0x0c, 0x00, 0x00, 0x00, 0x10, 0x00, 0x00, 0x00,
  0x07, 0x00, 0x00, 0x00, 0x01, 0x00, 0x00, 0x00, 0x3b, 0x00, 0x00, 0x00,
  0x01, 0x00, 0x00, 0x00, 0x3a, 0x00, 0x00, 0x00, 0x46, 0xfb, 0xff, 0xff,
  0x0c, 0x00, 0x00, 0x00, 0x10, 0x00, 0x00, 0x00, 0x0d, 0x00, 0x00, 0x00,
  0x01, 0x00, 0x00, 0x00, 0x3a, 0x00, 0x00, 0x00, 0x02, 0x00, 0x00, 0x00,
  0x39, 0x00, 0x00, 0x00, 0x14, 0x00, 0x00, 0x00, 0xaa, 0xfa, 0xff, 0xff,
  0x14, 0x00, 0x00, 0x00, 0x00, 0x00, 0x00, 0x15, 0x10, 0x00, 0x00, 0x00,
  0x14, 0x00, 0x00, 0x00, 0x08, 0x00, 0x00, 0x00, 0x94, 0xc9, 0xff, 0xff,
  0x01, 0x00, 0x00, 0x00, 0x39, 0x00, 0x00, 0x00, 0x02, 0x00, 0x00, 0x00,
  0x38, 0x00, 0x00, 0x00, 0x11, 0x00, 0x00, 0x00, 0xda, 0xfa, 0xff, 0xff,
  0x14, 0x00, 0x00, 0x00, 0x00, 0x00, 0x00, 0x0b, 0x10, 0x00, 0x00, 0x00,
  0x14, 0x00, 0x00, 0x00, 0x0c, 0x00, 0x00, 0x00, 0xc4, 0xc9, 0xff, 0xff,
  0x01, 0x00, 0x00, 0x00, 0x38, 0x00, 0x00, 0x00, 0x02, 0x00, 0x00, 0x00,
  0x33, 0x00, 0x00, 0x00, 0x37, 0x00, 0x00, 0x00, 0x0a, 0xfb, 0xff, 0xff,
  0x14, 0x00, 0x00, 0x00, 0x00, 0x00, 0x00, 0x1c, 0x10, 0x00, 0x00, 0x00,
  0x14, 0x00, 0x00, 0x00, 0x0b, 0x00, 0x00, 0x00, 0xf4, 0xc9, 0xff, 0xff,
  0x01, 0x00, 0x00, 0x00, 0x37, 0x00, 0x00, 0x00, 0x02, 0x00, 0x00, 0x00,
  0x36, 0x00, 0x00, 0x00, 0x33, 0x00, 0x00, 0x00, 0xf2, 0xfa, 0xff, 0xff,
  0x08, 0x00, 0x00, 0x00, 0x0c, 0x00, 0x00, 0x00, 0x01, 0x00, 0x00, 0x00,
  0x36, 0x00, 0x00, 0x00, 0x01, 0x00, 0x00, 0x00, 0x35, 0x00, 0x00, 0x00,
  0x16, 0xfc, 0xff, 0xff, 0x0c, 0x00, 0x00, 0x00, 0x10, 0x00, 0x00, 0x00,
  0x0a, 0x00, 0x00, 0x00, 0x01, 0x00, 0x00, 0x00, 0x35, 0x00, 0x00, 0x00,
  0x01, 0x00, 0x00, 0x00, 0x34, 0x00, 0x00, 0x00, 0x36, 0xfc, 0xff, 0xff,
  0x0c, 0x00, 0x00, 0x00, 0x10, 0x00, 0x00, 0x00, 0x09, 0x00, 0x00, 0x00,
  0x01, 0x00, 0x00, 0x00, 0x34, 0x00, 0x00, 0x00, 0x01, 0x00, 0x00, 0x00,
  0x33, 0x00, 0x00, 0x00, 0x96, 0xfb, 0xff, 0xff, 0x14, 0x00, 0x00, 0x00,
  0x00, 0x00, 0x00, 0x15, 0x10, 0x00, 0x00, 0x00, 0x14, 0x00, 0x00, 0x00,
  0x08, 0x00, 0x00, 0x00, 0x80, 0xca, 0xff, 0xff, 0x01, 0x00, 0x00, 0x00,
  0x33, 0x00, 0x00, 0x00, 0x02, 0x00, 0x00, 0x00, 0x30, 0x00, 0x00, 0x00,
  0x12, 0x00, 0x00, 0x00, 0x86, 0xfc, 0xff, 0xff, 0x0c, 0x00, 0x00, 0x00,
  0x10, 0x00, 0x00, 0x00, 0x07, 0x00, 0x00, 0x00, 0x01, 0x00, 0x00, 0x00,
  0x32, 0x00, 0x00, 0x00, 0x01, 0x00, 0x00, 0x00, 0x30, 0x00, 0x00, 0x00,
  0xa6, 0xfc, 0xff, 0xff, 0x0c, 0x00, 0x00, 0x00, 0x10, 0x00, 0x00, 0x00,
  0x06, 0x00, 0x00, 0x00, 0x01, 0x00, 0x00, 0x00, 0x31, 0x00, 0x00, 0x00,
  0x02, 0x00, 0x00, 0x00, 0x30, 0x00, 0x00, 0x00, 0x16, 0x00, 0x00, 0x00,
  0x0a, 0xfc, 0xff, 0xff, 0x14, 0x00, 0x00, 0x00, 0x00, 0x00, 0x00, 0x01,
  0x18, 0x00, 0x00, 0x00, 0x1c, 0x00, 0x00, 0x00, 0x05, 0x00, 0x00, 0x00,
  0xda, 0xfb, 0xff, 0xff, 0x01, 0x00, 0x00, 0x00, 0x01, 0x00, 0x00, 0x00,
  0x01, 0x00, 0x00, 0x00, 0x30, 0x00, 0x00, 0x00, 0x03, 0x00, 0x00, 0x00,
  0x2f, 0x00, 0x00, 0x00, 0x0f, 0x00, 0x00, 0x00, 0x0e, 0x00, 0x00, 0x00,
  0x46, 0xfc, 0xff, 0xff, 0x14, 0x00, 0x00, 0x00, 0x00, 0x00, 0x00, 0x0b,
  0x10, 0x00, 0x00, 0x00, 0x14, 0x00, 0x00, 0x00, 0x0c, 0x00, 0x00, 0x00,
  0x30, 0xcb, 0xff, 0xff, 0x01, 0x00, 0x00, 0x00, 0x2f, 0x00, 0x00, 0x00,
  0x02, 0x00, 0x00, 0x00, 0x2d, 0x00, 0x00, 0x00, 0x2e, 0x00, 0x00, 0x00,
  0x76, 0xfc, 0xff, 0xff, 0x14, 0x00, 0x00, 0x00, 0x00, 0x00, 0x00, 0x1c,
  0x10, 0x00, 0x00, 0x00, 0x14, 0x00, 0x00, 0x00, 0x0b, 0x00, 0x00, 0x00,
  0x60, 0xcb, 0xff, 0xff, 0x01, 0x00, 0x00, 0x00, 0x2e, 0x00, 0x00, 0x00,
  0x02, 0x00, 0x00, 0x00, 0x29, 0x00, 0x00, 0x00, 0x2d, 0x00, 0x00, 0x00,
  0xa6, 0xfc, 0xff, 0xff, 0x14, 0x00, 0x00, 0x00, 0x00, 0x00, 0x00, 0x62,
  0x10, 0x00, 0x00, 0x00, 0x14, 0x00, 0x00, 0x00, 0x0f, 0x00, 0x00, 0x00,
  0x90, 0xcb, 0xff, 0xff, 0x01, 0x00, 0x00, 0x00, 0x2d, 0x00, 0x00, 0x00,
  0x03, 0x00, 0x00, 0x00, 0x1f, 0x00, 0x00, 0x00, 0x20, 0x00, 0x00, 0x00,
  0x2c, 0x00, 0x00, 0x00, 0xda, 0xfc, 0xff, 0xff, 0x14, 0x00, 0x00, 0x00,
  0x00, 0x00, 0x00, 0x15, 0x10, 0x00, 0x00, 0x00, 0x14, 0x00, 0x00, 0x00,
  0x08, 0x00, 0x00, 0x00, 0xc4, 0xcb, 0xff, 0xff, 0x01, 0x00, 0x00, 0x00,
  0x2c, 0x00, 0x00, 0x00, 0x02, 0x00, 0x00, 0x00, 0x2b, 0x00, 0x00, 0x00,
  0x16, 0x00, 0x00, 0x00, 0xca, 0xfd, 0xff, 0xff, 0x0c, 0x00, 0x00, 0x00,
  0x10, 0x00, 0x00, 0x00, 0x0e, 0x00, 0x00, 0x00, 0x01, 0x00, 0x00, 0x00,
  0x2b, 0x00, 0x00, 0x00, 0x02, 0x00, 0x00, 0x00, 0x10, 0x00, 0x00, 0x00,
  0x2a, 0x00, 0x00, 0x00, 0x2e, 0xfd, 0xff, 0xff, 0x14, 0x00, 0x00, 0x00,
  0x00, 0x00, 0x00, 0x37, 0x14, 0x00, 0x00, 0x00, 0x18, 0x00, 0x00, 0x00,
  0x01, 0x00, 0x00, 0x00, 0x1e, 0xfd, 0xff, 0xff, 0x00, 0x00, 0x00, 0x04,
  0x01, 0x00, 0x00, 0x00, 0x2a, 0x00, 0x00, 0x00, 0x01, 0x00, 0x00, 0x00,
  0x1e, 0x00, 0x00, 0x00, 0x1e, 0xfe, 0xff, 0xff, 0x0c, 0x00, 0x00, 0x00,
  0x10, 0x00, 0x00, 0x00, 0x07, 0x00, 0x00, 0x00, 0x01, 0x00, 0x00, 0x00,
  0x29, 0x00, 0x00, 0x00, 0x01, 0x00, 0x00, 0x00, 0x28, 0x00, 0x00, 0x00,
  0x3e, 0xfe, 0xff, 0xff, 0x0c, 0x00, 0x00, 0x00, 0x10, 0x00, 0x00, 0x00,
  0x0d, 0x00, 0x00, 0x00, 0x01, 0x00, 0x00, 0x00, 0x28, 0x00, 0x00, 0x00,
  0x02, 0x00, 0x00, 0x00, 0x27, 0x00, 0x00, 0x00, 0x13, 0x00, 0x00, 0x00,
  0xa2, 0xfd, 0xff, 0xff, 0x14, 0x00, 0x00, 0x00, 0x00, 0x00, 0x00, 0x15,
  0x10, 0x00, 0x00, 0x00, 0x14, 0x00, 0x00, 0x00, 0x08, 0x00, 0x00, 0x00,
  0x8c, 0xcc, 0xff, 0xff, 0x01, 0x00, 0x00, 0x00, 0x27, 0x00, 0x00, 0x00,
  0x02, 0x00, 0x00, 0x00, 0x26, 0x00, 0x00, 0x00, 0x11, 0x00, 0x00, 0x00,
  0xd2, 0xfd, 0xff, 0xff, 0x14, 0x00, 0x00, 0x00, 0x00, 0x00, 0x00, 0x0b,
  0x10, 0x00, 0x00, 0x00, 0x14, 0x00, 0x00, 0x00, 0x0c, 0x00, 0x00, 0x00,
  0xbc, 0xcc, 0xff, 0xff, 0x01, 0x00, 0x00, 0x00, 0x26, 0x00, 0x00, 0x00,
  0x02, 0x00, 0x00, 0x00, 0x21, 0x00, 0x00, 0x00, 0x25, 0x00, 0x00, 0x00,
  0x02, 0xfe, 0xff, 0xff, 0x14, 0x00, 0x00, 0x00, 0x00, 0x00, 0x00, 0x1c,
  0x10, 0x00, 0x00, 0x00, 0x14, 0x00, 0x00, 0x00, 0x0b, 0x00, 0x00, 0x00,
  0xec, 0xcc, 0xff, 0xff, 0x01, 0x00, 0x00, 0x00, 0x25, 0x00, 0x00, 0x00,
  0x02, 0x00, 0x00, 0x00, 0x24, 0x00, 0x00, 0x00, 0x21, 0x00, 0x00, 0x00,
  0xea, 0xfd, 0xff, 0xff, 0x08, 0x00, 0x00, 0x00, 0x0c, 0x00, 0x00, 0x00,
  0x01, 0x00, 0x00, 0x00, 0x24, 0x00, 0x00, 0x00, 0x01, 0x00, 0x00, 0x00,
  0x23, 0x00, 0x00, 0x00, 0x0e, 0xff, 0xff, 0xff, 0x0c, 0x00, 0x00, 0x00,
  0x10, 0x00, 0x00, 0x00, 0x0a, 0x00, 0x00, 0x00, 0x01, 0x00, 0x00, 0x00,
  0x23, 0x00, 0x00, 0x00, 0x01, 0x00, 0x00, 0x00, 0x22, 0x00, 0x00, 0x00,
  0x2e, 0xff, 0xff, 0xff, 0x0c, 0x00, 0x00, 0x00, 0x10, 0x00, 0x00, 0x00,
  0x09, 0x00, 0x00, 0x00, 0x01, 0x00, 0x00, 0x00, 0x22, 0x00, 0x00, 0x00,
  0x01, 0x00, 0x00, 0x00, 0x21, 0x00, 0x00, 0x00, 0x8e, 0xfe, 0xff, 0xff,
  0x14, 0x00, 0x00, 0x00, 0x00, 0x00, 0x00, 0x15, 0x10, 0x00, 0x00, 0x00,
  0x14, 0x00, 0x00, 0x00, 0x08, 0x00, 0x00, 0x00, 0x78, 0xcd, 0xff, 0xff,
  0x01, 0x00, 0x00, 0x00, 0x21, 0x00, 0x00, 0x00, 0x02, 0x00, 0x00, 0x00,
  0x1e, 0x00, 0x00, 0x00, 0x12, 0x00, 0x00, 0x00, 0x7e, 0xff, 0xff, 0xff,
  0x0c, 0x00, 0x00, 0x00, 0x10, 0x00, 0x00, 0x00, 0x07, 0x00, 0x00, 0x00,
  0x01, 0x00, 0x00, 0x00, 0x20, 0x00, 0x00, 0x00, 0x01, 0x00, 0x00, 0x00,
  0x1e, 0x00, 0x00, 0x00, 0x9e, 0xff, 0xff, 0xff, 0x0c, 0x00, 0x00, 0x00,
  0x10, 0x00, 0x00, 0x00, 0x06, 0x00, 0x00, 0x00, 0x01, 0x00, 0x00, 0x00,
  0x1f, 0x00, 0x00, 0x00, 0x02, 0x00, 0x00, 0x00, 0x1e, 0x00, 0x00, 0x00,
  0x16, 0x00, 0x00, 0x00, 0x02, 0xff, 0xff, 0xff, 0x14, 0x00, 0x00, 0x00,
  0x00, 0x00, 0x00, 0x01, 0x18, 0x00, 0x00, 0x00, 0x1c, 0x00, 0x00, 0x00,
  0x05, 0x00, 0x00, 0x00, 0xd2, 0xfe, 0xff, 0xff, 0x01, 0x00, 0x00, 0x00,
  0x01, 0x00, 0x00, 0x00, 0x01, 0x00, 0x00, 0x00, 0x1e, 0x00, 0x00, 0x00,
  0x03, 0x00, 0x00, 0x00, 0x1d, 0x00, 0x00, 0x00, 0x18, 0x00, 0x00, 0x00,
  0x17, 0x00, 0x00, 0x00, 0x00, 0x00, 0x0a, 0x00, 0x10, 0x00, 0x0c, 0x00,
  0x08, 0x00, 0x04, 0x00, 0x0a, 0x00, 0x00, 0x00, 0x0c, 0x00, 0x00, 0x00,
  0x10, 0x00, 0x00, 0x00, 0x04, 0x00, 0x00, 0x00, 0x01, 0x00, 0x00, 0x00,
  0x1d, 0x00, 0x00, 0x00, 0x02, 0x00, 0x00, 0x00, 0x19, 0x00, 0x00, 0x00,
  0x1c, 0x00, 0x00, 0x00, 0x6e, 0xff, 0xff, 0xff, 0x1c, 0x00, 0x00, 0x00,
  0x00, 0x00, 0x00, 0x3b, 0x1c, 0x00, 0x00, 0x00, 0x20, 0x00, 0x00, 0x00,
  0x03, 0x00, 0x00, 0x00, 0x00, 0x00, 0x06, 0x00, 0x08, 0x00, 0x04, 0x00,
  0x06, 0x00, 0x00, 0x00, 0x04, 0x00, 0x00, 0x00, 0x01, 0x00, 0x00, 0x00,
  0x1c, 0x00, 0x00, 0x00, 0x04, 0x00, 0x00, 0x00, 0x1b, 0x00, 0x00, 0x00,
  0x03, 0x00, 0x00, 0x00, 0x04, 0x00, 0x00, 0x00, 0x05, 0x00, 0x00, 0x00,
  0xb2, 0xff, 0xff, 0xff, 0x24, 0x00, 0x00, 0x00, 0x00, 0x00, 0x00, 0x20,
  0x24, 0x00, 0x00, 0x00, 0x28, 0x00, 0x00, 0x00, 0x02, 0x00, 0x00, 0x00,
  0x00, 0x00, 0x0e, 0x00, 0x08, 0x00, 0x00, 0x00, 0x00, 0x00, 0x00, 0x00,
  0x00, 0x00, 0x04, 0x00, 0x0e, 0x00, 0x00, 0x00, 0x01, 0x00, 0x00, 0x00,
  0x01, 0x00, 0x00, 0x00, 0x1b, 0x00, 0x00, 0x00, 0x04, 0x00, 0x00, 0x00,
  0x1a, 0x00, 0x00, 0x00, 0x01, 0x00, 0x00, 0x00, 0x02, 0x00, 0x00, 0x00,
  0x02, 0x00, 0x00, 0x00, 0x00, 0x00, 0x0e, 0x00, 0x1a, 0x00, 0x14, 0x00,
  0x10, 0x00, 0x0c, 0x00, 0x0b, 0x00, 0x04, 0x00, 0x0e, 0x00, 0x00, 0x00,
  0x1c, 0x00, 0x00, 0x00, 0x00, 0x00, 0x00, 0x37, 0x1c, 0x00, 0x00, 0x00,
  0x20, 0x00, 0x00, 0x00, 0x01, 0x00, 0x00, 0x00, 0x00, 0x00, 0x06, 0x00,
  0x08, 0x00, 0x07, 0x00, 0x06, 0x00, 0x00, 0x00, 0x00, 0x00, 0x00, 0x02,
  0x01, 0x00, 0x00, 0x00, 0x1a, 0x00, 0x00, 0x00, 0x01, 0x00, 0x00, 0x00,
  0x19, 0x00, 0x00, 0x00, 0x00, 0x00, 0x0a, 0x00, 0x0c, 0x00, 0x00, 0x00,
  0x08, 0x00, 0x04, 0x00, 0x0a, 0x00, 0x00, 0x00, 0x08, 0x00, 0x00, 0x00,
  0x0c, 0x00, 0x00, 0x00, 0x01, 0x00, 0x00, 0x00, 0x19, 0x00, 0x00, 0x00,
  0x01, 0x00, 0x00, 0x00, 0x00, 0x00, 0x00, 0x00, 0x01, 0x00, 0x00, 0x00,
  0x58, 0x00, 0x00, 0x00, 0x01, 0x00, 0x00, 0x00, 0x00, 0x00, 0x00, 0x00,
  0x59, 0x00, 0x00, 0x00, 0x04, 0x31, 0x00, 0x00, 0x8c, 0x30, 0x00, 0x00,
  0x18, 0x30, 0x00, 0x00, 0xcc, 0x2f, 0x00, 0x00, 0x7c, 0x2f, 0x00, 0x00,
  0x2c, 0x2f, 0x00, 0x00, 0xe0, 0x2e, 0x00, 0x00, 0x68, 0x2e, 0x00, 0x00,
  0xfc, 0x2d, 0x00, 0x00, 0x88, 0x2d, 0x00, 0x00, 0x14, 0x2d, 0x00, 0x00,
  0x90, 0x2c, 0x00, 0x00, 0x0c, 0x2c, 0x00, 0x00, 0x88, 0x2b, 0x00, 0x00,
  0x64, 0x2a, 0x00, 0x00, 0x90, 0x29, 0x00, 0x00, 0x24, 0x29, 0x00, 0x00,
  0x98, 0x28, 0x00, 0x00, 0x2c, 0x28, 0x00, 0x00, 0xc0, 0x27, 0x00, 0x00,
  0x54, 0x27, 0x00, 0x00, 0xe8, 0x26, 0x00, 0x00, 0x7c, 0x26, 0x00, 0x00,
  0x60, 0x25, 0x00, 0x00, 0x94, 0x24, 0x00, 0x00, 0x1c, 0x24, 0x00, 0x00,
  0xd0, 0x23, 0x00, 0x00, 0x80, 0x23, 0x00, 0x00, 0x2c, 0x23, 0x00, 0x00,
  0xa0, 0x22, 0x00, 0x00, 0x74, 0x21, 0x00, 0x00, 0xfc, 0x20, 0x00, 0x00,
  0x6c, 0x20, 0x00, 0x00, 0xd8, 0x1f, 0x00, 0x00, 0x78, 0x1f, 0x00, 0x00,
  0xf0, 0x1e, 0x00, 0x00, 0x6c, 0x1e, 0x00, 0x00, 0xc0, 0x1d, 0x00, 0x00,
  0x2c, 0x1d, 0x00, 0x00, 0x78, 0x1c, 0x00, 0x00, 0xd4, 0x1b, 0x00, 0x00,
  0x38, 0x1b, 0x00, 0x00, 0xe4, 0x1a, 0x00, 0x00, 0x50, 0x1a, 0x00, 0x00,
  0xc4, 0x19, 0x00, 0x00, 0x30, 0x19, 0x00, 0x00, 0x84, 0x18, 0x00, 0x00,
  0xf0, 0x17, 0x00, 0x00, 0xdc, 0x16, 0x00, 0x00, 0x64, 0x16, 0x00, 0x00,
  0xd4, 0x15, 0x00, 0x00, 0x40, 0x15, 0x00, 0x00, 0xe0, 0x14, 0x00, 0x00,
  0x70, 0x14, 0x00, 0x00, 0xec, 0x13, 0x00, 0x00, 0x40, 0x13, 0x00, 0x00,
  0xac, 0x12, 0x00, 0x00, 0xf8, 0x11, 0x00, 0x00, 0x54, 0x11, 0x00, 0x00,
  0xb8, 0x10, 0x00, 0x00, 0x64, 0x10, 0x00, 0x00, 0xc8, 0x0f, 0x00, 0x00,
  0x34, 0x0f, 0x00, 0x00, 0xa0, 0x0e, 0x00, 0x00, 0xec, 0x0d, 0x00, 0x00,
  0x58, 0x0d, 0x00, 0x00, 0xc4, 0x0c, 0x00, 0x00, 0x48, 0x0c, 0x00, 0x00,
  0x4c, 0x0b, 0x00, 0x00, 0xe4, 0x0a, 0x00, 0x00, 0xcc, 0x09, 0x00, 0x00,
  0xb0, 0x08, 0x00, 0x00, 0x60, 0x08, 0x00, 0x00, 0x00, 0x08, 0x00, 0x00,
  0x8c, 0x07, 0x00, 0x00, 0xf0, 0x06, 0x00, 0x00, 0x6c, 0x06, 0x00, 0x00,
  0xc8, 0x05, 0x00, 0x00, 0x34, 0x05, 0x00, 0x00, 0xa8, 0x04, 0x00, 0x00,
  0x54, 0x04, 0x00, 0x00, 0xc8, 0x03, 0x00, 0x00, 0x44, 0x03, 0x00, 0x00,
  0xc0, 0x02, 0x00, 0x00, 0x1c, 0x02, 0x00, 0x00, 0x98, 0x01, 0x00, 0x00,
  0xfc, 0x00, 0x00, 0x00, 0x80, 0x00, 0x00, 0x00, 0x04, 0x00, 0x00, 0x00,
  0x76, 0xd0, 0xff, 0xff, 0x00, 0x00, 0x00, 0x01, 0x18, 0x00, 0x00, 0x00,
  0x20, 0x00, 0x00, 0x00, 0x3c, 0x00, 0x00, 0x00, 0x59, 0x00, 0x00, 0x00,
  0x00, 0x00, 0x00, 0x03, 0x50, 0x00, 0x00, 0x00, 0x02, 0x00, 0x00, 0x00,
  0xff, 0xff, 0xff, 0xff, 0x08, 0x00, 0x00, 0x00, 0x5c, 0xd0, 0xff, 0xff,
  0x08, 0x00, 0x00, 0x00, 0x10, 0x00, 0x00, 0x00, 0x01, 0x00, 0x00, 0x00,
  0x00, 0x00, 0x00, 0x00, 0x00, 0x00, 0x00, 0x00, 0x01, 0x00, 0x00, 0x00,
  0x00, 0x00, 0x80, 0x3b, 0x19, 0x00, 0x00, 0x00, 0x53, 0x74, 0x61, 0x74,
  0x65, 0x66, 0x75, 0x6c, 0x50, 0x61, 0x72, 0x74, 0x69, 0x74, 0x69, 0x6f,
  0x6e, 0x65, 0x64, 0x43, 0x61, 0x6c, 0x6c, 0x3a, 0x30, 0x00, 0x00, 0x00,
  0x02, 0x00, 0x00, 0x00, 0x01, 0x00, 0x00, 0x00, 0x08, 0x00, 0x00, 0x00,
  0xee, 0xd0, 0xff, 0xff, 0x00, 0x00, 0x00, 0x01, 0x18, 0x00, 0x00, 0x00,
  0x20, 0x00, 0x00, 0x00, 0x3c, 0x00, 0x00, 0x00, 0x58, 0x00, 0x00, 0x00,
  0x00, 0x00, 0x00, 0x09, 0x50, 0x00, 0x00, 0x00, 0x02, 0x00, 0x00, 0x00,
  0xff, 0xff, 0xff, 0xff, 0x08, 0x00, 0x00, 0x00, 0xd4, 0xd0, 0xff, 0xff,
  0x08, 0x00, 0x00, 0x00, 0x10, 0x00, 0x00, 0x00, 0x01, 0x00, 0x00, 0x00,
  0x80, 0xff, 0xff, 0xff, 0xff, 0xff, 0xff, 0xff, 0x01, 0x00, 0x00, 0x00,
  0x00, 0x00, 0x80, 0x3b, 0x1a, 0x00, 0x00, 0x00, 0x53, 0x74, 0x61, 0x74,
  0x65, 0x66, 0x75, 0x6c, 0x50, 0x61, 0x72, 0x74, 0x69, 0x74, 0x69, 0x6f,
  0x6e, 0x65, 0x64, 0x43, 0x61, 0x6c, 0x6c, 0x3a, 0x30, 0x31, 0x00, 0x00,
  0x02, 0x00, 0x00, 0x00, 0x01, 0x00, 0x00, 0x00, 0x08, 0x00, 0x00, 0x00,
  0x66, 0xd1, 0xff, 0xff, 0x00, 0x00, 0x00, 0x01, 0x18, 0x00, 0x00, 0x00,
  0x20, 0x00, 0x00, 0x00, 0x3c, 0x00, 0x00, 0x00, 0x57, 0x00, 0x00, 0x00,
  0x00, 0x00, 0x00, 0x09, 0x70, 0x00, 0x00, 0x00, 0x02, 0x00, 0x00, 0x00,
  0xff, 0xff, 0xff, 0xff, 0x08, 0x00, 0x00, 0x00, 0x4c, 0xd1, 0xff, 0xff,
  0x08, 0x00, 0x00, 0x00, 0x10, 0x00, 0x00, 0x00, 0x01, 0x00, 0x00, 0x00,
  0xf9, 0xff, 0xff, 0xff, 0xff, 0xff, 0xff, 0xff, 0x01, 0x00, 0x00, 0x00,
  0x90, 0x33, 0x5d, 0x3d, 0x38, 0x00, 0x00, 0x00, 0x73, 0x65, 0x71, 0x75,
  0x65, 0x6e, 0x74, 0x69, 0x61, 0x6c, 0x2f, 0x71, 0x5f, 0x64, 0x65, 0x6e,
  0x73, 0x65, 0x5f, 0x31, 0x2f, 0x4d, 0x61, 0x74, 0x4d, 0x75, 0x6c, 0x3b,
  0x73, 0x65, 0x71, 0x75, 0x65, 0x6e, 0x74, 0x69, 0x61, 0x6c, 0x2f, 0x71,
  0x5f, 0x64, 0x65, 0x6e, 0x73, 0x65, 0x5f, 0x31, 0x2f, 0x42, 0x69, 0x61,
  0x73, 0x41, 0x64, 0x64, 0x00, 0x00, 0x00, 0x00, 0x02, 0x00, 0x00, 0x00,
  0x01, 0x00, 0x00, 0x00, 0x08, 0x00, 0x00, 0x00, 0xfe, 0xd1, 0xff, 0xff,
  0x00, 0x00, 0x00, 0x01, 0x18, 0x00, 0x00, 0x00, 0x20, 0x00, 0x00, 0x00,
  0x40, 0x00, 0x00, 0x00, 0x56, 0x00, 0x00, 0x00, 0x00, 0x00, 0x00, 0x09,
  0x58, 0x00, 0x00, 0x00, 0x02, 0x00, 0x00, 0x00, 0xff, 0xff, 0xff, 0xff,
  0x20, 0x00, 0x00, 0x00, 0xe4, 0xd1, 0xff, 0xff, 0x08, 0x00, 0x00, 0x00,
  0x14, 0x00, 0x00, 0x00, 0x01, 0x00, 0x00, 0x00, 0x80, 0xff, 0xff, 0xff,
  0xff, 0xff, 0xff, 0xff, 0x00, 0x00, 0x00, 0x00, 0x01, 0x00, 0x00, 0x00,
  0x00, 0x00, 0x80, 0x3b, 0x1f, 0x00, 0x00, 0x00, 0x73, 0x65, 0x71, 0x75,
  0x65, 0x6e, 0x74, 0x69, 0x61, 0x6c, 0x2f, 0x71, 0x5f, 0x61, 0x63, 0x74,
  0x69, 0x76, 0x61, 0x74, 0x69, 0x6f, 0x6e, 0x5f, 0x32, 0x2f, 0x61, 0x64,
  0x64, 0x5f, 0x33, 0x00, 0x02, 0x00, 0x00, 0x00, 0x01, 0x00, 0x00, 0x00,
  0x20, 0x00, 0x00, 0x00, 0x7e, 0xd2, 0xff, 0xff, 0x00, 0x00, 0x00, 0x01,
  0x18, 0x00, 0x00, 0x00, 0x20, 0x00, 0x00, 0x00, 0x40, 0x00, 0x00, 0x00,
  0x55, 0x00, 0x00, 0x00, 0x00, 0x00, 0x00, 0x09, 0x78, 0x00, 0x00, 0x00,
  0x02, 0x00, 0x00, 0x00, 0xff, 0xff, 0xff, 0xff, 0x20, 0x00, 0x00, 0x00,
  0x64, 0xd2, 0xff, 0xff, 0x08, 0x00, 0x00, 0x00, 0x14, 0x00, 0x00, 0x00,
  0x01, 0x00, 0x00, 0x00, 0x80, 0xff, 0xff, 0xff, 0xff, 0xff, 0xff, 0xff,
  0x00, 0x00, 0x00, 0x00, 0x01, 0x00, 0x00, 0x00, 0x88, 0x3f, 0x80, 0x3b,
  0x3f, 0x00, 0x00, 0x00, 0x73, 0x65, 0x71, 0x75, 0x65, 0x6e, 0x74, 0x69,
  0x61, 0x6c, 0x2f, 0x71, 0x5f, 0x61, 0x63, 0x74, 0x69, 0x76, 0x61, 0x74,
  0x69, 0x6f, 0x6e, 0x5f, 0x32, 0x2f, 0x61, 0x64, 0x64, 0x5f, 0x32, 0x3b,
  0x73, 0x65, 0x71, 0x75, 0x65, 0x6e, 0x74, 0x69, 0x61, 0x6c, 0x2f, 0x71,
  0x5f, 0x61, 0x63, 0x74, 0x69, 0x76, 0x61, 0x74, 0x69, 0x6f, 0x6e, 0x5f,
  0x32, 0x2f, 0x4e, 0x65, 0x67, 0x5f, 0x31, 0x00, 0x02, 0x00, 0x00, 0x00,
  0x01, 0x00, 0x00, 0x00, 0x20, 0x00, 0x00, 0x00, 0x1e, 0xd3, 0xff, 0xff,
  0x00, 0x00, 0x00, 0x01, 0x18, 0x00, 0x00, 0x00, 0x20, 0x00, 0x00, 0x00,
  0x3c, 0x00, 0x00, 0x00, 0x54, 0x00, 0x00, 0x00, 0x00, 0x00, 0x00, 0x09,
  0x58, 0x00, 0x00, 0x00, 0x02, 0x00, 0x00, 0x00, 0xff, 0xff, 0xff, 0xff,
  0x20, 0x00, 0x00, 0x00, 0x04, 0xd3, 0xff, 0xff, 0x08, 0x00, 0x00, 0x00,
  0x10, 0x00, 0x00, 0x00, 0x01, 0x00, 0x00, 0x00, 0x80, 0xff, 0xff, 0xff,
  0xff, 0xff, 0xff, 0xff, 0x01, 0x00, 0x00, 0x00, 0x00, 0x00, 0x80, 0x3b,
  0x22, 0x00, 0x00, 0x00, 0x73, 0x65, 0x71, 0x75, 0x65, 0x6e, 0x74, 0x69,
  0x61, 0x6c, 0x2f, 0x71, 0x5f, 0x61, 0x63, 0x74, 0x69, 0x76, 0x61, 0x74,
  0x69, 0x6f, 0x6e, 0x5f, 0x32, 0x2f, 0x53, 0x65, 0x6c, 0x65, 0x63, 0x74,
  0x56, 0x32, 0x00, 0x00, 0x02, 0x00, 0x00, 0x00, 0x01, 0x00, 0x00, 0x00,
  0x20, 0x00, 0x00, 0x00, 0x9e, 0xd3, 0xff, 0xff, 0x00, 0x00, 0x00, 0x01,
  0x18, 0x00, 0x00, 0x00, 0x20, 0x00, 0x00, 0x00, 0x40, 0x00, 0x00, 0x00,
  0x53, 0x00, 0x00, 0x00, 0x00, 0x00, 0x00, 0x09, 0x58, 0x00, 0x00, 0x00,
  0x02, 0x00, 0x00, 0x00, 0xff, 0xff, 0xff, 0xff, 0x20, 0x00, 0x00, 0x00,
  0x84, 0xd3, 0xff, 0xff, 0x08, 0x00, 0x00, 0x00, 0x14, 0x00, 0x00, 0x00,
  0x01, 0x00, 0x00, 0x00, 0x80, 0xff, 0xff, 0xff, 0xff, 0xff, 0xff, 0xff,
  0x00, 0x00, 0x00, 0x00, 0x01, 0x00, 0x00, 0x00, 0x00, 0x00, 0x80, 0x3b,
  0x1d, 0x00, 0x00, 0x00, 0x73, 0x65, 0x71, 0x75, 0x65, 0x6e, 0x74, 0x69,
  0x61, 0x6c, 0x2f, 0x71, 0x5f, 0x61, 0x63, 0x74, 0x69, 0x76, 0x61, 0x74,
  0x69, 0x6f, 0x6e, 0x5f, 0x32, 0x2f, 0x6d, 0x75, 0x6c, 0x00, 0x00, 0x00,
  0x02, 0x00, 0x00, 0x00, 0x01, 0x00, 0x00, 0x00, 0x20, 0x00, 0x00, 0x00,
  0x1e, 0xd4, 0xff, 0xff, 0x00, 0x00, 0x00, 0x01, 0x18, 0x00, 0x00, 0x00,
  0x20, 0x00, 0x00, 0x00, 0x40, 0x00, 0x00, 0x00, 0x52, 0x00, 0x00, 0x00,
  0x00, 0x00, 0x00, 0x09, 0x60, 0x00, 0x00, 0x00, 0x02, 0x00, 0x00, 0x00,
  0xff, 0xff, 0xff, 0xff, 0x20, 0x00, 0x00, 0x00, 0x04, 0xd4, 0xff, 0xff,
  0x08, 0x00, 0x00, 0x00, 0x14, 0x00, 0x00, 0x00, 0x01, 0x00, 0x00, 0x00,
  0x80, 0xff, 0xff, 0xff, 0xff, 0xff, 0xff, 0xff, 0x00, 0x00, 0x00, 0x00,
  0x01, 0x00, 0x00, 0x00, 0x81, 0x80, 0x80, 0x3b, 0x24, 0x00, 0x00, 0x00,
  0x73, 0x65, 0x71, 0x75, 0x65, 0x6e, 0x74, 0x69, 0x61, 0x6c, 0x2f, 0x71,
  0x5f, 0x61, 0x63, 0x74, 0x69, 0x76, 0x61, 0x74, 0x69, 0x6f, 0x6e, 0x5f,
  0x32, 0x2f, 0x6f, 0x6e, 0x65, 0x73, 0x5f, 0x6c, 0x69, 0x6b, 0x65, 0x31,
  0x00, 0x00, 0x00, 0x00, 0x02, 0x00, 0x00, 0x00, 0x01, 0x00, 0x00, 0x00,
  0x20, 0x00, 0x00, 0x00, 0x1a, 0xd5, 0xff, 0xff, 0x00, 0x00, 0x00, 0x01,
  0x14, 0x00, 0x00, 0x00, 0x14, 0x00, 0x00, 0x00, 0x51, 0x00, 0x00, 0x00,
  0x00, 0x00, 0x00, 0x04, 0x30, 0x00, 0x00, 0x00, 0x04, 0xd5, 0xff, 0xff,
  0x23, 0x00, 0x00, 0x00, 0x73, 0x65, 0x71, 0x75, 0x65, 0x6e, 0x74, 0x69,
  0x61, 0x6c, 0x2f, 0x71, 0x5f, 0x61, 0x63, 0x74, 0x69, 0x76, 0x61, 0x74,
  0x69, 0x6f, 0x6e, 0x5f, 0x32, 0x2f, 0x6f, 0x6e, 0x65, 0x73, 0x5f, 0x6c,
  0x69, 0x6b, 0x65, 0x00, 0x01, 0x00, 0x00, 0x00, 0x02, 0x00, 0x00, 0x00,
  0xf6, 0xd4, 0xff, 0xff, 0x00, 0x00, 0x00, 0x01, 0x18, 0x00, 0x00, 0x00,
  0x20, 0x00, 0x00, 0x00, 0x40, 0x00, 0x00, 0x00, 0x50, 0x00, 0x00, 0x00,
  0x00, 0x00, 0x00, 0x09, 0x60, 0x00, 0x00, 0x00, 0x02, 0x00, 0x00, 0x00,
  0xff, 0xff, 0xff, 0xff, 0x20, 0x00, 0x00, 0x00, 0xdc, 0xd4, 0xff, 0xff,
  0x08, 0x00, 0x00, 0x00, 0x14, 0x00, 0x00, 0x00, 0x01, 0x00, 0x00, 0x00,
  0x80, 0xff, 0xff, 0xff, 0xff, 0xff, 0xff, 0xff, 0x00, 0x00, 0x00, 0x00,
  0x01, 0x00, 0x00, 0x00, 0x88, 0x3f, 0x80, 0x3b, 0x27, 0x00, 0x00, 0x00,
  0x73, 0x65, 0x71, 0x75, 0x65, 0x6e, 0x74, 0x69, 0x61, 0x6c, 0x2f, 0x71,
  0x5f, 0x61, 0x63, 0x74, 0x69, 0x76, 0x61, 0x74, 0x69, 0x6f, 0x6e, 0x5f,
  0x32, 0x2f, 0x63, 0x6c, 0x69, 0x70, 0x5f, 0x62, 0x79, 0x5f, 0x76, 0x61,
  0x6c, 0x75, 0x65, 0x00, 0x02, 0x00, 0x00, 0x00, 0x01, 0x00, 0x00, 0x00,
  0x20, 0x00, 0x00, 0x00, 0x7e, 0xd5, 0xff, 0xff, 0x00, 0x00, 0x00, 0x01,
  0x18, 0x00, 0x00, 0x00, 0x20, 0x00, 0x00, 0x00, 0x40, 0x00, 0x00, 0x00,
  0x4f, 0x00, 0x00, 0x00, 0x00, 0x00, 0x00, 0x09, 0x68, 0x00, 0x00, 0x00,
  0x02, 0x00, 0x00, 0x00, 0xff, 0xff, 0xff, 0xff, 0x20, 0x00, 0x00, 0x00,
  0x64, 0xd5, 0xff, 0xff, 0x08, 0x00, 0x00, 0x00, 0x14, 0x00, 0x00, 0x00,
  0x01, 0x00, 0x00, 0x00, 0x4d, 0x00, 0x00, 0x00, 0x00, 0x00, 0x00, 0x00,
  0x00, 0x00, 0x00, 0x00, 0x01, 0x00, 0x00, 0x00, 0x04, 0x04, 0xa4, 0x3c,
  0x2f, 0x00, 0x00, 0x00, 0x73, 0x65, 0x71, 0x75, 0x65, 0x6e, 0x74, 0x69,
  0x61, 0x6c, 0x2f, 0x71, 0x5f, 0x61, 0x63, 0x74, 0x69, 0x76, 0x61, 0x74,
  0x69, 0x6f, 0x6e, 0x5f, 0x32, 0x2f, 0x63, 0x6c, 0x69, 0x70, 0x5f, 0x62,
  0x79, 0x5f, 0x76, 0x61, 0x6c, 0x75, 0x65, 0x2f, 0x4d, 0x69, 0x6e, 0x69,
  0x6d, 0x75, 0x6d, 0x00, 0x02, 0x00, 0x00, 0x00, 0x01, 0x00, 0x00, 0x00,
  0x20, 0x00, 0x00, 0x00, 0x0e, 0xd6, 0xff, 0xff, 0x00, 0x00, 0x00, 0x01,
  0x18, 0x00, 0x00, 0x00, 0x20, 0x00, 0x00, 0x00, 0x3c, 0x00, 0x00, 0x00,
  0x4e, 0x00, 0x00, 0x00, 0x00, 0x00, 0x00, 0x09, 0x78, 0x00, 0x00, 0x00,
  0x02, 0x00, 0x00, 0x00, 0xff, 0xff, 0xff, 0xff, 0x20, 0x00, 0x00, 0x00,
  0xf4, 0xd5, 0xff, 0xff, 0x08, 0x00, 0x00, 0x00, 0x10, 0x00, 0x00, 0x00,
  0x01, 0x00, 0x00, 0x00, 0x4d, 0x00, 0x00, 0x00, 0x00, 0x00, 0x00, 0x00,
  0x01, 0x00, 0x00, 0x00, 0x04, 0x04, 0xa4, 0x3c, 0x40, 0x00, 0x00, 0x00,
  0x73, 0x65, 0x71, 0x75, 0x65, 0x6e, 0x74, 0x69, 0x61, 0x6c, 0x2f, 0x71,
  0x5f, 0x61, 0x63, 0x74, 0x69, 0x76, 0x61, 0x74, 0x69, 0x6f, 0x6e, 0x5f,
  0x32, 0x2f, 0x74, 0x72, 0x75, 0x65, 0x64, 0x69, 0x76, 0x5f, 0x31, 0x3b,
  0x73, 0x65, 0x71, 0x75, 0x65, 0x6e, 0x74, 0x69, 0x61, 0x6c, 0x2f, 0x71,
  0x5f, 0x61, 0x63, 0x74, 0x69, 0x76, 0x61, 0x74, 0x69, 0x6f, 0x6e, 0x2f,
  0x43, 0x61, 0x73, 0x74, 0x00, 0x00, 0x00, 0x00, 0x02, 0x00, 0x00, 0x00,
  0x01, 0x00, 0x00, 0x00, 0x20, 0x00, 0x00, 0x00, 0xae, 0xd6, 0xff, 0xff,
  0x00, 0x00, 0x00, 0x01, 0x18, 0x00, 0x00, 0x00, 0x20, 0x00, 0x00, 0x00,
  0x40, 0x00, 0x00, 0x00, 0x4d, 0x00, 0x00, 0x00, 0x00, 0x00, 0x00, 0x09,
  0x58, 0x00, 0x00, 0x00, 0x02, 0x00, 0x00, 0x00, 0xff, 0xff, 0xff, 0xff,
  0x20, 0x00, 0x00, 0x00, 0x94, 0xd6, 0xff, 0xff, 0x08, 0x00, 0x00, 0x00,
  0x14, 0x00, 0x00, 0x00, 0x01, 0x00, 0x00, 0x00, 0xfb, 0xff, 0xff, 0xff,
  0xff, 0xff, 0xff, 0xff, 0x00, 0x00, 0x00, 0x00, 0x01, 0x00, 0x00, 0x00,
  0xf9, 0xf8, 0x08, 0x41, 0x1f, 0x00, 0x00, 0x00, 0x73, 0x65, 0x71, 0x75,
  0x65, 0x6e, 0x74, 0x69, 0x61, 0x6c, 0x2f, 0x71, 0x5f, 0x61, 0x63, 0x74,
  0x69, 0x76, 0x61, 0x74, 0x69, 0x6f, 0x6e, 0x5f, 0x32, 0x2f, 0x61, 0x64,
  0x64, 0x5f, 0x31, 0x00, 0x02, 0x00, 0x00, 0x00, 0x01, 0x00, 0x00, 0x00,
  0x20, 0x00, 0x00, 0x00, 0x2e, 0xd7, 0xff, 0xff, 0x00, 0x00, 0x00, 0x01,
  0x18, 0x00, 0x00, 0x00, 0x20, 0x00, 0x00, 0x00, 0x3c, 0x00, 0x00, 0x00,
  0x4c, 0x00, 0x00, 0x00, 0x00, 0x00, 0x00, 0x09, 0x70, 0x00, 0x00, 0x00,
  0x02, 0x00, 0x00, 0x00, 0xff, 0xff, 0xff, 0xff, 0x20, 0x00, 0x00, 0x00,
  0x14, 0xd7, 0xff, 0xff, 0x08, 0x00, 0x00, 0x00, 0x10, 0x00, 0x00, 0x00,
  0x01, 0x00, 0x00, 0x00, 0xfb, 0xff, 0xff, 0xff, 0xff, 0xff, 0xff, 0xff,
  0x01, 0x00, 0x00, 0x00, 0xf9, 0xf8, 0x08, 0x41, 0x3b, 0x00, 0x00, 0x00,
  0x73, 0x65, 0x71, 0x75, 0x65, 0x6e, 0x74, 0x69, 0x61, 0x6c, 0x2f, 0x71,
  0x5f, 0x61, 0x63, 0x74, 0x69, 0x76, 0x61, 0x74, 0x69, 0x6f, 0x6e, 0x5f,
  0x32, 0x2f, 0x61, 0x64, 0x64, 0x3b, 0x73, 0x65, 0x71, 0x75, 0x65, 0x6e,
  0x74, 0x69, 0x61, 0x6c, 0x2f, 0x71, 0x5f, 0x61, 0x63, 0x74, 0x69, 0x76,
  0x61, 0x74, 0x69, 0x6f, 0x6e, 0x5f, 0x32, 0x2f, 0x4e, 0x65, 0x67, 0x00,
  0x02, 0x00, 0x00, 0x00, 0x01, 0x00, 0x00, 0x00, 0x20, 0x00, 0x00, 0x00,
  0xc6, 0xd7, 0xff, 0xff, 0x00, 0x00, 0x00, 0x01, 0x18, 0x00, 0x00, 0x00,
  0x20, 0x00, 0x00, 0x00, 0x40, 0x00, 0x00, 0x00, 0x4b, 0x00, 0x00, 0x00,
  0x00, 0x00, 0x00, 0x09, 0x48, 0x00, 0x00, 0x00, 0x02, 0x00, 0x00, 0x00,
  0xff, 0xff, 0xff, 0xff, 0x20, 0x00, 0x00, 0x00, 0xac, 0xd7, 0xff, 0xff,
  0x08, 0x00, 0x00, 0x00, 0x14, 0x00, 0x00, 0x00, 0x01, 0x00, 0x00, 0x00,
  0xfb, 0xff, 0xff, 0xff, 0xff, 0xff, 0xff, 0xff, 0x00, 0x00, 0x00, 0x00,
  0x01, 0x00, 0x00, 0x00, 0xf9, 0xf8, 0x08, 0x41, 0x0d, 0x00, 0x00, 0x00,
  0x74, 0x66, 0x6c, 0x2e, 0x71, 0x75, 0x61, 0x6e, 0x74, 0x69, 0x7a, 0x65,
  0x33, 0x00, 0x00, 0x00, 0x02, 0x00, 0x00, 0x00, 0x01, 0x00, 0x00, 0x00,
  0x20, 0x00, 0x00, 0x00, 0x3a, 0xe9, 0xff, 0xff, 0x00, 0x00, 0x00, 0x01,
  0x14, 0x00, 0x00, 0x00, 0x1c, 0x00, 0x00, 0x00, 0x1c, 0x00, 0x00, 0x00,
  0x4a, 0x00, 0x00, 0x00, 0x38, 0x00, 0x00, 0x00, 0x02, 0x00, 0x00, 0x00,
  0xff, 0xff, 0xff, 0xff, 0x20, 0x00, 0x00, 0x00, 0xa0, 0xd8, 0xff, 0xff,
  0x1f, 0x00, 0x00, 0x00, 0x73, 0x65, 0x71, 0x75, 0x65, 0x6e, 0x74, 0x69,
  0x61, 0x6c, 0x2f, 0x71, 0x5f, 0x61, 0x63, 0x74, 0x69, 0x76, 0x61, 0x74,
  0x69, 0x6f, 0x6e, 0x5f, 0x32, 0x2f, 0x52, 0x6f, 0x75, 0x6e, 0x64, 0x00,
  0x02, 0x00, 0x00, 0x00, 0x01, 0x00, 0x00, 0x00, 0x20, 0x00, 0x00, 0x00,
  0x96, 0xe9, 0xff, 0xff, 0x00, 0x00, 0x00, 0x01, 0x14, 0x00, 0x00, 0x00,
  0x1c, 0x00, 0x00, 0x00, 0x1c, 0x00, 0x00, 0x00, 0x49, 0x00, 0x00, 0x00,
  0x28, 0x00, 0x00, 0x00, 0x02, 0x00, 0x00, 0x00, 0xff, 0xff, 0xff, 0xff,
  0x20, 0x00, 0x00, 0x00, 0xfc, 0xd8, 0xff, 0xff, 0x0f, 0x00, 0x00, 0x00,
  0x74, 0x66, 0x6c, 0x2e, 0x64, 0x65, 0x71, 0x75, 0x61, 0x6e, 0x74, 0x69,
  0x7a, 0x65, 0x32, 0x00, 0x02, 0x00, 0x00, 0x00, 0x01, 0x00, 0x00, 0x00,
  0x20, 0x00, 0x00, 0x00, 0xde, 0xd8, 0xff, 0xff, 0x00, 0x00, 0x00, 0x01,
  0x18, 0x00, 0x00, 0x00, 0x20, 0x00, 0x00, 0x00, 0x40, 0x00, 0x00, 0x00,
  0x48, 0x00, 0x00, 0x00, 0x00, 0x00, 0x00, 0x09, 0xf0, 0x00, 0x00, 0x00,
  0x02, 0x00, 0x00, 0x00, 0xff, 0xff, 0xff, 0xff, 0x20, 0x00, 0x00, 0x00,
  0xc4, 0xd8, 0xff, 0xff, 0x08, 0x00, 0x00, 0x00, 0x14, 0x00, 0x00, 0x00,
  0x01, 0x00, 0x00, 0x00, 0xfb, 0xff, 0xff, 0xff, 0xff, 0xff, 0xff, 0xff,
  0x00, 0x00, 0x00, 0x00, 0x01, 0x00, 0x00, 0x00, 0xa6, 0xf1, 0x08, 0x41,
  0xb6, 0x00, 0x00, 0x00, 0x73, 0x65, 0x71, 0x75, 0x65, 0x6e, 0x74, 0x69,
  0x61, 0x6c, 0x2f, 0x71, 0x5f, 0x64, 0x65, 0x6e, 0x73, 0x65, 0x2f, 0x4d,
  0x61, 0x74, 0x4d, 0x75, 0x6c, 0x3b, 0x73, 0x65, 0x71, 0x75, 0x65, 0x6e,
  0x74, 0x69, 0x61, 0x6c, 0x2f, 0x71, 0x5f, 0x64, 0x65, 0x6e, 0x73, 0x65,
  0x2f, 0x42, 0x69, 0x61, 0x73, 0x41, 0x64, 0x64, 0x3b, 0x73, 0x65, 0x71,
  0x75, 0x65, 0x6e, 0x74, 0x69, 0x61, 0x6c, 0x2f, 0x62, 0x61, 0x74, 0x63,
  0x68, 0x5f, 0x6e, 0x6f, 0x72, 0x6d, 0x61, 0x6c, 0x69, 0x7a, 0x61, 0x74,
  0x69, 0x6f, 0x6e, 0x5f, 0x32, 0x2f, 0x62, 0x61, 0x74, 0x63, 0x68, 0x6e,
  0x6f, 0x72, 0x6d, 0x2f, 0x6d, 0x75, 0x6c, 0x5f, 0x31, 0x3b, 0x73, 0x65,
  0x71, 0x75, 0x65, 0x6e, 0x74, 0x69, 0x61, 0x6c, 0x2f, 0x62, 0x61, 0x74,
  0x63, 0x68, 0x5f, 0x6e, 0x6f, 0x72, 0x6d, 0x61, 0x6c, 0x69, 0x7a, 0x61,
  0x74, 0x69, 0x6f, 0x6e, 0x5f, 0x32, 0x2f, 0x62, 0x61, 0x74, 0x63, 0x68,
  0x6e, 0x6f, 0x72, 0x6d, 0x2f, 0x61, 0x64, 0x64, 0x5f, 0x31, 0x3b, 0x73,
  0x65, 0x71, 0x75, 0x65, 0x6e, 0x74, 0x69, 0x61, 0x6c, 0x2f, 0x71, 0x5f,
  0x61, 0x63, 0x74, 0x69, 0x76, 0x61, 0x74, 0x69, 0x6f, 0x6e, 0x5f, 0x32,
  0x2f, 0x6d, 0x75, 0x6c, 0x5f, 0x31, 0x00, 0x00, 0x02, 0x00, 0x00, 0x00,
  0x01, 0x00, 0x00, 0x00, 0x20, 0x00, 0x00, 0x00, 0xf6, 0xd9, 0xff, 0xff,
  0x00, 0x00, 0x00, 0x01, 0x18, 0x00, 0x00, 0x00, 0x20, 0x00, 0x00, 0x00,
  0x3c, 0x00, 0x00, 0x00, 0x47, 0x00, 0x00, 0x00, 0x00, 0x00, 0x00, 0x09,
  0xec, 0x00, 0x00, 0x00, 0x02, 0x00, 0x00, 0x00, 0xff, 0xff, 0xff, 0xff,
  0x20, 0x00, 0x00, 0x00, 0xdc, 0xd9, 0xff, 0xff, 0x08, 0x00, 0x00, 0x00,
  0x10, 0x00, 0x00, 0x00, 0x01, 0x00, 0x00, 0x00, 0x80, 0xff, 0xff, 0xff,
  0xff, 0xff, 0xff, 0xff, 0x01, 0x00, 0x00, 0x00, 0x00, 0x00, 0x80, 0x3b,
  0xb5, 0x00, 0x00, 0x00, 0x73, 0x65, 0x71, 0x75, 0x65, 0x6e, 0x74, 0x69,
  0x61, 0x6c, 0x2f, 0x71, 0x5f, 0x64, 0x65, 0x6e, 0x73, 0x65, 0x2f, 0x4d,
  0x61, 0x74, 0x4d, 0x75, 0x6c, 0x3b, 0x73, 0x65, 0x71, 0x75, 0x65, 0x6e,
  0x74, 0x69, 0x61, 0x6c, 0x2f, 0x71, 0x5f, 0x64, 0x65, 0x6e, 0x73, 0x65,
  0x2f, 0x42, 0x69, 0x61, 0x73, 0x41, 0x64, 0x64, 0x3b, 0x73, 0x65, 0x71,
  0x75, 0x65, 0x6e, 0x74, 0x69, 0x61, 0x6c, 0x2f, 0x62, 0x61, 0x74, 0x63,
  0x68, 0x5f, 0x6e, 0x6f, 0x72, 0x6d, 0x61, 0x6c, 0x69, 0x7a, 0x61, 0x74,
  0x69, 0x6f, 0x6e, 0x5f, 0x32, 0x2f, 0x62, 0x61, 0x74, 0x63, 0x68, 0x6e,
  0x6f, 0x72, 0x6d, 0x2f, 0x6d, 0x75, 0x6c, 0x5f, 0x31, 0x3b, 0x73, 0x65,
  0x71, 0x75, 0x65, 0x6e, 0x74, 0x69, 0x61, 0x6c, 0x2f, 0x62, 0x61, 0x74,
  0x63, 0x68, 0x5f, 0x6e, 0x6f, 0x72, 0x6d, 0x61, 0x6c, 0x69, 0x7a, 0x61,
  0x74, 0x69, 0x6f, 0x6e, 0x5f, 0x32, 0x2f, 0x62, 0x61, 0x74, 0x63, 0x68,
  0x6e, 0x6f, 0x72, 0x6d, 0x2f, 0x61, 0x64, 0x64, 0x5f, 0x31, 0x3b, 0x73,
  0x65, 0x71, 0x75, 0x65, 0x6e, 0x74, 0x69, 0x61, 0x6c, 0x2f, 0x71, 0x5f,
  0x61, 0x63, 0x74, 0x69, 0x76, 0x61, 0x74, 0x69, 0x6f, 0x6e, 0x5f, 0x32,
  0x2f, 0x52, 0x65, 0x6c, 0x75, 0x00, 0x00, 0x00, 0x02, 0x00, 0x00, 0x00,
  0x01, 0x00, 0x00, 0x00, 0x20, 0x00, 0x00, 0x00, 0x0a, 0xdb, 0xff, 0xff,
  0x00, 0x00, 0x00, 0x01, 0x18, 0x00, 0x00, 0x00, 0x20, 0x00, 0x00, 0x00,
  0x20, 0x00, 0x00, 0x00, 0x46, 0x00, 0x00, 0x00, 0x00, 0x00, 0x00, 0x06,
  0x3c, 0x00, 0x00, 0x00, 0x02, 0x00, 0x00, 0x00, 0xff, 0xff, 0xff, 0xff,
  0x20, 0x00, 0x00, 0x00, 0x78, 0xdb, 0xff, 0xff, 0x23, 0x00, 0x00, 0x00,
  0x73, 0x65, 0x71, 0x75, 0x65, 0x6e, 0x74, 0x69, 0x61, 0x6c, 0x2f, 0x71,
  0x5f, 0x61, 0x63, 0x74, 0x69, 0x76, 0x61, 0x74, 0x69, 0x6f, 0x6e, 0x5f,
  0x32, 0x2f, 0x4c, 0x65, 0x73, 0x73, 0x45, 0x71, 0x75, 0x61, 0x6c, 0x00,
  0x02, 0x00, 0x00, 0x00, 0x01, 0x00, 0x00, 0x00, 0x20, 0x00, 0x00, 0x00,
  0x6e, 0xdb, 0xff, 0xff, 0x00, 0x00, 0x00, 0x01, 0x18, 0x00, 0x00, 0x00,
  0x20, 0x00, 0x00, 0x00, 0x40, 0x00, 0x00, 0x00, 0x45, 0x00, 0x00, 0x00,
  0x00, 0x00, 0x00, 0x09, 0xd0, 0x00, 0x00, 0x00, 0x02, 0x00, 0x00, 0x00,
  0xff, 0xff, 0xff, 0xff, 0x20, 0x00, 0x00, 0x00, 0x54, 0xdb, 0xff, 0xff,
  0x08, 0x00, 0x00, 0x00, 0x14, 0x00, 0x00, 0x00, 0x01, 0x00, 0x00, 0x00,
  0xfb, 0xff, 0xff, 0xff, 0xff, 0xff, 0xff, 0xff, 0x00, 0x00, 0x00, 0x00,
  0x01, 0x00, 0x00, 0x00, 0xa6, 0xf1, 0x08, 0x3d, 0x96, 0x00, 0x00, 0x00,
  0x73, 0x65, 0x71, 0x75, 0x65, 0x6e, 0x74, 0x69, 0x61, 0x6c, 0x2f, 0x71,
  0x5f, 0x64, 0x65, 0x6e, 0x73, 0x65, 0x2f, 0x4d, 0x61, 0x74, 0x4d, 0x75,
  0x6c, 0x3b, 0x73, 0x65, 0x71, 0x75, 0x65, 0x6e, 0x74, 0x69, 0x61, 0x6c,
  0x2f, 0x71, 0x5f, 0x64, 0x65, 0x6e, 0x73, 0x65, 0x2f, 0x42, 0x69, 0x61,
  0x73, 0x41, 0x64, 0x64, 0x3b, 0x73, 0x65, 0x71, 0x75, 0x65, 0x6e, 0x74,
  0x69, 0x61, 0x6c, 0x2f, 0x62, 0x61, 0x74, 0x63, 0x68, 0x5f, 0x6e, 0x6f,
  0x72, 0x6d, 0x61, 0x6c, 0x69, 0x7a, 0x61, 0x74, 0x69, 0x6f, 0x6e, 0x5f,
  0x32, 0x2f, 0x62, 0x61, 0x74, 0x63, 0x68, 0x6e, 0x6f, 0x72, 0x6d, 0x2f,
  0x6d, 0x75, 0x6c, 0x5f, 0x31, 0x3b, 0x73, 0x65, 0x71, 0x75, 0x65, 0x6e,
  0x74, 0x69, 0x61, 0x6c, 0x2f, 0x62, 0x61, 0x74, 0x63, 0x68, 0x5f, 0x6e,
  0x6f, 0x72, 0x6d, 0x61, 0x6c, 0x69, 0x7a, 0x61, 0x74, 0x69, 0x6f, 0x6e,
  0x5f, 0x32, 0x2f, 0x62, 0x61, 0x74, 0x63, 0x68, 0x6e, 0x6f, 0x72, 0x6d,
  0x2f, 0x61, 0x64, 0x64, 0x5f, 0x31, 0x00, 0x00, 0x02, 0x00, 0x00, 0x00,
  0x01, 0x00, 0x00, 0x00, 0x20, 0x00, 0x00, 0x00, 0x66, 0xdc, 0xff, 0xff,
  0x00, 0x00, 0x00, 0x01, 0x18, 0x00, 0x00, 0x00, 0x20, 0x00, 0x00, 0x00,
  0x3c, 0x00, 0x00, 0x00, 0x44, 0x00, 0x00, 0x00, 0x00, 0x00, 0x00, 0x09,
  0x50, 0x00, 0x00, 0x00, 0x02, 0x00, 0x00, 0x00, 0xff, 0xff, 0xff, 0xff,
  0x40, 0x00, 0x00, 0x00, 0x4c, 0xdc, 0xff, 0xff, 0x08, 0x00, 0x00, 0x00,
  0x10, 0x00, 0x00, 0x00, 0x01, 0x00, 0x00, 0x00, 0x80, 0xff, 0xff, 0xff,
  0xff, 0xff, 0xff, 0xff, 0x01, 0x00, 0x00, 0x00, 0x00, 0x00, 0x80, 0x3b,
  0x1a, 0x00, 0x00, 0x00, 0x73, 0x65, 0x71, 0x75, 0x65, 0x6e, 0x74, 0x69,
  0x61, 0x6c, 0x2f, 0x66, 0x6c, 0x61, 0x74, 0x74, 0x65, 0x6e, 0x2f, 0x52,
  0x65, 0x73, 0x68, 0x61, 0x70, 0x65, 0x00, 0x00, 0x02, 0x00, 0x00, 0x00,
  0x01, 0x00, 0x00, 0x00, 0x40, 0x00, 0x00, 0x00, 0xde, 0xdc, 0xff, 0xff,
  0x00, 0x00, 0x00, 0x01, 0x18, 0x00, 0x00, 0x00, 0x28, 0x00, 0x00, 0x00,
  0x44, 0x00, 0x00, 0x00, 0x43, 0x00, 0x00, 0x00, 0x00, 0x00, 0x00, 0x09,
  0x60, 0x00, 0x00, 0x00, 0x04, 0x00, 0x00, 0x00, 0xff, 0xff, 0xff, 0xff,
  0x04, 0x00, 0x00, 0x00, 0x02, 0x00, 0x00, 0x00, 0x08, 0x00, 0x00, 0x00,
  0xcc, 0xdc, 0xff, 0xff, 0x08, 0x00, 0x00, 0x00, 0x10, 0x00, 0x00, 0x00,
  0x01, 0x00, 0x00, 0x00, 0x80, 0xff, 0xff, 0xff, 0xff, 0xff, 0xff, 0xff,
  0x01, 0x00, 0x00, 0x00, 0x00, 0x00, 0x80, 0x3b, 0x20, 0x00, 0x00, 0x00,
  0x73, 0x65, 0x71, 0x75, 0x65, 0x6e, 0x74, 0x69, 0x61, 0x6c, 0x2f, 0x6d,
  0x61, 0x78, 0x5f, 0x70, 0x6f, 0x6f, 0x6c, 0x69, 0x6e, 0x67, 0x32, 0x64,
  0x2f, 0x4d, 0x61, 0x78, 0x50, 0x6f, 0x6f, 0x6c, 0x00, 0x00, 0x00, 0x00,
  0x04, 0x00, 0x00, 0x00, 0x01, 0x00, 0x00, 0x00, 0x04, 0x00, 0x00, 0x00,
  0x02, 0x00, 0x00, 0x00, 0x08, 0x00, 0x00, 0x00, 0x6e, 0xdd, 0xff, 0xff,
  0x00, 0x00, 0x00, 0x01, 0x18, 0x00, 0x00, 0x00, 0x28, 0x00, 0x00, 0x00,
  0x48, 0x00, 0x00, 0x00, 0x42, 0x00, 0x00, 0x00, 0x00, 0x00, 0x00, 0x09,
  0x60, 0x00, 0x00, 0x00, 0x04, 0x00, 0x00, 0x00, 0xff, 0xff, 0xff, 0xff,
  0x08, 0x00, 0x00, 0x00, 0x04, 0x00, 0x00, 0x00, 0x08, 0x00, 0x00, 0x00,
  0x5c, 0xdd, 0xff, 0xff, 0x08, 0x00, 0x00, 0x00, 0x14, 0x00, 0x00, 0x00,
  0x01, 0x00, 0x00, 0x00, 0x80, 0xff, 0xff, 0xff, 0xff, 0xff, 0xff, 0xff,
  0x00, 0x00, 0x00, 0x00, 0x01, 0x00, 0x00, 0x00, 0x00, 0x00, 0x80, 0x3b,
  0x1f, 0x00, 0x00, 0x00, 0x73, 0x65, 0x71, 0x75, 0x65, 0x6e, 0x74, 0x69,
  0x61, 0x6c, 0x2f, 0x71, 0x5f, 0x61, 0x63, 0x74, 0x69, 0x76, 0x61, 0x74,
  0x69, 0x6f, 0x6e, 0x5f, 0x31, 0x2f, 0x61, 0x64, 0x64, 0x5f, 0x33, 0x00,
  0x04, 0x00, 0x00, 0x00, 0x01, 0x00, 0x00, 0x00, 0x08, 0x00, 0x00, 0x00,
  0x04, 0x00, 0x00, 0x00, 0x08, 0x00, 0x00, 0x00, 0xfe, 0xdd, 0xff, 0xff,
  0x00, 0x00, 0x00, 0x01, 0x18, 0x00, 0x00, 0x00, 0x28, 0x00, 0x00, 0x00,
  0x48, 0x00, 0x00, 0x00, 0x41, 0x00, 0x00, 0x00, 0x00, 0x00, 0x00, 0x09,
  0x80, 0x00, 0x00, 0x00, 0x04, 0x00, 0x00, 0x00, 0xff, 0xff, 0xff, 0xff,
  0x08, 0x00, 0x00, 0x00, 0x04, 0x00, 0x00, 0x00, 0x08, 0x00, 0x00, 0x00,
  0xec, 0xdd, 0xff, 0xff, 0x08, 0x00, 0x00, 0x00, 0x14, 0x00, 0x00, 0x00,
  0x01, 0x00, 0x00, 0x00, 0x80, 0xff, 0xff, 0xff, 0xff, 0xff, 0xff, 0xff,
  0x00, 0x00, 0x00, 0x00, 0x01, 0x00, 0x00, 0x00, 0x3a, 0x40, 0x80, 0x3b,
  0x3f, 0x00, 0x00, 0x00, 0x73, 0x65, 0x71, 0x75, 0x65, 0x6e, 0x74, 0x69,
  0x61, 0x6c, 0x2f, 0x71, 0x5f, 0x61, 0x63, 0x74, 0x69, 0x76, 0x61, 0x74,
  0x69, 0x6f, 0x6e, 0x5f, 0x31, 0x2f, 0x61, 0x64, 0x64, 0x5f, 0x32, 0x3b,
  0x73, 0x65, 0x71, 0x75, 0x65, 0x6e, 0x74, 0x69, 0x61, 0x6c, 0x2f, 0x71,
  0x5f, 0x61, 0x63, 0x74, 0x69, 0x76, 0x61, 0x74, 0x69, 0x6f, 0x6e, 0x5f,
  0x31, 0x2f, 0x4e, 0x65, 0x67, 0x5f, 0x31, 0x00, 0x04, 0x00, 0x00, 0x00,
  0x01, 0x00, 0x00, 0x00, 0x08, 0x00, 0x00, 0x00, 0x04, 0x00, 0x00, 0x00,
  0x08, 0x00, 0x00, 0x00, 0xae, 0xde, 0xff, 0xff, 0x00, 0x00, 0x00, 0x01,
  0x18, 0x00, 0x00, 0x00, 0x28, 0x00, 0x00, 0x00, 0x44, 0x00, 0x00, 0x00,
  0x40, 0x00, 0x00, 0x00, 0x00, 0x00, 0x00, 0x09, 0x60, 0x00, 0x00, 0x00,
  0x04, 0x00, 0x00, 0x00, 0xff, 0xff, 0xff, 0xff, 0x08, 0x00, 0x00, 0x00,
  0x04, 0x00, 0x00, 0x00, 0x08, 0x00, 0x00, 0x00, 0x9c, 0xde, 0xff, 0xff,
  0x08, 0x00, 0x00, 0x00, 0x10, 0x00, 0x00, 0x00, 0x01, 0x00, 0x00, 0x00,
  0x80, 0xff, 0xff, 0xff, 0xff, 0xff, 0xff, 0xff, 0x01, 0x00, 0x00, 0x00,
  0x00, 0x00, 0x80, 0x3b, 0x22, 0x00, 0x00, 0x00, 0x73, 0x65, 0x71, 0x75,
  0x65, 0x6e, 0x74, 0x69, 0x61, 0x6c, 0x2f, 0x71, 0x5f, 0x61, 0x63, 0x74,
  0x69, 0x76, 0x61, 0x74, 0x69, 0x6f, 0x6e, 0x5f, 0x31, 0x2f, 0x53, 0x65,
  0x6c, 0x65, 0x63, 0x74, 0x56, 0x32, 0x00, 0x00, 0x04, 0x00, 0x00, 0x00,
  0x01, 0x00, 0x00, 0x00, 0x08, 0x00, 0x00, 0x00, 0x04, 0x00, 0x00, 0x00,
  0x08, 0x00, 0x00, 0x00, 0x3e, 0xdf, 0xff, 0xff, 0x00, 0x00, 0x00, 0x01,
  0x18, 0x00, 0x00, 0x00, 0x28, 0x00, 0x00, 0x00, 0x48, 0x00, 0x00, 0x00,
  0x3f, 0x00, 0x00, 0x00, 0x00, 0x00, 0x00, 0x09, 0x60, 0x00, 0x00, 0x00,
  0x04, 0x00, 0x00, 0x00, 0xff, 0xff, 0xff, 0xff, 0x08, 0x00, 0x00, 0x00,
  0x04, 0x00, 0x00, 0x00, 0x08, 0x00, 0x00, 0x00, 0x2c, 0xdf, 0xff, 0xff,
  0x08, 0x00, 0x00, 0x00, 0x14, 0x00, 0x00, 0x00, 0x01, 0x00, 0x00, 0x00,
  0x80, 0xff, 0xff, 0xff, 0xff, 0xff, 0xff, 0xff, 0x00, 0x00, 0x00, 0x00,
  0x01, 0x00, 0x00, 0x00, 0x00, 0x00, 0x80, 0x3b, 0x1d, 0x00, 0x00, 0x00,
  0x73, 0x65, 0x71, 0x75, 0x65, 0x6e, 0x74, 0x69, 0x61, 0x6c, 0x2f, 0x71,
  0x5f, 0x61, 0x63, 0x74, 0x69, 0x76, 0x61, 0x74, 0x69, 0x6f, 0x6e, 0x5f,
  0x31, 0x2f, 0x6d, 0x75, 0x6c, 0x00, 0x00, 0x00, 0x04, 0x00, 0x00, 0x00,
  0x01, 0x00, 0x00, 0x00, 0x08, 0x00, 0x00, 0x00, 0x04, 0x00, 0x00, 0x00,
  0x08, 0x00, 0x00, 0x00, 0xce, 0xdf, 0xff, 0xff, 0x00, 0x00, 0x00, 0x01,
  0x18, 0x00, 0x00, 0x00, 0x28, 0x00, 0x00, 0x00, 0x48, 0x00, 0x00, 0x00,
  0x3e, 0x00, 0x00, 0x00, 0x00, 0x00, 0x00, 0x09, 0x68, 0x00, 0x00, 0x00,
  0x04, 0x00, 0x00, 0x00, 0xff, 0xff, 0xff, 0xff, 0x08, 0x00, 0x00, 0x00,
  0x04, 0x00, 0x00, 0x00, 0x08, 0x00, 0x00, 0x00, 0xbc, 0xdf, 0xff, 0xff,
  0x08, 0x00, 0x00, 0x00, 0x14, 0x00, 0x00, 0x00, 0x01, 0x00, 0x00, 0x00,
  0x80, 0xff, 0xff, 0xff, 0xff, 0xff, 0xff, 0xff, 0x00, 0x00, 0x00, 0x00,
  0x01, 0x00, 0x00, 0x00, 0x81, 0x80, 0x80, 0x3b, 0x24, 0x00, 0x00, 0x00,
  0x73, 0x65, 0x71, 0x75, 0x65, 0x6e, 0x74, 0x69, 0x61, 0x6c, 0x2f, 0x71,
  0x5f, 0x61, 0x63, 0x74, 0x69, 0x76, 0x61, 0x74, 0x69, 0x6f, 0x6e, 0x5f,
  0x31, 0x2f, 0x6f, 0x6e, 0x65, 0x73, 0x5f, 0x6c, 0x69, 0x6b, 0x65, 0x31,
  0x00, 0x00, 0x00, 0x00, 0x04, 0x00, 0x00, 0x00, 0x01, 0x00, 0x00, 0x00,
  0x08, 0x00, 0x00, 0x00, 0x04, 0x00, 0x00, 0x00, 0x08, 0x00, 0x00, 0x00,
  0xda, 0xe0, 0xff, 0xff, 0x00, 0x00, 0x00, 0x01, 0x14, 0x00, 0x00, 0x00,
  0x14, 0x00, 0x00, 0x00, 0x3d, 0x00, 0x00, 0x00, 0x00, 0x00, 0x00, 0x04,
  0x30, 0x00, 0x00, 0x00, 0xc4, 0xe0, 0xff, 0xff, 0x23, 0x00, 0x00, 0x00,
  0x73, 0x65, 0x71, 0x75, 0x65, 0x6e, 0x74, 0x69, 0x61, 0x6c, 0x2f, 0x71,
  0x5f, 0x61, 0x63, 0x74, 0x69, 0x76, 0x61, 0x74, 0x69, 0x6f, 0x6e, 0x5f,
  0x31, 0x2f, 0x6f, 0x6e, 0x65, 0x73, 0x5f, 0x6c, 0x69, 0x6b, 0x65, 0x00,
  0x01, 0x00, 0x00, 0x00, 0x04, 0x00, 0x00, 0x00, 0xb6, 0xe0, 0xff, 0xff,
  0x00, 0x00, 0x00, 0x01, 0x18, 0x00, 0x00, 0x00, 0x28, 0x00, 0x00, 0x00,
  0x48, 0x00, 0x00, 0x00, 0x3c, 0x00, 0x00, 0x00, 0x00, 0x00, 0x00, 0x09,
  0x68, 0x00, 0x00, 0x00, 0x04, 0x00, 0x00, 0x00, 0xff, 0xff, 0xff, 0xff,
  0x08, 0x00, 0x00, 0x00, 0x04, 0x00, 0x00, 0x00, 0x08, 0x00, 0x00, 0x00,
  0xa4, 0xe0, 0xff, 0xff, 0x08, 0x00, 0x00, 0x00, 0x14, 0x00, 0x00, 0x00,
  0x01, 0x00, 0x00, 0x00, 0x80, 0xff, 0xff, 0xff, 0xff, 0xff, 0xff, 0xff,
  0x00, 0x00, 0x00, 0x00, 0x01, 0x00, 0x00, 0x00, 0x3a, 0x40, 0x80, 0x3b,
  0x27, 0x00, 0x00, 0x00, 0x73, 0x65, 0x71, 0x75, 0x65, 0x6e, 0x74, 0x69,
  0x61, 0x6c, 0x2f, 0x71, 0x5f, 0x61, 0x63, 0x74, 0x69, 0x76, 0x61, 0x74,
  0x69, 0x6f, 0x6e, 0x5f, 0x31, 0x2f, 0x63, 0x6c, 0x69, 0x70, 0x5f, 0x62,
  0x79, 0x5f, 0x76, 0x61, 0x6c, 0x75, 0x65, 0x00, 0x04, 0x00, 0x00, 0x00,
  0x01, 0x00, 0x00, 0x00, 0x08, 0x00, 0x00, 0x00, 0x04, 0x00, 0x00, 0x00,
  0x08, 0x00, 0x00, 0x00, 0x4e, 0xe1, 0xff, 0xff, 0x00, 0x00, 0x00, 0x01,
  0x18, 0x00, 0x00, 0x00, 0x28, 0x00, 0x00, 0x00, 0x48, 0x00, 0x00, 0x00,
  0x3b, 0x00, 0x00, 0x00, 0x00, 0x00, 0x00, 0x09, 0x70, 0x00, 0x00, 0x00,
  0x04, 0x00, 0x00, 0x00, 0xff, 0xff, 0xff, 0xff, 0x08, 0x00, 0x00, 0x00,
  0x04, 0x00, 0x00, 0x00, 0x08, 0x00, 0x00, 0x00, 0x3c, 0xe1, 0xff, 0xff,
  0x08, 0x00, 0x00, 0x00, 0x14, 0x00, 0x00, 0x00, 0x01, 0x00, 0x00, 0x00,
  0x49, 0x00, 0x00, 0x00, 0x00, 0x00, 0x00, 0x00, 0x00, 0x00, 0x00, 0x00,
  0x01, 0x00, 0x00, 0x00, 0x97, 0x96, 0x96, 0x3c, 0x2f, 0x00, 0x00, 0x00,
  0x73, 0x65, 0x71, 0x75, 0x65, 0x6e, 0x74, 0x69, 0x61, 0x6c, 0x2f, 0x71,
  0x5f, 0x61, 0x63, 0x74, 0x69, 0x76, 0x61, 0x74, 0x69, 0x6f, 0x6e, 0x5f,
  0x31, 0x2f, 0x63, 0x6c, 0x69, 0x70, 0x5f, 0x62, 0x79, 0x5f, 0x76, 0x61,
  0x6c, 0x75, 0x65, 0x2f, 0x4d, 0x69, 0x6e, 0x69, 0x6d, 0x75, 0x6d, 0x00,
  0x04, 0x00, 0x00, 0x00, 0x01, 0x00, 0x00, 0x00, 0x08, 0x00, 0x00, 0x00,
  0x04, 0x00, 0x00, 0x00, 0x08, 0x00, 0x00, 0x00, 0xee, 0xe1, 0xff, 0xff,
  0x00, 0x00, 0x00, 0x01, 0x18, 0x00, 0x00, 0x00, 0x28, 0x00, 0x00, 0x00,
  0x44, 0x00, 0x00, 0x00, 0x3a, 0x00, 0x00, 0x00, 0x00, 0x00, 0x00, 0x09,
  0x80, 0x00, 0x00, 0x00, 0x04, 0x00, 0x00, 0x00, 0xff, 0xff, 0xff, 0xff,
  0x08, 0x00, 0x00, 0x00, 0x04, 0x00, 0x00, 0x00, 0x08, 0x00, 0x00, 0x00,
  0xdc, 0xe1, 0xff, 0xff, 0x08, 0x00, 0x00, 0x00, 0x10, 0x00, 0x00, 0x00,
  0x01, 0x00, 0x00, 0x00, 0x49, 0x00, 0x00, 0x00, 0x00, 0x00, 0x00, 0x00,
  0x01, 0x00, 0x00, 0x00, 0x97, 0x96, 0x96, 0x3c, 0x40, 0x00, 0x00, 0x00,
  0x73, 0x65, 0x71, 0x75, 0x65, 0x6e, 0x74, 0x69, 0x61, 0x6c, 0x2f, 0x71,
  0x5f, 0x61, 0x63, 0x74, 0x69, 0x76, 0x61, 0x74, 0x69, 0x6f, 0x6e, 0x5f,
  0x31, 0x2f, 0x74, 0x72, 0x75, 0x65, 0x64, 0x69, 0x76, 0x5f, 0x31, 0x3b,
  0x73, 0x65, 0x71, 0x75, 0x65, 0x6e, 0x74, 0x69, 0x61, 0x6c, 0x2f, 0x71,
  0x5f, 0x61, 0x63, 0x74, 0x69, 0x76, 0x61, 0x74, 0x69, 0x6f, 0x6e, 0x2f,
  0x43, 0x61, 0x73, 0x74, 0x00, 0x00, 0x00, 0x00, 0x04, 0x00, 0x00, 0x00,
  0x01, 0x00, 0x00, 0x00, 0x08, 0x00, 0x00, 0x00, 0x04, 0x00, 0x00, 0x00,
  0x08, 0x00, 0x00, 0x00, 0x9e, 0xe2, 0xff, 0xff, 0x00, 0x00, 0x00, 0x01,
  0x18, 0x00, 0x00, 0x00, 0x28, 0x00, 0x00, 0x00, 0x48, 0x00, 0x00, 0x00,
  0x39, 0x00, 0x00, 0x00, 0x00, 0x00, 0x00, 0x09, 0x60, 0x00, 0x00, 0x00,
  0x04, 0x00, 0x00, 0x00, 0xff, 0xff, 0xff, 0xff, 0x08, 0x00, 0x00, 0x00,
  0x04, 0x00, 0x00, 0x00, 0x08, 0x00, 0x00, 0x00, 0x8c, 0xe2, 0xff, 0xff,
  0x08, 0x00, 0x00, 0x00, 0x14, 0x00, 0x00, 0x00, 0x01, 0x00, 0x00, 0x00,
  0xfe, 0xff, 0xff, 0xff, 0xff, 0xff, 0xff, 0xff, 0x00, 0x00, 0x00, 0x00,
  0x01, 0x00, 0x00, 0x00, 0x91, 0x90, 0xf0, 0x40, 0x1f, 0x00, 0x00, 0x00,
  0x73, 0x65, 0x71, 0x75, 0x65, 0x6e, 0x74, 0x69, 0x61, 0x6c, 0x2f, 0x71,
  0x5f, 0x61, 0x63, 0x74, 0x69, 0x76, 0x61, 0x74, 0x69, 0x6f, 0x6e, 0x5f,
  0x31, 0x2f, 0x61, 0x64, 0x64, 0x5f, 0x31, 0x00, 0x04, 0x00, 0x00, 0x00,
  0x01, 0x00, 0x00, 0x00, 0x08, 0x00, 0x00, 0x00, 0x04, 0x00, 0x00, 0x00,
  0x08, 0x00, 0x00, 0x00, 0x2e, 0xe3, 0xff, 0xff, 0x00, 0x00, 0x00, 0x01,
  0x18, 0x00, 0x00, 0x00, 0x28, 0x00, 0x00, 0x00, 0x44, 0x00, 0x00, 0x00,
  0x38, 0x00, 0x00, 0x00, 0x00, 0x00, 0x00, 0x09, 0x78, 0x00, 0x00, 0x00,
  0x04, 0x00, 0x00, 0x00, 0xff, 0xff, 0xff, 0xff, 0x08, 0x00, 0x00, 0x00,
  0x04, 0x00, 0x00, 0x00, 0x08, 0x00, 0x00, 0x00, 0x1c, 0xe3, 0xff, 0xff,
  0x08, 0x00, 0x00, 0x00, 0x10, 0x00, 0x00, 0x00, 0x01, 0x00, 0x00, 0x00,
  0xfe, 0xff, 0xff, 0xff, 0xff, 0xff, 0xff, 0xff, 0x01, 0x00, 0x00, 0x00,
  0x91, 0x90, 0xf0, 0x40, 0x3b, 0x00, 0x00, 0x00, 0x73, 0x65, 0x71, 0x75,
  0x65, 0x6e, 0x74, 0x69, 0x61, 0x6c, 0x2f, 0x71, 0x5f, 0x61, 0x63, 0x74,
  0x69, 0x76, 0x61, 0x74, 0x69, 0x6f, 0x6e, 0x5f, 0x31, 0x2f, 0x61, 0x64,
  0x64, 0x3b, 0x73, 0x65, 0x71, 0x75, 0x65, 0x6e, 0x74, 0x69, 0x61, 0x6c,
  0x2f, 0x71, 0x5f, 0x61, 0x63, 0x74, 0x69, 0x76, 0x61, 0x74, 0x69, 0x6f,
  0x6e, 0x5f, 0x31, 0x2f, 0x4e, 0x65, 0x67, 0x00, 0x04, 0x00, 0x00, 0x00,
  0x01, 0x00, 0x00, 0x00, 0x08, 0x00, 0x00, 0x00, 0x04, 0x00, 0x00, 0x00,
  0x08, 0x00, 0x00, 0x00, 0xd6, 0xe3, 0xff, 0xff, 0x00, 0x00, 0x00, 0x01,
  0x18, 0x00, 0x00, 0x00, 0x28, 0x00, 0x00, 0x00, 0x48, 0x00, 0x00, 0x00,
  0x37, 0x00, 0x00, 0x00, 0x00, 0x00, 0x00, 0x09, 0x50, 0x00, 0x00, 0x00,
  0x04, 0x00, 0x00, 0x00, 0xff, 0xff, 0xff, 0xff, 0x08, 0x00, 0x00, 0x00,
  0x04, 0x00, 0x00, 0x00, 0x08, 0x00, 0x00, 0x00, 0xc4, 0xe3, 0xff, 0xff,
  0x08, 0x00, 0x00, 0x00, 0x14, 0x00, 0x00, 0x00, 0x01, 0x00, 0x00, 0x00,
  0xfe, 0xff, 0xff, 0xff, 0xff, 0xff, 0xff, 0xff, 0x00, 0x00, 0x00, 0x00,
  0x01, 0x00, 0x00, 0x00, 0x91, 0x90, 0xf0, 0x40, 0x0d, 0x00, 0x00, 0x00,
  0x74, 0x66, 0x6c, 0x2e, 0x71, 0x75, 0x61, 0x6e, 0x74, 0x69, 0x7a, 0x65,
  0x32, 0x00, 0x00, 0x00, 0x04, 0x00, 0x00, 0x00, 0x01, 0x00, 0x00, 0x00,
  0x08, 0x00, 0x00, 0x00, 0x04, 0x00, 0x00, 0x00, 0x08, 0x00, 0x00, 0x00,
  0x5a, 0xf5, 0xff, 0xff, 0x00, 0x00, 0x00, 0x01, 0x14, 0x00, 0x00, 0x00,
  0x24, 0x00, 0x00, 0x00, 0x24, 0x00, 0x00, 0x00, 0x36, 0x00, 0x00, 0x00,
  0x40, 0x00, 0x00, 0x00, 0x04, 0x00, 0x00, 0x00, 0xff, 0xff, 0xff, 0xff,
  0x08, 0x00, 0x00, 0x00, 0x04, 0x00, 0x00, 0x00, 0x08, 0x00, 0x00, 0x00,
  0xc8, 0xe4, 0xff, 0xff, 0x1f, 0x00, 0x00, 0x00, 0x73, 0x65, 0x71, 0x75,
  0x65, 0x6e, 0x74, 0x69, 0x61, 0x6c, 0x2f, 0x71, 0x5f, 0x61, 0x63, 0x74,
  0x69, 0x76, 0x61, 0x74, 0x69, 0x6f, 0x6e, 0x5f, 0x31, 0x2f, 0x52, 0x6f,
  0x75, 0x6e, 0x64, 0x00, 0x04, 0x00, 0x00, 0x00, 0x01, 0x00, 0x00, 0x00,
  0x08, 0x00, 0x00, 0x00, 0x04, 0x00, 0x00, 0x00, 0x08, 0x00, 0x00, 0x00,
  0xc6, 0xf5, 0xff, 0xff, 0x00, 0x00, 0x00, 0x01, 0x14, 0x00, 0x00, 0x00,
  0x24, 0x00, 0x00, 0x00, 0x24, 0x00, 0x00, 0x00, 0x35, 0x00, 0x00, 0x00,
  0x30, 0x00, 0x00, 0x00, 0x04, 0x00, 0x00, 0x00, 0xff, 0xff, 0xff, 0xff,
  0x08, 0x00, 0x00, 0x00, 0x04, 0x00, 0x00, 0x00, 0x08, 0x00, 0x00, 0x00,
  0x34, 0xe5, 0xff, 0xff, 0x0f, 0x00, 0x00, 0x00, 0x74, 0x66, 0x6c, 0x2e,
  0x64, 0x65, 0x71, 0x75, 0x61, 0x6e, 0x74, 0x69, 0x7a, 0x65, 0x31, 0x00,
  0x04, 0x00, 0x00, 0x00, 0x01, 0x00, 0x00, 0x00, 0x08, 0x00, 0x00, 0x00,
  0x04, 0x00, 0x00, 0x00, 0x08, 0x00, 0x00, 0x00, 0x1e, 0xe5, 0xff, 0xff,
  0x00, 0x00, 0x00, 0x01, 0x18, 0x00, 0x00, 0x00, 0x28, 0x00, 0x00, 0x00,
  0x48, 0x00, 0x00, 0x00, 0x34, 0x00, 0x00, 0x00, 0x00, 0x00, 0x00, 0x09,
  0x60, 0x00, 0x00, 0x00, 0x04, 0x00, 0x00, 0x00, 0xff, 0xff, 0xff, 0xff,
  0x08, 0x00, 0x00, 0x00, 0x04, 0x00, 0x00, 0x00, 0x08, 0x00, 0x00, 0x00,
  0x0c, 0xe5, 0xff, 0xff, 0x08, 0x00, 0x00, 0x00, 0x14, 0x00, 0x00, 0x00,
  0x01, 0x00, 0x00, 0x00, 0xfe, 0xff, 0xff, 0xff, 0xff, 0xff, 0xff, 0xff,
  0x00, 0x00, 0x00, 0x00, 0x01, 0x00, 0x00, 0x00, 0xaa, 0x85, 0xf0, 0x40,
  0x1f, 0x00, 0x00, 0x00, 0x73, 0x65, 0x71, 0x75, 0x65, 0x6e, 0x74, 0x69,
  0x61, 0x6c, 0x2f, 0x71, 0x5f, 0x61, 0x63, 0x74, 0x69, 0x76, 0x61, 0x74,
  0x69, 0x6f, 0x6e, 0x5f, 0x31, 0x2f, 0x6d, 0x75, 0x6c, 0x5f, 0x31, 0x00,
  0x04, 0x00, 0x00, 0x00, 0x01, 0x00, 0x00, 0x00, 0x08, 0x00, 0x00, 0x00,
  0x04, 0x00, 0x00, 0x00, 0x08, 0x00, 0x00, 0x00, 0xae, 0xe5, 0xff, 0xff,
  0x00, 0x00, 0x00, 0x01, 0x18, 0x00, 0x00, 0x00, 0x28, 0x00, 0x00, 0x00,
  0x44, 0x00, 0x00, 0x00, 0x33, 0x00, 0x00, 0x00, 0x00, 0x00, 0x00, 0x09,
  0x5c, 0x00, 0x00, 0x00, 0x04, 0x00, 0x00, 0x00, 0xff, 0xff, 0xff, 0xff,
  0x08, 0x00, 0x00, 0x00, 0x04, 0x00, 0x00, 0x00, 0x08, 0x00, 0x00, 0x00,
  0x9c, 0xe5, 0xff, 0xff, 0x08, 0x00, 0x00, 0x00, 0x10, 0x00, 0x00, 0x00,
  0x01, 0x00, 0x00, 0x00, 0x80, 0xff, 0xff, 0xff, 0xff, 0xff, 0xff, 0xff,
  0x01, 0x00, 0x00, 0x00, 0x00, 0x00, 0x80, 0x3b, 0x1e, 0x00, 0x00, 0x00,
  0x73, 0x65, 0x71, 0x75, 0x65, 0x6e, 0x74, 0x69, 0x61, 0x6c, 0x2f, 0x71,
  0x5f, 0x61, 0x63, 0x74, 0x69, 0x76, 0x61, 0x74, 0x69, 0x6f, 0x6e, 0x5f,
  0x31, 0x2f, 0x52, 0x65, 0x6c, 0x75, 0x00, 0x00, 0x04, 0x00, 0x00, 0x00,
  0x01, 0x00, 0x00, 0x00, 0x08, 0x00, 0x00, 0x00, 0x04, 0x00, 0x00, 0x00,
  0x08, 0x00, 0x00, 0x00, 0x3a, 0xe6, 0xff, 0xff, 0x00, 0x00, 0x00, 0x01,
  0x18, 0x00, 0x00, 0x00, 0x28, 0x00, 0x00, 0x00, 0x28, 0x00, 0x00, 0x00,
  0x32, 0x00, 0x00, 0x00, 0x00, 0x00, 0x00, 0x06, 0x44, 0x00, 0x00, 0x00,
  0x04, 0x00, 0x00, 0x00, 0xff, 0xff, 0xff, 0xff, 0x08, 0x00, 0x00, 0x00,
  0x04, 0x00, 0x00, 0x00, 0x08, 0x00, 0x00, 0x00, 0xb0, 0xe6, 0xff, 0xff,
  0x23, 0x00, 0x00, 0x00, 0x73, 0x65, 0x71, 0x75, 0x65, 0x6e, 0x74, 0x69,
  0x61, 0x6c, 0x2f, 0x71, 0x5f, 0x61, 0x63, 0x74, 0x69, 0x76, 0x61, 0x74,
  0x69, 0x6f, 0x6e, 0x5f, 0x31, 0x2f, 0x4c, 0x65, 0x73, 0x73, 0x45, 0x71,
  0x75, 0x61, 0x6c, 0x00, 0x04, 0x00, 0x00, 0x00, 0x01, 0x00, 0x00, 0x00,
  0x08, 0x00, 0x00, 0x00, 0x04, 0x00, 0x00, 0x00, 0x08, 0x00, 0x00, 0x00,
  0xae, 0xe6, 0xff, 0xff, 0x00, 0x00, 0x00, 0x01, 0x18, 0x00, 0x00, 0x00,
  0x28, 0x00, 0x00, 0x00, 0x48, 0x00, 0x00, 0x00, 0x31, 0x00, 0x00, 0x00,
  0x00, 0x00, 0x00, 0x09, 0xe0, 0x00, 0x00, 0x00, 0x04, 0x00, 0x00, 0x00,
  0xff, 0xff, 0xff, 0xff, 0x08, 0x00, 0x00, 0x00, 0x04, 0x00, 0x00, 0x00,
  0x08, 0x00, 0x00, 0x00, 0x9c, 0xe6, 0xff, 0xff, 0x08, 0x00, 0x00, 0x00,
  0x14, 0x00, 0x00, 0x00, 0x01, 0x00, 0x00, 0x00, 0xfe, 0xff, 0xff, 0xff,
  0xff, 0xff, 0xff, 0xff, 0x00, 0x00, 0x00, 0x00, 0x01, 0x00, 0x00, 0x00,
  0xaa, 0x85, 0xf0, 0x3c, 0x9e, 0x00, 0x00, 0x00, 0x73, 0x65, 0x71, 0x75,
  0x65, 0x6e, 0x74, 0x69, 0x61, 0x6c, 0x2f, 0x62, 0x61, 0x74, 0x63, 0x68,
  0x5f, 0x6e, 0x6f, 0x72, 0x6d, 0x61, 0x6c, 0x69, 0x7a, 0x61, 0x74, 0x69,
  0x6f, 0x6e, 0x5f, 0x31, 0x2f, 0x46, 0x75, 0x73, 0x65, 0x64, 0x42, 0x61,
  0x74, 0x63, 0x68, 0x4e, 0x6f, 0x72, 0x6d, 0x56, 0x33, 0x3b, 0x73, 0x65,
  0x71, 0x75, 0x65, 0x6e, 0x74, 0x69, 0x61, 0x6c, 0x2f, 0x71, 0x5f, 0x63,
  0x6f, 0x6e, 0x76, 0x32, 0x64, 0x5f, 0x31, 0x2f, 0x42, 0x69, 0x61, 0x73,
  0x41, 0x64, 0x64, 0x2f, 0x52, 0x65, 0x61, 0x64, 0x56, 0x61, 0x72, 0x69,
  0x61, 0x62, 0x6c, 0x65, 0x4f, 0x70, 0x3b, 0x73, 0x65, 0x71, 0x75, 0x65,
  0x6e, 0x74, 0x69, 0x61, 0x6c, 0x2f, 0x71, 0x5f, 0x63, 0x6f, 0x6e, 0x76,
  0x32, 0x64, 0x5f, 0x31, 0x2f, 0x42, 0x69, 0x61, 0x73, 0x41, 0x64, 0x64,
  0x3b, 0x73, 0x65, 0x71, 0x75, 0x65, 0x6e, 0x74, 0x69, 0x61, 0x6c, 0x2f,
  0x71, 0x5f, 0x63, 0x6f, 0x6e, 0x76, 0x32, 0x64, 0x5f, 0x31, 0x2f, 0x63,
  0x6f, 0x6e, 0x76, 0x6f, 0x6c, 0x75, 0x74, 0x69, 0x6f, 0x6e, 0x00, 0x00,
  0x04, 0x00, 0x00, 0x00, 0x01, 0x00, 0x00, 0x00, 0x08, 0x00, 0x00, 0x00,
  0x04, 0x00, 0x00, 0x00, 0x08, 0x00, 0x00, 0x00, 0xbe, 0xe7, 0xff, 0xff,
  0x00, 0x00, 0x00, 0x01, 0x18, 0x00, 0x00, 0x00, 0x28, 0x00, 0x00, 0x00,
  0x48, 0x00, 0x00, 0x00, 0x30, 0x00, 0x00, 0x00, 0x00, 0x00, 0x00, 0x09,
  0x60, 0x00, 0x00, 0x00, 0x04, 0x00, 0x00, 0x00, 0xff, 0xff, 0xff, 0xff,
  0x08, 0x00, 0x00, 0x00, 0x04, 0x00, 0x00, 0x00, 0x08, 0x00, 0x00, 0x00,
  0xac, 0xe7, 0xff, 0xff, 0x08, 0x00, 0x00, 0x00, 0x14, 0x00, 0x00, 0x00,
  0x01, 0x00, 0x00, 0x00, 0x80, 0xff, 0xff, 0xff, 0xff, 0xff, 0xff, 0xff,
  0x00, 0x00, 0x00, 0x00, 0x01, 0x00, 0x00, 0x00, 0x00, 0x00, 0x80, 0x3b,
  0x1d, 0x00, 0x00, 0x00, 0x73, 0x65, 0x71, 0x75, 0x65, 0x6e, 0x74, 0x69,
  0x61, 0x6c, 0x2f, 0x71, 0x5f, 0x61, 0x63, 0x74, 0x69, 0x76, 0x61, 0x74,
  0x69, 0x6f, 0x6e, 0x2f, 0x61, 0x64, 0x64, 0x5f, 0x33, 0x00, 0x00, 0x00,
  0x04, 0x00, 0x00, 0x00, 0x01, 0x00, 0x00, 0x00, 0x08, 0x00, 0x00, 0x00,
  0x04, 0x00, 0x00, 0x00, 0x08, 0x00, 0x00, 0x00, 0x4e, 0xe8, 0xff, 0xff,
  0x00, 0x00, 0x00, 0x01, 0x18, 0x00, 0x00, 0x00, 0x28, 0x00, 0x00, 0x00,
  0x44, 0x00, 0x00, 0x00, 0x2f, 0x00, 0x00, 0x00, 0x00, 0x00, 0x00, 0x09,
  0x78, 0x00, 0x00, 0x00, 0x04, 0x00, 0x00, 0x00, 0xff, 0xff, 0xff, 0xff,
  0x08, 0x00, 0x00, 0x00, 0x04, 0x00, 0x00, 0x00, 0x08, 0x00, 0x00, 0x00,
  0x3c, 0xe8, 0xff, 0xff, 0x08, 0x00, 0x00, 0x00, 0x10, 0x00, 0x00, 0x00,
  0x01, 0x00, 0x00, 0x00, 0x80, 0xff, 0xff, 0xff, 0xff, 0xff, 0xff, 0xff,
  0x01, 0x00, 0x00, 0x00, 0x3d, 0x40, 0x80, 0x3b, 0x3b, 0x00, 0x00, 0x00,
  0x73, 0x65, 0x71, 0x75, 0x65, 0x6e, 0x74, 0x69, 0x61, 0x6c, 0x2f, 0x71,
  0x5f, 0x61, 0x63, 0x74, 0x69, 0x76, 0x61, 0x74, 0x69, 0x6f, 0x6e, 0x2f,
  0x61, 0x64, 0x64, 0x5f, 0x32, 0x3b, 0x73, 0x65, 0x71, 0x75, 0x65, 0x6e,
  0x74, 0x69, 0x61, 0x6c, 0x2f, 0x71, 0x5f, 0x61, 0x63, 0x74, 0x69, 0x76,
  0x61, 0x74, 0x69, 0x6f, 0x6e, 0x2f, 0x4e, 0x65, 0x67, 0x5f, 0x31, 0x00,
  0x04, 0x00, 0x00, 0x00, 0x01, 0x00, 0x00, 0x00, 0x08, 0x00, 0x00, 0x00,
  0x04, 0x00, 0x00, 0x00, 0x08, 0x00, 0x00, 0x00, 0xf6, 0xe8, 0xff, 0xff,
  0x00, 0x00, 0x00, 0x01, 0x18, 0x00, 0x00, 0x00, 0x28, 0x00, 0x00, 0x00,
  0x44, 0x00, 0x00, 0x00, 0x2e, 0x00, 0x00, 0x00, 0x00, 0x00, 0x00, 0x09,
  0x60, 0x00, 0x00, 0x00, 0x04, 0x00, 0x00, 0x00, 0xff, 0xff, 0xff, 0xff,
  0x08, 0x00, 0x00, 0x00, 0x04, 0x00, 0x00, 0x00, 0x08, 0x00, 0x00, 0x00,
  0xe4, 0xe8, 0xff, 0xff, 0x08, 0x00, 0x00, 0x00, 0x10, 0x00, 0x00, 0x00,
  0x01, 0x00, 0x00, 0x00, 0x80, 0xff, 0xff, 0xff, 0xff, 0xff, 0xff, 0xff,
  0x01, 0x00, 0x00, 0x00, 0x00, 0x00, 0x80, 0x3b, 0x20, 0x00, 0x00, 0x00,
  0x73, 0x65, 0x71, 0x75, 0x65, 0x6e, 0x74, 0x69, 0x61, 0x6c, 0x2f, 0x71,
  0x5f, 0x61, 0x63, 0x74, 0x69, 0x76, 0x61, 0x74, 0x69, 0x6f, 0x6e, 0x2f,
  0x53, 0x65, 0x6c, 0x65, 0x63, 0x74, 0x56, 0x32, 0x00, 0x00, 0x00, 0x00,
  0x04, 0x00, 0x00, 0x00, 0x01, 0x00, 0x00, 0x00, 0x08, 0x00, 0x00, 0x00,
  0x04, 0x00, 0x00, 0x00, 0x08, 0x00, 0x00, 0x00, 0x86, 0xe9, 0xff, 0xff,
  0x00, 0x00, 0x00, 0x01, 0x18, 0x00, 0x00, 0x00, 0x28, 0x00, 0x00, 0x00,
  0x44, 0x00, 0x00, 0x00, 0x2d, 0x00, 0x00, 0x00, 0x00, 0x00, 0x00, 0x09,
  0x58, 0x00, 0x00, 0x00, 0x04, 0x00, 0x00, 0x00, 0xff, 0xff, 0xff, 0xff,
  0x08, 0x00, 0x00, 0x00, 0x04, 0x00, 0x00, 0x00, 0x08, 0x00, 0x00, 0x00,
  0x74, 0xe9, 0xff, 0xff, 0x08, 0x00, 0x00, 0x00, 0x10, 0x00, 0x00, 0x00,
  0x01, 0x00, 0x00, 0x00, 0x80, 0xff, 0xff, 0xff, 0xff, 0xff, 0xff, 0xff,
  0x01, 0x00, 0x00, 0x00, 0x00, 0x00, 0x80, 0x3b, 0x1b, 0x00, 0x00, 0x00,
  0x73, 0x65, 0x71, 0x75, 0x65, 0x6e, 0x74, 0x69, 0x61, 0x6c, 0x2f, 0x71,
  0x5f, 0x61, 0x63, 0x74, 0x69, 0x76, 0x61, 0x74, 0x69, 0x6f, 0x6e, 0x2f,
  0x6d, 0x75, 0x6c, 0x00, 0x04, 0x00, 0x00, 0x00, 0x01, 0x00, 0x00, 0x00,
  0x08, 0x00, 0x00, 0x00, 0x04, 0x00, 0x00, 0x00, 0x08, 0x00, 0x00, 0x00,
  0x0e, 0xea, 0xff, 0xff, 0x00, 0x00, 0x00, 0x01, 0x18, 0x00, 0x00, 0x00,
  0x28, 0x00, 0x00, 0x00, 0x44, 0x00, 0x00, 0x00, 0x2c, 0x00, 0x00, 0x00,
  0x00, 0x00, 0x00, 0x09, 0x60, 0x00, 0x00, 0x00, 0x04, 0x00, 0x00, 0x00,
  0xff, 0xff, 0xff, 0xff, 0x08, 0x00, 0x00, 0x00, 0x04, 0x00, 0x00, 0x00,
  0x08, 0x00, 0x00, 0x00, 0xfc, 0xe9, 0xff, 0xff, 0x08, 0x00, 0x00, 0x00,
  0x10, 0x00, 0x00, 0x00, 0x01, 0x00, 0x00, 0x00, 0x80, 0xff, 0xff, 0xff,
