#ifndef Q8_DEMO_CNN_H
#define Q8_DEMO_CNN_H


static const unsigned int q8_demo_cnn_len = 8904;
static const unsigned char q8_demo_cnn[] = {
 0x20, 0x00, 0x00, 0x00, 0x54, 0x46, 0x4c, 0x33, 0x00, 0x00, 0x00, 0x00,
  0x14, 0x00, 0x20, 0x00, 0x1c, 0x00, 0x18, 0x00, 0x14, 0x00, 0x10, 0x00,
  0x0c, 0x00, 0x00, 0x00, 0x08, 0x00, 0x04, 0x00, 0x14, 0x00, 0x00, 0x00,
  0x1c, 0x00, 0x00, 0x00, 0x88, 0x00, 0x00, 0x00, 0xe0, 0x00, 0x00, 0x00,
  0xe0, 0x0b, 0x00, 0x00, 0xf0, 0x0b, 0x00, 0x00, 0xd4, 0x21, 0x00, 0x00,
  0x03, 0x00, 0x00, 0x00, 0x01, 0x00, 0x00, 0x00, 0x04, 0x00, 0x00, 0x00,
  0xf6, 0xf1, 0xff, 0xff, 0x0c, 0x00, 0x00, 0x00, 0x1c, 0x00, 0x00, 0x00,
  0x3c, 0x00, 0x00, 0x00, 0x0f, 0x00, 0x00, 0x00, 0x73, 0x65, 0x72, 0x76,
  0x69, 0x6e, 0x67, 0x5f, 0x64, 0x65, 0x66, 0x61, 0x75, 0x6c, 0x74, 0x00,
  0x01, 0x00, 0x00, 0x00, 0x04, 0x00, 0x00, 0x00, 0x94, 0xff, 0xff, 0xff,
  0x1b, 0x00, 0x00, 0x00, 0x04, 0x00, 0x00, 0x00, 0x08, 0x00, 0x00, 0x00,
  0x64, 0x65, 0x6e, 0x73, 0x65, 0x5f, 0x33, 0x37, 0x00, 0x00, 0x00, 0x00,
  0x01, 0x00, 0x00, 0x00, 0x04, 0x00, 0x00, 0x00, 0xfe, 0xf1, 0xff, 0xff,
  0x04, 0x00, 0x00, 0x00, 0x08, 0x00, 0x00, 0x00, 0x69, 0x6e, 0x70, 0x75,
  0x74, 0x5f, 0x31, 0x39, 0x00, 0x00, 0x00, 0x00, 0x02, 0x00, 0x00, 0x00,
  0x34, 0x00, 0x00, 0x00, 0x04, 0x00, 0x00, 0x00, 0xdc, 0xff, 0xff, 0xff,
  0x1e, 0x00, 0x00, 0x00, 0x04, 0x00, 0x00, 0x00, 0x13, 0x00, 0x00, 0x00,
  0x43, 0x4f, 0x4e, 0x56, 0x45, 0x52, 0x53, 0x49, 0x4f, 0x4e, 0x5f, 0x4d,
  0x45, 0x54, 0x41, 0x44, 0x41, 0x54, 0x41, 0x00, 0x08, 0x00, 0x0c, 0x00,
  0x08, 0x00, 0x04, 0x00, 0x08, 0x00, 0x00, 0x00, 0x1d, 0x00, 0x00, 0x00,
  0x04, 0x00, 0x00, 0x00, 0x13, 0x00, 0x00, 0x00, 0x6d, 0x69, 0x6e, 0x5f,
  0x72, 0x75, 0x6e, 0x74, 0x69, 0x6d, 0x65, 0x5f, 0x76, 0x65, 0x72, 0x73,
  0x69, 0x6f, 0x6e, 0x00, 0x1f, 0x00, 0x00, 0x00, 0xfc, 0x0a, 0x00, 0x00,
  0xf4, 0x0a, 0x00, 0x00, 0xe0, 0x0a, 0x00, 0x00, 0xcc, 0x0a, 0x00, 0x00,
  0xb8, 0x0a, 0x00, 0x00, 0xa4, 0x0a, 0x00, 0x00, 0x90, 0x0a, 0x00, 0x00,
  0x78, 0x0a, 0x00, 0x00, 0x4c, 0x0a, 0x00, 0x00, 0x04, 0x0a, 0x00, 0x00,
  0xd4, 0x09, 0x00, 0x00, 0xc4, 0x07, 0x00, 0x00, 0x94, 0x07, 0x00, 0x00,
  0x04, 0x03, 0x00, 0x00, 0xb4, 0x02, 0x00, 0x00, 0xf4, 0x00, 0x00, 0x00,
  0xec, 0x00, 0x00, 0x00, 0xe4, 0x00, 0x00, 0x00, 0xdc, 0x00, 0x00, 0x00,
  0xd4, 0x00, 0x00, 0x00, 0xcc, 0x00, 0x00, 0x00, 0xc4, 0x00, 0x00, 0x00,
  0xbc, 0x00, 0x00, 0x00, 0xb4, 0x00, 0x00, 0x00, 0xac, 0x00, 0x00, 0x00,
  0xa4, 0x00, 0x00, 0x00, 0x9c, 0x00, 0x00, 0x00, 0x94, 0x00, 0x00, 0x00,
  0x8c, 0x00, 0x00, 0x00, 0x6c, 0x00, 0x00, 0x00, 0x04, 0x00, 0x00, 0x00,
  0xf2, 0xf2, 0xff, 0xff, 0x04, 0x00, 0x00, 0x00, 0x58, 0x00, 0x00, 0x00,
  0x0c, 0x00, 0x00, 0x00, 0x08, 0x00, 0x0e, 0x00, 0x08, 0x00, 0x04, 0x00,
  0x08, 0x00, 0x00, 0x00, 0x10, 0x00, 0x00, 0x00, 0x28, 0x00, 0x00, 0x00,
  0x00, 0x00, 0x06, 0x00, 0x08, 0x00, 0x04, 0x00, 0x06, 0x00, 0x00, 0x00,
  0x04, 0x00, 0x00, 0x00, 0x01, 0x00, 0x00, 0x00, 0xeb, 0x03, 0x00, 0x00,
  0x00, 0x00, 0x0a, 0x00, 0x10, 0x00, 0x0c, 0x00, 0x08, 0x00, 0x04, 0x00,
  0x0a, 0x00, 0x00, 0x00, 0x02, 0x00, 0x00, 0x00, 0x02, 0x00, 0x00, 0x00,
  0x04, 0x00, 0x00, 0x00, 0x06, 0x00, 0x00, 0x00, 0x32, 0x2e, 0x31, 0x35,
  0x2e, 0x30, 0x00, 0x00, 0x56, 0xf3, 0xff, 0xff, 0x04, 0x00, 0x00, 0x00,
  0x10, 0x00, 0x00, 0x00, 0x31, 0x2e, 0x31, 0x34, 0x2e, 0x30, 0x00, 0x00,
  0x00, 0x00, 0x00, 0x00, 0x00, 0x00, 0x00, 0x00, 0xec, 0xe0, 0xff, 0xff,
  0xf0, 0xe0, 0xff, 0xff, 0xf4, 0xe0, 0xff, 0xff, 0xf8, 0xe0, 0xff, 0xff,
  0xfc, 0xe0, 0xff, 0xff, 0x00, 0xe1, 0xff, 0xff, 0x04, 0xe1, 0xff, 0xff,
  0x08, 0xe1, 0xff, 0xff, 0x0c, 0xe1, 0xff, 0xff, 0x10, 0xe1, 0xff, 0xff,
  0x14, 0xe1, 0xff, 0xff, 0x18, 0xe1, 0xff, 0xff, 0x1c, 0xe1, 0xff, 0xff,
  0xa6, 0xf3, 0xff, 0xff, 0x04, 0x00, 0x00, 0x00, 0xb0, 0x01, 0x00, 0x00,
  0xf8, 0x03, 0x55, 0x52, 0xbc, 0xe3, 0x18, 0x79, 0xfa, 0x19, 0x57, 0x82,
  0xcc, 0x06, 0xd1, 0xf7, 0x32, 0x02, 0xe9, 0x1c, 0x1f, 0xc5, 0x23, 0x7f,
  0x8e, 0x93, 0x70, 0xd3, 0xe0, 0xe8, 0x52, 0x31, 0x3f, 0x32, 0xe3, 0x19,
  0xf3, 0x4d, 0x81, 0x31, 0xed, 0xce, 0x5f, 0x7e, 0x57, 0xa4, 0x98, 0xd4,
  0xa2, 0x38, 0xb1, 0x21, 0x5c, 0x97, 0x2c, 0x50, 0xf9, 0xf4, 0x49, 0xb4,
  0x51, 0x21, 0xd7, 0xfd, 0x45, 0x13, 0x9d, 0xcf, 0x49, 0xaa, 0xb4, 0x22,
  0x04, 0x58, 0xe9, 0xeb, 0x31, 0x26, 0x7f, 0x63, 0x8e, 0x01, 0x81, 0x2a,
  0x0d, 0xc6, 0x23, 0xea, 0xde, 0xe6, 0xcc, 0xa2, 0x11, 0x35, 0x9c, 0xe4,
  0x98, 0x33, 0x45, 0x1b, 0x15, 0x03, 0x0a, 0xad, 0x9d, 0x88, 0x66, 0x51,
  0x46, 0x22, 0x63, 0xa6, 0xa6, 0x5e, 0x18, 0xdf, 0x64, 0x34, 0x81, 0x1a,
  0x70, 0x8f, 0xd0, 0xfa, 0x25, 0xfb, 0xe4, 0x57, 0x07, 0xf2, 0x18, 0x1a,
  0xc7, 0xe6, 0xb4, 0x26, 0x30, 0xb2, 0x1c, 0xa1, 0x39, 0x0e, 0x51, 0xc9,
  0x27, 0x81, 0x5b, 0xab, 0xfa, 0x20, 0xc5, 0xf1, 0x52, 0xd9, 0x67, 0x14,
  0x1f, 0xda, 0xd5, 0xf6, 0x26, 0xc0, 0xd5, 0x02, 0x11, 0xe4, 0x3d, 0xe0,
  0x0c, 0x03, 0xdb, 0x7f, 0x02, 0x16, 0xe9, 0x14, 0x45, 0x33, 0xd7, 0xfc,
  0xb0, 0x17, 0x12, 0x26, 0x0c, 0xe1, 0x28, 0x34, 0xeb, 0x06, 0xef, 0x7f,
  0x2f, 0x39, 0x1b, 0xc7, 0x26, 0xf7, 0x0c, 0xc3, 0xe7, 0x51, 0x35, 0x2b,
  0x13, 0xd3, 0x02, 0x2e, 0xbd, 0x0e, 0x22, 0x4a, 0xf5, 0xa9, 0x42, 0x4d,
  0xd5, 0x24, 0xa2, 0x57, 0xf0, 0xfd, 0xf7, 0xc0, 0xf0, 0xf9, 0x2d, 0x23,
  0x3e, 0x01, 0xca, 0x2c, 0x18, 0xc9, 0xf5, 0x21, 0xc6, 0x62, 0xb9, 0x81,
  0x5e, 0xb9, 0x92, 0xd2, 0x66, 0x4d, 0x70, 0x18, 0xe3, 0x40, 0xaf, 0x7f,
  0xa3, 0xd4, 0xb8, 0x5c, 0x72, 0xdd, 0xbd, 0x42, 0xcc, 0x0f, 0x07, 0x18,
  0xc0, 0x14, 0xba, 0x27, 0xa7, 0x8e, 0xc0, 0x92, 0x61, 0x27, 0xa4, 0x5e,
  0x2e, 0xab, 0xf7, 0xfd, 0xfe, 0xf2, 0x30, 0x02, 0xf8, 0x30, 0x7f, 0xbc,
  0xca, 0x0b, 0xb2, 0xde, 0x40, 0xae, 0x1d, 0xb8, 0x53, 0xe9, 0x10, 0x01,
  0x1b, 0xb4, 0x92, 0x95, 0x46, 0x1a, 0x09, 0xb5, 0xd3, 0xf7, 0x9a, 0x08,
  0xfa, 0xe0, 0xe1, 0x60, 0xfd, 0x93, 0x67, 0xec, 0x81, 0xf1, 0xf9, 0xb8,
  0x72, 0xc8, 0xf4, 0x18, 0x48, 0x55, 0xc7, 0x31, 0xdb, 0x68, 0x81, 0xfc,
  0xfa, 0xa9, 0x65, 0xf5, 0xbe, 0xaf, 0xfb, 0xc9, 0xda, 0x4e, 0x12, 0xd8,
  0x09, 0x21, 0xe8, 0x5d, 0x9f, 0x1c, 0x32, 0xb4, 0xc2, 0xc3, 0x34, 0x2e,
  0x09, 0x57, 0xc5, 0x36, 0x03, 0xca, 0xf9, 0x7f, 0x3d, 0xe2, 0xad, 0x00,
  0x9f, 0xcd, 0xe1, 0xa2, 0x76, 0xd8, 0x2a, 0x81, 0xc3, 0xe3, 0x0c, 0xca,
  0x6d, 0xc1, 0xdc, 0x17, 0x05, 0x12, 0xde, 0xc8, 0x1b, 0x2f, 0x60, 0x0a,
  0xc2, 0x64, 0xeb, 0x29, 0xb4, 0x2e, 0x0e, 0x2d, 0x41, 0xcb, 0x61, 0xdc,
  0xad, 0x50, 0xdb, 0x39, 0x1a, 0xee, 0x53, 0xcb, 0x07, 0x72, 0x3a, 0x81,
  0xc1, 0x09, 0x01, 0xef, 0x2f, 0xfa, 0x56, 0xf0, 0x53, 0x21, 0xf9, 0xb1,
  0x62, 0xf5, 0xff, 0xff, 0x04, 0x00, 0x00, 0x00, 0x40, 0x00, 0x00, 0x00,
  0x5b, 0x05, 0x00, 0x00, 0x64, 0x01, 0x00, 0x00, 0x4c, 0xfc, 0xff, 0xff,
  0x7a, 0xff, 0xff, 0xff, 0x05, 0x07, 0x00, 0x00, 0xfa, 0xfa, 0xff, 0xff,
  0x68, 0xfa, 0xff, 0xff, 0x44, 0xfd, 0xff, 0xff, 0xda, 0xff, 0xff, 0xff,
  0x1b, 0xfc, 0xff, 0xff, 0x2a, 0x02, 0x00, 0x00, 0xfd, 0xf8, 0xff, 0xff,
  0x28, 0xfd, 0xff, 0xff, 0x6a, 0xf9, 0xff, 0xff, 0xfb, 0x00, 0x00, 0x00,
  0xd6, 0xfa, 0xff, 0xff, 0xae, 0xf5, 0xff, 0xff, 0x04, 0x00, 0x00, 0x00,
  0x80, 0x04, 0x00, 0x00, 0xb5, 0x00, 0xa7, 0xd1, 0xe3, 0x3a, 0x17, 0x42,
  0x18, 0x0a, 0x2c, 0x03, 0xf6, 0x01, 0xb6, 0xc0, 0x45, 0x7a, 0xf4, 0x99,
  0xec, 0xe7, 0x25, 0x37, 0x1f, 0xe8, 0x06, 0xe1, 0x2a, 0x3a, 0xb5, 0xa9,
  0xf6, 0xd9, 0xa8, 0xa0, 0x1a, 0xa2, 0x27, 0x13, 0xd8, 0x24, 0xf5, 0xe4,
  0xc1, 0x47, 0xb2, 0xb7, 0x39, 0xf3, 0x0f, 0x81, 0xf2, 0xd5, 0xe6, 0x13,
  0x1b, 0x0e, 0x48, 0xde, 0x2f, 0xe9, 0xf6, 0xdf, 0x26, 0x4d, 0xef, 0x8f,
  0xde, 0xf6, 0x18, 0x1e, 0xeb, 0x10, 0x24, 0xfe, 0xd2, 0x32, 0x2c, 0xe8,
  0x15, 0xf1, 0xf4, 0x90, 0x30, 0xc8, 0x09, 0x19, 0xf4, 0xdf, 0xe3, 0x06,
  0xc9, 0x39, 0x0c, 0xc4, 0x1e, 0x02, 0x30, 0xdc, 0x34, 0xe5, 0xa4, 0x44,
  0xd5, 0x33, 0xce, 0xf2, 0x94, 0xf7, 0x96, 0xce, 0x48, 0x42, 0x37, 0xda,
  0x22, 0xd3, 0xff, 0xe4, 0x0a, 0x2b, 0xe5, 0xd7, 0x9c, 0x52, 0x42, 0xd9,
  0x53, 0x2b, 0x4e, 0xa9, 0x18, 0x2b, 0x07, 0xfc, 0x2f, 0x54, 0xf1, 0xf0,
  0x98, 0x44, 0x0e, 0xaa, 0x14, 0x24, 0x12, 0xfa, 0xe8, 0xf4, 0xcf, 0x19,
  0xd9, 0xc5, 0xaf, 0xed, 0x35, 0xd7, 0x17, 0xc4, 0x00, 0xc8, 0xf2, 0x25,
  0x1e, 0x0c, 0x12, 0xb7, 0xce, 0x27, 0xb7, 0x30, 0xda, 0x2d, 0xfc, 0xf0,
  0xac, 0x24, 0xe5, 0x3b, 0xf0, 0x16, 0x07, 0xc9, 0x0e, 0x36, 0xd1, 0x19,
  0xd6, 0x05, 0xe9, 0xfd, 0xe3, 0xab, 0x1f, 0x23, 0xe6, 0xcf, 0xcb, 0xf4,
  0xc8, 0x3b, 0xe9, 0x33, 0xcc, 0xf9, 0x04, 0xce, 0xf8, 0xc5, 0x48, 0xd1,
  0xb7, 0x0a, 0x01, 0xd0, 0xc3, 0x14, 0xad, 0x13, 0x2b, 0xd8, 0xfe, 0xff,
  0x1e, 0xd8, 0x22, 0x27, 0x81, 0xd3, 0xee, 0x3c, 0x9f, 0xd6, 0xc3, 0x3a,
  0xe8, 0x04, 0xe6, 0xcd, 0xfc, 0x1e, 0xcd, 0x13, 0xb8, 0xe5, 0x3e, 0x27,
  0xe0, 0xd8, 0x84, 0x1c, 0x29, 0xd7, 0x5d, 0x2f, 0xc1, 0xf8, 0x22, 0x29,
  0xc3, 0xc0, 0x2a, 0x61, 0xf4, 0x06, 0xc0, 0x4a, 0x2e, 0x10, 0x3c, 0x13,
  0xdb, 0x36, 0xce, 0xe9, 0xdf, 0xa1, 0x5f, 0xf5, 0x02, 0xf5, 0x09, 0xec,
  0xd0, 0xec, 0x09, 0xfb, 0x1f, 0xdd, 0xc9, 0x08, 0xbd, 0x41, 0xfa, 0x12,
  0x12, 0xe6, 0xb3, 0xf3, 0x4f, 0xc4, 0xe6, 0x57, 0xe8, 0xc2, 0xf8, 0x22,
  0xe7, 0x4d, 0x44, 0xcf, 0x1d, 0x18, 0xd2, 0x4e, 0xec, 0xae, 0x4a, 0x46,
  0x0a, 0xcc, 0xf1, 0x07, 0xc2, 0x2b, 0x04, 0xc6, 0x03, 0x1f, 0xce, 0x02,
  0x10, 0xb1, 0x43, 0x59, 0xe1, 0xe5, 0xb9, 0x7f, 0x2f, 0x3e, 0xd8, 0xd9,
  0xf3, 0xa8, 0x2a, 0xc6, 0x60, 0xcf, 0xf8, 0x32, 0x3d, 0xf0, 0xec, 0xfd,
  0x26, 0x29, 0x16, 0x01, 0xee, 0xe6, 0x38, 0xe9, 0x24, 0xb3, 0x12, 0x40,
  0x16, 0xbd, 0xc1, 0xfe, 0xc5, 0x29, 0x28, 0xf2, 0xa4, 0xf3, 0x14, 0x2a,
  0x00, 0xbc, 0x01, 0x26, 0xe2, 0xec, 0xde, 0x33, 0x0f, 0x43, 0xa7, 0x07,
  0x84, 0xe0, 0x16, 0x02, 0x3b, 0xfe, 0x00, 0xc3, 0x17, 0x17, 0xde, 0xf1,
  0x21, 0x41, 0xd3, 0x26, 0x95, 0xdb, 0x52, 0xd1, 0x0b, 0xe3, 0x20, 0xe2,
  0xf8, 0xf6, 0xeb, 0x2a, 0x23, 0x59, 0xe5, 0xfa, 0xb7, 0x11, 0xf8, 0xdc,
  0x2b, 0xff, 0x25, 0xae, 0xe3, 0x38, 0xbe, 0x1f, 0x24, 0x81, 0x2f, 0x51,
  0xfa, 0x41, 0xc9, 0x28, 0xad, 0x01, 0x05, 0x42, 0xf6, 0x08, 0xd8, 0x23,
  0x23, 0x9e, 0x47, 0x3c, 0xe2, 0x45, 0x12, 0x20, 0xf3, 0xbd, 0x12, 0x07,
  0xc8, 0x01, 0x19, 0x10, 0x22, 0x90, 0xe8, 0x14, 0x16, 0x3f, 0x12, 0xbf,
  0xdb, 0xc5, 0xf6, 0x42, 0xef, 0xe7, 0xc6, 0xed, 0xd5, 0xa8, 0x32, 0x23,
  0x08, 0x30, 0xdd, 0xd8, 0x2b, 0x28, 0x0f, 0xdd, 0xe5, 0x2e, 0xc5, 0xb9,
  0x0a, 0xc0, 0x2c, 0x1d, 0x14, 0x3d, 0x27, 0xed, 0x56, 0x0d, 0x07, 0xf0,
  0x0e, 0x0a, 0xd6, 0xc8, 0x4f, 0xc5, 0x2d, 0x4a, 0xdb, 0x1c, 0x15, 0xef,
  0x06, 0x01, 0xc6, 0xec, 0xcb, 0xe5, 0x1b, 0xec, 0xcd, 0xee, 0x0d, 0x58,
  0x12, 0xc9, 0x0a, 0xef, 0xc8, 0x03, 0xdd, 0xcb, 0xf2, 0x1a, 0xe7, 0xf9,
  0x10, 0xb3, 0x05, 0x4c, 0xd9, 0x16, 0xd5, 0xe7, 0xec, 0xdb, 0xd7, 0xb8,
  0x11, 0xd3, 0x22, 0xca, 0x03, 0xa1, 0x20, 0x32, 0xc5, 0x36, 0xfb, 0x12,
  0xf9, 0x00, 0xe8, 0xf2, 0x07, 0x0a, 0xbe, 0x2d, 0xf1, 0x1e, 0x26, 0xbe,
  0xfa, 0x5c, 0xf4, 0xb9, 0xbf, 0x3d, 0x20, 0xf5, 0xc7, 0x19, 0xd2, 0x24,
  0x0f, 0x0a, 0xf5, 0xb6, 0x09, 0x2e, 0x2c, 0xb5, 0xd1, 0x28, 0xff, 0xe8,
  0x16, 0x39, 0xd3, 0x26, 0x2a, 0x40, 0xb6, 0xf4, 0xf6, 0x49, 0x63, 0xe0,
  0xf8, 0x2f, 0xf8, 0xda, 0x1b, 0xed, 0xd4, 0xc8, 0x2a, 0x21, 0x2e, 0xcd,
  0x1e, 0xe6, 0x24, 0xbf, 0xf9, 0x19, 0xea, 0xfb, 0xde, 0x2f, 0xee, 0xed,
  0x38, 0x00, 0xdc, 0xeb, 0xc9, 0xfc, 0x25, 0xa5, 0xe2, 0xf3, 0xe1, 0x2d,
  0xe1, 0xfd, 0xfc, 0x24, 0x11, 0xe6, 0xd3, 0x40, 0xc1, 0x25, 0x31, 0xa6,
  0xee, 0xfa, 0xc5, 0x35, 0x0c, 0xb4, 0x2d, 0xef, 0x36, 0xfe, 0xe1, 0x06,
  0x81, 0xf7, 0x04, 0xe2, 0x03, 0xf8, 0xfe, 0x21, 0x42, 0xe1, 0x17, 0x0c,
  0xff, 0x3d, 0x18, 0x12, 0x94, 0x0d, 0x2d, 0xaa, 0xc1, 0xd5, 0xf8, 0x1f,
  0x1d, 0xf3, 0xd2, 0x09, 0x48, 0xc7, 0x1b, 0x12, 0xaa, 0xb5, 0x3e, 0xa7,
  0xed, 0xfe, 0xa1, 0x17, 0x4d, 0x1a, 0xff, 0x07, 0x02, 0xb1, 0x1c, 0xd7,
  0xf8, 0x16, 0x09, 0x18, 0xcc, 0xf3, 0xf7, 0x5e, 0x25, 0xf3, 0xb6, 0xc9,
  0x07, 0x81, 0x08, 0xec, 0x32, 0xcd, 0x1f, 0x01, 0xa5, 0xef, 0x23, 0x39,
  0xed, 0xe3, 0x8a, 0xd9, 0xe0, 0x8d, 0xff, 0x16, 0x04, 0xda, 0xfd, 0xf5,
  0x9e, 0xcd, 0x1d, 0x02, 0x14, 0x1e, 0x46, 0xc6, 0xae, 0x07, 0xe7, 0xfb,
  0x30, 0x02, 0xf2, 0x17, 0xc4, 0x2c, 0x32, 0x23, 0x22, 0x38, 0x1d, 0xfd,
  0xd4, 0x01, 0x11, 0xf9, 0x07, 0x26, 0x22, 0xf8, 0x13, 0x1e, 0x18, 0x31,
  0x38, 0x24, 0x11, 0xd0, 0xe2, 0xfc, 0x14, 0xdf, 0x3d, 0x2b, 0x2c, 0x18,
  0xdf, 0x43, 0x1e, 0x2c, 0xbf, 0x1d, 0x11, 0xe4, 0xcd, 0x21, 0xd7, 0xe9,
  0xf2, 0xf0, 0xac, 0xed, 0x03, 0x1a, 0xc7, 0x0f, 0xee, 0xe7, 0x2d, 0xae,
  0xc0, 0x0d, 0xe2, 0xf1, 0x4e, 0x1f, 0xbe, 0x20, 0x9f, 0x0f, 0x28, 0x18,
  0x27, 0x35, 0x15, 0xc6, 0xeb, 0xc7, 0x07, 0xb2, 0xee, 0xe1, 0xb8, 0x14,
  0xc9, 0xe2, 0xdf, 0x1d, 0xb8, 0x3e, 0x1f, 0xda, 0xfc, 0x07, 0xaf, 0x90,
  0x11, 0xfd, 0xea, 0x23, 0xd8, 0x08, 0xce, 0xe3, 0xc3, 0x30, 0x94, 0x45,
  0x1c, 0xde, 0xe6, 0x00, 0x13, 0xd4, 0x08, 0x23, 0xe6, 0xd0, 0xe7, 0x30,
  0xc9, 0xfe, 0xc4, 0xe4, 0x2c, 0xdf, 0x3f, 0xfd, 0xed, 0x34, 0x27, 0x9d,
  0x3e, 0x20, 0xc6, 0xf5, 0x95, 0x3a, 0x3f, 0x07, 0xaf, 0x06, 0xa2, 0xb5,
  0x36, 0x53, 0xd4, 0x6f, 0xe7, 0xd6, 0x26, 0x35, 0xad, 0x38, 0xf3, 0x40,
  0xd2, 0x2f, 0xdd, 0xef, 0x3b, 0x02, 0xe7, 0x00, 0x0a, 0x2b, 0xf9, 0x2e,
  0x32, 0x0e, 0xbf, 0x2f, 0x05, 0xff, 0x01, 0xd0, 0xd2, 0xda, 0xe3, 0xd8,
  0xf3, 0x03, 0xc6, 0x1e, 0xbf, 0xdb, 0x8c, 0x1d, 0xe9, 0x17, 0xae, 0xc0,
  0x3d, 0x28, 0xf6, 0x48, 0xd7, 0xb8, 0x52, 0x19, 0x02, 0x2c, 0xdb, 0x1b,
  0x6b, 0x3f, 0xc7, 0xbf, 0xfa, 0x2c, 0xf5, 0x13, 0xf4, 0xe1, 0xd5, 0x7f,
  0x22, 0x26, 0x38, 0x07, 0x13, 0xd6, 0x22, 0x11, 0xc6, 0x02, 0xba, 0x05,
  0xce, 0x2c, 0xc9, 0x24, 0xee, 0xea, 0xce, 0x32, 0x01, 0x27, 0xa7, 0x39,
  0xea, 0x13, 0xdf, 0xfa, 0x7f, 0xd9, 0xca, 0xf4, 0x44, 0xfe, 0x5a, 0x45,
  0x16, 0xe2, 0xf7, 0x08, 0xe3, 0x2b, 0x0a, 0x03, 0xd2, 0x53, 0x63, 0x9f,
  0x0c, 0xdd, 0x4a, 0xf3, 0xe7, 0xfc, 0x15, 0xbe, 0xb0, 0x2e, 0x0e, 0xcd,
  0xd1, 0xf8, 0x66, 0xab, 0xdf, 0xc4, 0x0e, 0x4c, 0x1c, 0x14, 0x07, 0xe6,
  0x3b, 0xe0, 0x16, 0x62, 0x60, 0xfc, 0xd2, 0xf8, 0xe4, 0xed, 0x45, 0x43,
  0x39, 0xeb, 0x1f, 0x33, 0xf3, 0x28, 0x00, 0x70, 0x55, 0xdb, 0x3f, 0xce,
  0xe2, 0x0e, 0x2f, 0x18, 0x3e, 0xf0, 0x05, 0x61, 0xc3, 0xe1, 0xe0, 0xdc,
  0xde, 0xef, 0x52, 0xc5, 0xe4, 0xb3, 0xb9, 0x04, 0xc9, 0xdf, 0xe0, 0x00,
  0xdc, 0x14, 0x19, 0x3c, 0xca, 0x02, 0x37, 0x18, 0xf3, 0xaf, 0xb8, 0x37,
  0x35, 0xcf, 0xef, 0x70, 0xfb, 0xe8, 0xde, 0xe2, 0xd0, 0xf2, 0x0a, 0x35,
  0x2e, 0x03, 0x24, 0xdc, 0x5d, 0xe7, 0xdb, 0x39, 0x63, 0x01, 0x28, 0x05,
  0xc0, 0x0c, 0x41, 0xe2, 0x3a, 0xfa, 0xff, 0xff, 0x04, 0x00, 0x00, 0x00,
  0x20, 0x00, 0x00, 0x00, 0x01, 0x44, 0x00, 0x00, 0xfd, 0x51, 0x00, 0x00,
  0xab, 0x04, 0x00, 0x00, 0x50, 0x2d, 0x00, 0x00, 0x90, 0x30, 0x00, 0x00,
  0xba, 0x24, 0x00, 0x00, 0x86, 0x16, 0x00, 0x00, 0x2a, 0x94, 0xff, 0xff,
  0x66, 0xfa, 0xff, 0xff, 0x04, 0x00, 0x00, 0x00, 0x00, 0x02, 0x00, 0x00,
  0xf1, 0x48, 0x2d, 0xcf, 0xcf, 0xd5, 0xdd, 0x1e, 0xd3, 0x29, 0x32, 0x26,
  0xef, 0xcf, 0xff, 0x25, 0xea, 0xf1, 0x18, 0x22, 0xa3, 0xe8, 0xda, 0x2c,
  0xe1, 0x30, 0x11, 0x18, 0xb9, 0xd9, 0x17, 0x23, 0xdf, 0xe0, 0x3e, 0xef,
  0xa6, 0x24, 0x0d, 0xe9, 0xeb, 0x38, 0xfa, 0x32, 0xe9, 0x11, 0x3a, 0xf9,
  0xe3, 0x08, 0x51, 0xf5, 0xce, 0x37, 0xda, 0x34, 0xae, 0x06, 0xfa, 0x4c,
  0x19, 0x20, 0xf5, 0xdc, 0xd2, 0xcb, 0xc3, 0x19, 0x26, 0xe5, 0x07, 0xb4,
  0xfa, 0xe3, 0xe8, 0x06, 0x3a, 0xe9, 0x22, 0xb8, 0xfc, 0x09, 0x03, 0xd3,
  0xcc, 0xf4, 0xed, 0x2b, 0xdf, 0xcb, 0x26, 0xcf, 0xe9, 0x14, 0x43, 0x25,
  0xed, 0x1b, 0x4e, 0xd7, 0x40, 0xfe, 0x06, 0x17, 0xd7, 0xcd, 0x44, 0x15,
  0x21, 0x0e, 0x1a, 0x24, 0x0a, 0x1c, 0x55, 0x0f, 0x5a, 0xe1, 0x15, 0x19,
  0xf1, 0xfb, 0xf1, 0xb6, 0x16, 0xea, 0xc7, 0xd9, 0xb7, 0xcf, 0xf0, 0xe1,
  0xec, 0xd3, 0xcb, 0x01, 0x15, 0xbb, 0x35, 0xf2, 0xe0, 0xbc, 0xc5, 0x1e,
  0x49, 0x15, 0xfb, 0xf6, 0x18, 0x41, 0x11, 0xd2, 0x3c, 0x11, 0xe2, 0xde,
  0x07, 0x3f, 0xd8, 0xfa, 0xf7, 0xec, 0xd1, 0xfc, 0x1e, 0x3c, 0x32, 0x35,
  0x04, 0xf7, 0xd6, 0x00, 0x15, 0x1c, 0xfa, 0x21, 0x08, 0x16, 0x08, 0x0d,
  0xf7, 0x47, 0x2f, 0xf9, 0x10, 0xed, 0xb8, 0x15, 0x0f, 0x74, 0xf0, 0xc7,
  0xb7, 0xca, 0x23, 0xc9, 0x11, 0x23, 0x31, 0xd4, 0xe7, 0x29, 0x4f, 0xdd,
  0xf3, 0x2d, 0x27, 0x1b, 0xc9, 0xda, 0x3e, 0xfc, 0x39, 0xd2, 0x0e, 0xff,
  0xfb, 0xd4, 0x1a, 0xf3, 0x3d, 0xfa, 0xcb, 0xe2, 0xc5, 0xf9, 0xdd, 0x57,
  0x41, 0xdb, 0x19, 0xff, 0xec, 0x0b, 0x05, 0x43, 0xf4, 0xf8, 0xef, 0x17,
  0x0b, 0x08, 0xd4, 0xf5, 0x24, 0xe4, 0x38, 0xc1, 0x1d, 0xd4, 0xb5, 0x1f,
  0xe2, 0x14, 0xea, 0xeb, 0x47, 0xc9, 0xf3, 0x34, 0x0c, 0x4b, 0x21, 0x1e,
  0x3d, 0xe1, 0xf3, 0x1c, 0x04, 0x3b, 0x30, 0x01, 0xfc, 0xff, 0xfc, 0xf0,
  0xf5, 0xdb, 0xcc, 0x14, 0xe6, 0xe8, 0x1d, 0xc2, 0x02, 0xd9, 0xe8, 0xd7,
  0xe6, 0xd2, 0xd9, 0xd9, 0x32, 0xee, 0xdc, 0xfd, 0xd4, 0xee, 0xeb, 0xc9,
  0xf7, 0xf1, 0x11, 0xe9, 0x02, 0xf1, 0xf1, 0xf1, 0xfa, 0xbe, 0x10, 0x14,
  0x1a, 0x00, 0x18, 0xdb, 0xec, 0xcf, 0x01, 0x13, 0x04, 0x00, 0x12, 0xd7,
  0xdc, 0xd2, 0x00, 0x0c, 0x0c, 0xe3, 0x06, 0xb6, 0x1f, 0x94, 0x95, 0xdf,
  0x14, 0x32, 0xbd, 0xf0, 0x3f, 0xe7, 0x1c, 0xd6, 0x31, 0xf2, 0xce, 0x01,
  0x2b, 0xf5, 0x26, 0x06, 0x17, 0xe6, 0x27, 0x32, 0x2f, 0xed, 0xba, 0xde,
  0x06, 0xf1, 0x50, 0xd6, 0xf3, 0xd8, 0xc8, 0xdd, 0xf5, 0xca, 0xf0, 0x43,
  0x4d, 0xc8, 0x08, 0xf9, 0x2e, 0xc3, 0x24, 0xb7, 0x21, 0x97, 0xd4, 0x18,
  0xcf, 0x46, 0xe8, 0xfe, 0x07, 0x27, 0xcc, 0x06, 0x14, 0x22, 0xb0, 0xe6,
  0xd1, 0x1d, 0xed, 0xeb, 0x03, 0xcb, 0xf2, 0x56, 0xd7, 0xf6, 0xf5, 0xce,
  0x1b, 0x16, 0x1d, 0x5a, 0x10, 0xeb, 0xee, 0xf0, 0x08, 0xdb, 0x09, 0x2e,
  0x4b, 0xce, 0x4b, 0x33, 0x04, 0xc7, 0xfa, 0x2b, 0x26, 0xc7, 0xe4, 0x00,
  0xec, 0x27, 0xd1, 0x23, 0x2f, 0x07, 0x09, 0x1b, 0x1a, 0xfc, 0xe4, 0x1f,
  0x3e, 0xf1, 0xb9, 0xca, 0x3e, 0x37, 0xbc, 0xf4, 0xb7, 0xf0, 0xe6, 0x2e,
  0x0f, 0x25, 0x81, 0xfe, 0x02, 0x0a, 0xd5, 0xfc, 0x04, 0xf3, 0x0b, 0x2f,
  0xfa, 0x25, 0x03, 0x23, 0x2a, 0x3d, 0xde, 0x3d, 0x06, 0xee, 0xd9, 0x06,
  0x25, 0x16, 0xb7, 0x00, 0xc8, 0x05, 0xe6, 0xdf, 0x37, 0xf2, 0xd7, 0xf2,
  0xea, 0xc8, 0x11, 0xe9, 0x37, 0x05, 0x10, 0x36, 0x0d, 0xe4, 0xc7, 0x1a,
  0xe5, 0x00, 0xd7, 0x17, 0x16, 0x9d, 0x01, 0x15, 0x72, 0xfc, 0xff, 0xff,
  0x04, 0x00, 0x00, 0x00, 0x20, 0x00, 0x00, 0x00, 0xd2, 0x7d, 0x00, 0x00,
  0x24, 0x6f, 0x00, 0x00, 0xae, 0x58, 0x00, 0x00, 0xc1, 0x53, 0x00, 0x00,
  0x64, 0x92, 0x00, 0x00, 0x95, 0x73, 0x00, 0x00, 0xa4, 0x35, 0x00, 0x00,
  0x17, 0x67, 0x00, 0x00, 0x9e, 0xfc, 0xff, 0xff, 0x04, 0x00, 0x00, 0x00,
  0x38, 0x00, 0x00, 0x00, 0x4c, 0xa7, 0xc8, 0x11, 0xba, 0x8c, 0x43, 0x46,
  0xc9, 0xc0, 0xd4, 0x97, 0x71, 0xd1, 0xbf, 0x37, 0x3c, 0xdb, 0x5b, 0x17,
  0xbd, 0xa1, 0xc6, 0xd9, 0x98, 0x49, 0x97, 0x3c, 0x48, 0x9a, 0x34, 0x9b,
  0x81, 0xcd, 0x4f, 0xa5, 0xc7, 0x21, 0x2c, 0x4d, 0x45, 0x50, 0xaa, 0xb7,
  0xb3, 0x25, 0x91, 0x9f, 0xb1, 0xdf, 0x27, 0x4f, 0xda, 0x3f, 0xa2, 0xa6,
  0xe2, 0xfc, 0xff, 0xff, 0x04, 0x00, 0x00, 0x00, 0x1c, 0x00, 0x00, 0x00,
  0x83, 0xf3, 0xff, 0xff, 0x80, 0x08, 0x00, 0x00, 0xc0, 0x04, 0x00, 0x00,
  0x34, 0xfd, 0xff, 0xff, 0x43, 0xf8, 0xff, 0xff, 0x1a, 0x0a, 0x00, 0x00,
  0x20, 0xff, 0xff, 0xff, 0x0a, 0xfd, 0xff, 0xff, 0x04, 0x00, 0x00, 0x00,
  0x08, 0x00, 0x00, 0x00, 0xff, 0xff, 0xff, 0xff, 0x40, 0x00, 0x00, 0x00,
  0x1e, 0xfd, 0xff, 0xff, 0x04, 0x00, 0x00, 0x00, 0x04, 0x00, 0x00, 0x00,
  0x03, 0x00, 0x00, 0x00, 0x2e, 0xfd, 0xff, 0xff, 0x04, 0x00, 0x00, 0x00,
  0x04, 0x00, 0x00, 0x00, 0x04, 0x00, 0x00, 0x00, 0x3e, 0xfd, 0xff, 0xff,
  0x04, 0x00, 0x00, 0x00, 0x04, 0x00, 0x00, 0x00, 0x08, 0x00, 0x00, 0x00,
  0x4e, 0xfd, 0xff, 0xff, 0x04, 0x00, 0x00, 0x00, 0x04, 0x00, 0x00, 0x00,
  0x01, 0x00, 0x00, 0x00, 0x5e, 0xfd, 0xff, 0xff, 0x04, 0x00, 0x00, 0x00,
  0x04, 0x00, 0x00, 0x00, 0x00, 0x00, 0x00, 0x00, 0xe8, 0xea, 0xff, 0xff,
  0xec, 0xea, 0xff, 0xff, 0x0f, 0x00, 0x00, 0x00, 0x4d, 0x4c, 0x49, 0x52,
  0x20, 0x43, 0x6f, 0x6e, 0x76, 0x65, 0x72, 0x74, 0x65, 0x64, 0x2e, 0x00,
  0x01, 0x00, 0x00, 0x00, 0x14, 0x00, 0x00, 0x00, 0x00, 0x00, 0x0e, 0x00,
  0x18, 0x00, 0x14, 0x00, 0x10, 0x00, 0x0c, 0x00, 0x08, 0x00, 0x04, 0x00,
  0x0e, 0x00, 0x00, 0x00, 0x14, 0x00, 0x00, 0x00, 0x1c, 0x00, 0x00, 0x00,
  0x38, 0x03, 0x00, 0x00, 0x3c, 0x03, 0x00, 0x00, 0x40, 0x03, 0x00, 0x00,
  0x04, 0x00, 0x00, 0x00, 0x6d, 0x61, 0x69, 0x6e, 0x00, 0x00, 0x00, 0x00,
  0x0d, 0x00, 0x00, 0x00, 0x00, 0x03, 0x00, 0x00, 0xb8, 0x02, 0x00, 0x00,
  0x58, 0x02, 0x00, 0x00, 0x10, 0x02, 0x00, 0x00, 0xe8, 0x01, 0x00, 0x00,
  0x8c, 0x01, 0x00, 0x00, 0x48, 0x01, 0x00, 0x00, 0xf4, 0x00, 0x00, 0x00,
  0xcc, 0x00, 0x00, 0x00, 0x90, 0x00, 0x00, 0x00, 0x58, 0x00, 0x00, 0x00,
  0x24, 0x00, 0x00, 0x00, 0x04, 0x00, 0x00, 0x00, 0x3e, 0xfd, 0xff, 0xff,
  0x08, 0x00, 0x00, 0x00, 0x0c, 0x00, 0x00, 0x00, 0x01, 0x00, 0x00, 0x00,
  0x1b, 0x00, 0x00, 0x00, 0x01, 0x00, 0x00, 0x00, 0x1a, 0x00, 0x00, 0x00,
  0xa2, 0xfd, 0xff, 0xff, 0x14, 0x00, 0x00, 0x00, 0x00, 0x00, 0x00, 0x09,
  0x14, 0x00, 0x00, 0x00, 0x18, 0x00, 0x00, 0x00, 0x08, 0x00, 0x00, 0x00,
  0x32, 0xfe, 0xff, 0xff, 0x00, 0x00, 0x80, 0x3f, 0x01, 0x00, 0x00, 0x00,
  0x1a, 0x00, 0x00, 0x00, 0x01, 0x00, 0x00, 0x00, 0x19, 0x00, 0x00, 0x00,
  0xd2, 0xfd, 0xff, 0xff, 0x14, 0x00, 0x00, 0x00, 0x00, 0x00, 0x00, 0x08,
  0x10, 0x00, 0x00, 0x00, 0x14, 0x00, 0x00, 0x00, 0x07, 0x00, 0x00, 0x00,
  0xdc, 0xeb, 0xff, 0xff, 0x01, 0x00, 0x00, 0x00, 0x19, 0x00, 0x00, 0x00,
  0x03, 0x00, 0x00, 0x00, 0x18, 0x00, 0x00, 0x00, 0x08, 0x00, 0x00, 0x00,
  0x07, 0x00, 0x00, 0x00, 0x06, 0xfe, 0xff, 0xff, 0x14, 0x00, 0x00, 0x00,
  0x00, 0x00, 0x00, 0x08, 0x14, 0x00, 0x00, 0x00, 0x18, 0x00, 0x00, 0x00,
  0x07, 0x00, 0x00, 0x00, 0xf6, 0xfd, 0xff, 0xff, 0x00, 0x00, 0x00, 0x01,
  0x01, 0x00, 0x00, 0x00, 0x18, 0x00, 0x00, 0x00, 0x03, 0x00, 0x00, 0x00,
  0x17, 0x00, 0x00, 0x00, 0x0a, 0x00, 0x00, 0x00, 0x09, 0x00, 0x00, 0x00,
  0xfe, 0xfe, 0xff, 0xff, 0x0c, 0x00, 0x00, 0x00, 0x10, 0x00, 0x00, 0x00,
  0x04, 0x00, 0x00, 0x00, 0x01, 0x00, 0x00, 0x00, 0x17, 0x00, 0x00, 0x00,
  0x02, 0x00, 0x00, 0x00, 0x16, 0x00, 0x00, 0x00, 0x06, 0x00, 0x00, 0x00,
  0x62, 0xfe, 0xff, 0xff, 0x24, 0x00, 0x00, 0x00, 0x00, 0x00, 0x00, 0x05,
  0x34, 0x00, 0x00, 0x00, 0x38, 0x00, 0x00, 0x00, 0x06, 0x00, 0x00, 0x00,
  0x00, 0x00, 0x0e, 0x00, 0x18, 0x00, 0x17, 0x00, 0x10, 0x00, 0x0c, 0x00,
  0x08, 0x00, 0x04, 0x00, 0x0e, 0x00, 0x00, 0x00, 0x02, 0x00, 0x00, 0x00,
  0x02, 0x00, 0x00, 0x00, 0x02, 0x00, 0x00, 0x00, 0x02, 0x00, 0x00, 0x00,
  0x00, 0x00, 0x00, 0x01, 0x01, 0x00, 0x00, 0x00, 0x16, 0x00, 0x00, 0x00,
  0x01, 0x00, 0x00, 0x00, 0x15, 0x00, 0x00, 0x00, 0xb2, 0xfe, 0xff, 0xff,
  0x14, 0x00, 0x00, 0x00, 0x00, 0x00, 0x00, 0x01, 0x1c, 0x00, 0x00, 0x00,
  0x20, 0x00, 0x00, 0x00, 0x05, 0x00, 0x00, 0x00, 0xc0, 0xff, 0xff, 0xff,
  0x00, 0x00, 0x00, 0x01, 0x01, 0x00, 0x00, 0x00, 0x01, 0x00, 0x00, 0x00,
  0x01, 0x00, 0x00, 0x00, 0x15, 0x00, 0x00, 0x00, 0x03, 0x00, 0x00, 0x00,
  0x14, 0x00, 0x00, 0x00, 0x0c, 0x00, 0x00, 0x00, 0x0b, 0x00, 0x00, 0x00,
  0xf2, 0xfe, 0xff, 0xff, 0x20, 0x00, 0x00, 0x00, 0x00, 0x00, 0x00, 0x01,
  0x28, 0x00, 0x00, 0x00, 0x2c, 0x00, 0x00, 0x00, 0x05, 0x00, 0x00, 0x00,
  0x0c, 0x00, 0x10, 0x00, 0x00, 0x00, 0x0c, 0x00, 0x08, 0x00, 0x07, 0x00,
  0x0c, 0x00, 0x00, 0x00, 0x00, 0x00, 0x00, 0x01, 0x01, 0x00, 0x00, 0x00,
  0x01, 0x00, 0x00, 0x00, 0x01, 0x00, 0x00, 0x00, 0x14, 0x00, 0x00, 0x00,
  0x03, 0x00, 0x00, 0x00, 0x13, 0x00, 0x00, 0x00, 0x0e, 0x00, 0x00, 0x00,
  0x0d, 0x00, 0x00, 0x00, 0x00, 0x00, 0x0a, 0x00, 0x10, 0x00, 0x0c, 0x00,
  0x08, 0x00, 0x04, 0x00, 0x0a, 0x00, 0x00, 0x00, 0x0c, 0x00, 0x00, 0x00,
  0x10, 0x00, 0x00, 0x00, 0x04, 0x00, 0x00, 0x00, 0x01, 0x00, 0x00, 0x00,
  0x13, 0x00, 0x00, 0x00, 0x02, 0x00, 0x00, 0x00, 0x0f, 0x00, 0x00, 0x00,
  0x12, 0x00, 0x00, 0x00, 0x6e, 0xff, 0xff, 0xff, 0x1c, 0x00, 0x00, 0x00,
  0x00, 0x00, 0x00, 0x3b, 0x1c, 0x00, 0x00, 0x00, 0x20, 0x00, 0x00, 0x00,
  0x03, 0x00, 0x00, 0x00, 0x00, 0x00, 0x06, 0x00, 0x08, 0x00, 0x04, 0x00,
  0x06, 0x00, 0x00, 0x00, 0x04, 0x00, 0x00, 0x00, 0x01, 0x00, 0x00, 0x00,
  0x12, 0x00, 0x00, 0x00, 0x04, 0x00, 0x00, 0x00, 0x11, 0x00, 0x00, 0x00,
  0x03, 0x00, 0x00, 0x00, 0x04, 0x00, 0x00, 0x00, 0x05, 0x00, 0x00, 0x00,
  0xb2, 0xff, 0xff, 0xff, 0x24, 0x00, 0x00, 0x00, 0x00, 0x00, 0x00, 0x20,
  0x24, 0x00, 0x00, 0x00, 0x28, 0x00, 0x00, 0x00, 0x02, 0x00, 0x00, 0x00,
  0x00, 0x00, 0x0e, 0x00, 0x08, 0x00, 0x00, 0x00, 0x00, 0x00, 0x00, 0x00,
  0x00, 0x00, 0x04, 0x00, 0x0e, 0x00, 0x00, 0x00, 0x01, 0x00, 0x00, 0x00,
  0x01, 0x00, 0x00, 0x00, 0x11, 0x00, 0x00, 0x00, 0x04, 0x00, 0x00, 0x00,
  0x10, 0x00, 0x00, 0x00, 0x01, 0x00, 0x00, 0x00, 0x02, 0x00, 0x00, 0x00,
  0x02, 0x00, 0x00, 0x00, 0x00, 0x00, 0x0e, 0x00, 0x1a, 0x00, 0x14, 0x00,
  0x10, 0x00, 0x0c, 0x00, 0x0b, 0x00, 0x04, 0x00, 0x0e, 0x00, 0x00, 0x00,
  0x1c, 0x00, 0x00, 0x00, 0x00, 0x00, 0x00, 0x37, 0x1c, 0x00, 0x00, 0x00,
  0x20, 0x00, 0x00, 0x00, 0x01, 0x00, 0x00, 0x00, 0x00, 0x00, 0x06, 0x00,
  0x08, 0x00, 0x07, 0x00, 0x06, 0x00, 0x00, 0x00, 0x00, 0x00, 0x00, 0x02,
  0x01, 0x00, 0x00, 0x00, 0x10, 0x00, 0x00, 0x00, 0x01, 0x00, 0x00, 0x00,
  0x0f, 0x00, 0x00, 0x00, 0x00, 0x00, 0x0a, 0x00, 0x0c, 0x00, 0x00, 0x00,
  0x08, 0x00, 0x04, 0x00, 0x0a, 0x00, 0x00, 0x00, 0x08, 0x00, 0x00, 0x00,
  0x0c, 0x00, 0x00, 0x00, 0x01, 0x00, 0x00, 0x00, 0x0f, 0x00, 0x00, 0x00,
  0x01, 0x00, 0x00, 0x00, 0x00, 0x00, 0x00, 0x00, 0x01, 0x00, 0x00, 0x00,
  0x1b, 0x00, 0x00, 0x00, 0x01, 0x00, 0x00, 0x00, 0x00, 0x00, 0x00, 0x00,
  0x1c, 0x00, 0x00, 0x00, 0xe8, 0x11, 0x00, 0x00, 0x6c, 0x11, 0x00, 0x00,
  0xf4, 0x10, 0x00, 0x00, 0x9c, 0x10, 0x00, 0x00, 0x44, 0x10, 0x00, 0x00,
  0xec, 0x0f, 0x00, 0x00, 0x9c, 0x0f, 0x00, 0x00, 0x1c, 0x0f, 0x00, 0x00,
  0xa8, 0x0e, 0x00, 0x00, 0x04, 0x0e, 0x00, 0x00, 0x78, 0x0d, 0x00, 0x00,
  0x14, 0x0c, 0x00, 0x00, 0x48, 0x0b, 0x00, 0x00, 0x84, 0x09, 0x00, 0x00,
  0x58, 0x08, 0x00, 0x00, 0xe0, 0x07, 0x00, 0x00, 0x90, 0x07, 0x00, 0x00,
  0x3c, 0x07, 0x00, 0x00, 0xe4, 0x06, 0x00, 0x00, 0x4c, 0x06, 0x00, 0x00,
  0x18, 0x05, 0x00, 0x00, 0xe4, 0x03, 0x00, 0x00, 0x48, 0x03, 0x00, 0x00,
  0xc4, 0x02, 0x00, 0x00, 0xa0, 0x01, 0x00, 0x00, 0xfc, 0x00, 0x00, 0x00,
  0x80, 0x00, 0x00, 0x00, 0x04, 0x00, 0x00, 0x00, 0x9e, 0xee, 0xff, 0xff,
  0x00, 0x00, 0x00, 0x01, 0x18, 0x00, 0x00, 0x00, 0x20, 0x00, 0x00, 0x00,
  0x3c, 0x00, 0x00, 0x00, 0x1c, 0x00, 0x00, 0x00, 0x00, 0x00, 0x00, 0x03,
  0x50, 0x00, 0x00, 0x00, 0x02, 0x00, 0x00, 0x00, 0xff, 0xff, 0xff, 0xff,
  0x07, 0x00, 0x00, 0x00, 0x84, 0xee, 0xff, 0xff, 0x08, 0x00, 0x00, 0x00,
  0x10, 0x00, 0x00, 0x00, 0x01, 0x00, 0x00, 0x00, 0x00, 0x00, 0x00, 0x00,
  0x00, 0x00, 0x00, 0x00, 0x01, 0x00, 0x00, 0x00, 0x00, 0x00, 0x80, 0x3b,
  0x19, 0x00, 0x00, 0x00, 0x53, 0x74, 0x61, 0x74, 0x65, 0x66, 0x75, 0x6c,
  0x50, 0x61, 0x72, 0x74, 0x69, 0x74, 0x69, 0x6f, 0x6e, 0x65, 0x64, 0x43,
  0x61, 0x6c, 0x6c, 0x3a, 0x30, 0x00, 0x00, 0x00, 0x02, 0x00, 0x00, 0x00,
  0x01, 0x00, 0x00, 0x00, 0x07, 0x00, 0x00, 0x00, 0x16, 0xef, 0xff, 0xff,
  0x00, 0x00, 0x00, 0x01, 0x18, 0x00, 0x00, 0x00, 0x20, 0x00, 0x00, 0x00,
  0x3c, 0x00, 0x00, 0x00, 0x1b, 0x00, 0x00, 0x00, 0x00, 0x00, 0x00, 0x09,
  0x50, 0x00, 0x00, 0x00, 0x02, 0x00, 0x00, 0x00, 0xff, 0xff, 0xff, 0xff,
  0x07, 0x00, 0x00, 0x00, 0xfc, 0xee, 0xff, 0xff, 0x08, 0x00, 0x00, 0x00,
  0x10, 0x00, 0x00, 0x00, 0x01, 0x00, 0x00, 0x00, 0x80, 0xff, 0xff, 0xff,
  0xff, 0xff, 0xff, 0xff, 0x01, 0x00, 0x00, 0x00, 0x00, 0x00, 0x80, 0x3b,
  0x1a, 0x00, 0x00, 0x00, 0x53, 0x74, 0x61, 0x74, 0x65, 0x66, 0x75, 0x6c,
  0x50, 0x61, 0x72, 0x74, 0x69, 0x74, 0x69, 0x6f, 0x6e, 0x65, 0x64, 0x43,
  0x61, 0x6c, 0x6c, 0x3a, 0x30, 0x31, 0x00, 0x00, 0x02, 0x00, 0x00, 0x00,
  0x01, 0x00, 0x00, 0x00, 0x07, 0x00, 0x00, 0x00, 0x8e, 0xef, 0xff, 0xff,
  0x00, 0x00, 0x00, 0x01, 0x18, 0x00, 0x00, 0x00, 0x20, 0x00, 0x00, 0x00,
  0x40, 0x00, 0x00, 0x00, 0x1a, 0x00, 0x00, 0x00, 0x00, 0x00, 0x00, 0x09,
  0x78, 0x00, 0x00, 0x00, 0x02, 0x00, 0x00, 0x00, 0xff, 0xff, 0xff, 0xff,
  0x07, 0x00, 0x00, 0x00, 0x74, 0xef, 0xff, 0xff, 0x08, 0x00, 0x00, 0x00,
  0x14, 0x00, 0x00, 0x00, 0x01, 0x00, 0x00, 0x00, 0xfa, 0xff, 0xff, 0xff,
  0xff, 0xff, 0xff, 0xff, 0x00, 0x00, 0x00, 0x00, 0x01, 0x00, 0x00, 0x00,
  0xcb, 0xd8, 0x15, 0x3d, 0x3c, 0x00, 0x00, 0x00, 0x73, 0x65, 0x71, 0x75,
  0x65, 0x6e, 0x74, 0x69, 0x61, 0x6c, 0x5f, 0x31, 0x38, 0x2f, 0x64, 0x65,
  0x6e, 0x73, 0x65, 0x5f, 0x33, 0x37, 0x2f, 0x4d, 0x61, 0x74, 0x4d, 0x75,
  0x6c, 0x3b, 0x73, 0x65, 0x71, 0x75, 0x65, 0x6e, 0x74, 0x69, 0x61, 0x6c,
  0x5f, 0x31, 0x38, 0x2f, 0x64, 0x65, 0x6e, 0x73, 0x65, 0x5f, 0x33, 0x37,
  0x2f, 0x42, 0x69, 0x61, 0x73, 0x41, 0x64, 0x64, 0x00, 0x00, 0x00, 0x00,
  0x02, 0x00, 0x00, 0x00, 0x01, 0x00, 0x00, 0x00, 0x07, 0x00, 0x00, 0x00,
  0x2e, 0xf0, 0xff, 0xff, 0x00, 0x00, 0x00, 0x01, 0x18, 0x00, 0x00, 0x00,
  0x20, 0x00, 0x00, 0x00, 0x3c, 0x00, 0x00, 0x00, 0x19, 0x00, 0x00, 0x00,
  0x00, 0x00, 0x00, 0x09, 0xf8, 0x00, 0x00, 0x00, 0x02, 0x00, 0x00, 0x00,
  0xff, 0xff, 0xff, 0xff, 0x08, 0x00, 0x00, 0x00, 0x14, 0xf0, 0xff, 0xff,
  0x08, 0x00, 0x00, 0x00, 0x10, 0x00, 0x00, 0x00, 0x01, 0x00, 0x00, 0x00,
  0x80, 0xff, 0xff, 0xff, 0xff, 0xff, 0xff, 0xff, 0x01, 0x00, 0x00, 0x00,
  0x4c, 0x75, 0x2d, 0x3c, 0xc2, 0x00, 0x00, 0x00, 0x73, 0x65, 0x71, 0x75,
  0x65, 0x6e, 0x74, 0x69, 0x61, 0x6c, 0x5f, 0x31, 0x38, 0x2f, 0x64, 0x65,
  0x6e, 0x73, 0x65, 0x5f, 0x33, 0x36, 0x2f, 0x4d, 0x61, 0x74, 0x4d, 0x75,
  0x6c, 0x3b, 0x73, 0x65, 0x71, 0x75, 0x65, 0x6e, 0x74, 0x69, 0x61, 0x6c,
  0x5f, 0x31, 0x38, 0x2f, 0x64, 0x65, 0x6e, 0x73, 0x65, 0x5f, 0x33, 0x36,
  0x2f, 0x42, 0x69, 0x61, 0x73, 0x41, 0x64, 0x64, 0x3b, 0x73, 0x65, 0x71,
  0x75, 0x65, 0x6e, 0x74, 0x69, 0x61, 0x6c, 0x5f, 0x31, 0x38, 0x2f, 0x62,
  0x61, 0x74, 0x63, 0x68, 0x5f, 0x6e, 0x6f, 0x72, 0x6d, 0x61, 0x6c, 0x69,
  0x7a, 0x61, 0x74, 0x69, 0x6f, 0x6e, 0x5f, 0x35, 0x36, 0x2f, 0x62, 0x61,
  0x74, 0x63, 0x68, 0x6e, 0x6f, 0x72, 0x6d, 0x2f, 0x6d, 0x75, 0x6c, 0x5f,
  0x31, 0x3b, 0x73, 0x65, 0x71, 0x75, 0x65, 0x6e, 0x74, 0x69, 0x61, 0x6c,
  0x5f, 0x31, 0x38, 0x2f, 0x72, 0x65, 0x5f, 0x6c, 0x75, 0x5f, 0x35, 0x36,
  0x2f, 0x52, 0x65, 0x6c, 0x75, 0x3b, 0x73, 0x65, 0x71, 0x75, 0x65, 0x6e,
  0x74, 0x69, 0x61, 0x6c, 0x5f, 0x31, 0x38, 0x2f, 0x62, 0x61, 0x74, 0x63,
  0x68, 0x5f, 0x6e, 0x6f, 0x72, 0x6d, 0x61, 0x6c, 0x69, 0x7a, 0x61, 0x74,
  0x69, 0x6f, 0x6e, 0x5f, 0x35, 0x36, 0x2f, 0x62, 0x61, 0x74, 0x63, 0x68,
  0x6e, 0x6f, 0x72, 0x6d, 0x2f, 0x61, 0x64, 0x64, 0x5f, 0x31, 0x00, 0x00,
  0x02, 0x00, 0x00, 0x00, 0x01, 0x00, 0x00, 0x00, 0x08, 0x00, 0x00, 0x00,
  0x4e, 0xf1, 0xff, 0xff, 0x00, 0x00, 0x00, 0x01, 0x18, 0x00, 0x00, 0x00,
  0x20, 0x00, 0x00, 0x00, 0x3c, 0x00, 0x00, 0x00, 0x18, 0x00, 0x00, 0x00,
  0x00, 0x00, 0x00, 0x09, 0x58, 0x00, 0x00, 0x00, 0x02, 0x00, 0x00, 0x00,
  0xff, 0xff, 0xff, 0xff, 0x40, 0x00, 0x00, 0x00, 0x34, 0xf1, 0xff, 0xff,
  0x08, 0x00, 0x00, 0x00, 0x10, 0x00, 0x00, 0x00, 0x01, 0x00, 0x00, 0x00,
  0x80, 0xff, 0xff, 0xff, 0xff, 0xff, 0xff, 0xff, 0x01, 0x00, 0x00, 0x00,
  0xa7, 0x20, 0x44, 0x3c, 0x20, 0x00, 0x00, 0x00, 0x73, 0x65, 0x71, 0x75,
  0x65, 0x6e, 0x74, 0x69, 0x61, 0x6c, 0x5f, 0x31, 0x38, 0x2f, 0x66, 0x6c,
  0x61, 0x74, 0x74, 0x65, 0x6e, 0x5f, 0x31, 0x38, 0x2f, 0x52, 0x65, 0x73,
  0x68, 0x61, 0x70, 0x65, 0x00, 0x00, 0x00, 0x00, 0x02, 0x00, 0x00, 0x00,
  0x01, 0x00, 0x00, 0x00, 0x40, 0x00, 0x00, 0x00, 0xce, 0xf1, 0xff, 0xff,
  0x00, 0x00, 0x00, 0x01, 0x18, 0x00, 0x00, 0x00, 0x28, 0x00, 0x00, 0x00,
  0x48, 0x00, 0x00, 0x00, 0x17, 0x00, 0x00, 0x00, 0x00, 0x00, 0x00, 0x09,
  0x68, 0x00, 0x00, 0x00, 0x04, 0x00, 0x00, 0x00, 0xff, 0xff, 0xff, 0xff,
  0x04, 0x00, 0x00, 0x00, 0x02, 0x00, 0x00, 0x00, 0x08, 0x00, 0x00, 0x00,
  0xbc, 0xf1, 0xff, 0xff, 0x08, 0x00, 0x00, 0x00, 0x14, 0x00, 0x00, 0x00,
  0x01, 0x00, 0x00, 0x00, 0x80, 0xff, 0xff, 0xff, 0xff, 0xff, 0xff, 0xff,
  0x00, 0x00, 0x00, 0x00, 0x01, 0x00, 0x00, 0x00, 0xa7, 0x20, 0x44, 0x3c,
  0x26, 0x00, 0x00, 0x00, 0x73, 0x65, 0x71, 0x75, 0x65, 0x6e, 0x74, 0x69,
  0x61, 0x6c, 0x5f, 0x31, 0x38, 0x2f, 0x6d, 0x61, 0x78, 0x5f, 0x70, 0x6f,
  0x6f, 0x6c, 0x69, 0x6e, 0x67, 0x32, 0x64, 0x5f, 0x31, 0x38, 0x2f, 0x4d,
  0x61, 0x78, 0x50, 0x6f, 0x6f, 0x6c, 0x00, 0x00, 0x04, 0x00, 0x00, 0x00,
  0x01, 0x00, 0x00, 0x00, 0x04, 0x00, 0x00, 0x00, 0x02, 0x00, 0x00, 0x00,
  0x08, 0x00, 0x00, 0x00, 0x66, 0xf2, 0xff, 0xff, 0x00, 0x00, 0x00, 0x01,
  0x18, 0x00, 0x00, 0x00, 0x28, 0x00, 0x00, 0x00, 0x44, 0x00, 0x00, 0x00,
  0x16, 0x00, 0x00, 0x00, 0x00, 0x00, 0x00, 0x09, 0x00, 0x01, 0x00, 0x00,
  0x04, 0x00, 0x00, 0x00, 0xff, 0xff, 0xff, 0xff, 0x08, 0x00, 0x00, 0x00,
  0x04, 0x00, 0x00, 0x00, 0x08, 0x00, 0x00, 0x00, 0x54, 0xf2, 0xff, 0xff,
  0x08, 0x00, 0x00, 0x00, 0x10, 0x00, 0x00, 0x00, 0x01, 0x00, 0x00, 0x00,
  0x80, 0xff, 0xff, 0xff, 0xff, 0xff, 0xff, 0xff, 0x01, 0x00, 0x00, 0x00,
  0xa7, 0x20, 0x44, 0x3c, 0xc0, 0x00, 0x00, 0x00, 0x73, 0x65, 0x71, 0x75,
  0x65, 0x6e, 0x74, 0x69, 0x61, 0x6c, 0x5f, 0x31, 0x38, 0x2f, 0x72, 0x65,
  0x5f, 0x6c, 0x75, 0x5f, 0x35, 0x35, 0x2f, 0x52, 0x65, 0x6c, 0x75, 0x3b,
  0x73, 0x65, 0x71, 0x75, 0x65, 0x6e, 0x74, 0x69, 0x61, 0x6c, 0x5f, 0x31,
  0x38, 0x2f, 0x62, 0x61, 0x74, 0x63, 0x68, 0x5f, 0x6e, 0x6f, 0x72, 0x6d,
  0x61, 0x6c, 0x69, 0x7a, 0x61, 0x74, 0x69, 0x6f, 0x6e, 0x5f, 0x35, 0x35,
  0x2f, 0x46, 0x75, 0x73, 0x65, 0x64, 0x42, 0x61, 0x74, 0x63, 0x68, 0x4e,
  0x6f, 0x72, 0x6d, 0x56, 0x33, 0x3b, 0x73, 0x65, 0x71, 0x75, 0x65, 0x6e,
  0x74, 0x69, 0x61, 0x6c, 0x5f, 0x31, 0x38, 0x2f, 0x63, 0x6f, 0x6e, 0x76,
  0x32, 0x64, 0x5f, 0x33, 0x37, 0x2f, 0x42, 0x69, 0x61, 0x73, 0x41, 0x64,
  0x64, 0x2f, 0x52, 0x65, 0x61, 0x64, 0x56, 0x61, 0x72, 0x69, 0x61, 0x62,
  0x6c, 0x65, 0x4f, 0x70, 0x3b, 0x73, 0x65, 0x71, 0x75, 0x65, 0x6e, 0x74,
  0x69, 0x61, 0x6c, 0x5f, 0x31, 0x38, 0x2f, 0x63, 0x6f, 0x6e, 0x76, 0x32,
  0x64, 0x5f, 0x33, 0x37, 0x2f, 0x42, 0x69, 0x61, 0x73, 0x41, 0x64, 0x64,
  0x3b, 0x73, 0x65, 0x71, 0x75, 0x65, 0x6e, 0x74, 0x69, 0x61, 0x6c, 0x5f,
  0x31, 0x38, 0x2f, 0x63, 0x6f, 0x6e, 0x76, 0x32, 0x64, 0x5f, 0x33, 0x37,
  0x2f, 0x43, 0x6f, 0x6e, 0x76, 0x32, 0x44, 0x31, 0x00, 0x00, 0x00, 0x00,
  0x04, 0x00, 0x00, 0x00, 0x01, 0x00, 0x00, 0x00, 0x08, 0x00, 0x00, 0x00,
  0x04, 0x00, 0x00, 0x00, 0x08, 0x00, 0x00, 0x00, 0x96, 0xf3, 0xff, 0xff,
  0x00, 0x00, 0x00, 0x01, 0x18, 0x00, 0x00, 0x00, 0x28, 0x00, 0x00, 0x00,
  0x44, 0x00, 0x00, 0x00, 0x15, 0x00, 0x00, 0x00, 0x00, 0x00, 0x00, 0x09,
  0x00, 0x01, 0x00, 0x00, 0x04, 0x00, 0x00, 0x00, 0xff, 0xff, 0xff, 0xff,
  0x08, 0x00, 0x00, 0x00, 0x04, 0x00, 0x00, 0x00, 0x10, 0x00, 0x00, 0x00,
  0x84, 0xf3, 0xff, 0xff, 0x08, 0x00, 0x00, 0x00, 0x10, 0x00, 0x00, 0x00,
  0x01, 0x00, 0x00, 0x00, 0x80, 0xff, 0xff, 0xff, 0xff, 0xff, 0xff, 0xff,
  0x01, 0x00, 0x00, 0x00, 0xf5, 0xc9, 0x58, 0x3c, 0xc0, 0x00, 0x00, 0x00,
  0x73, 0x65, 0x71, 0x75, 0x65, 0x6e, 0x74, 0x69, 0x61, 0x6c, 0x5f, 0x31,
  0x38, 0x2f, 0x72, 0x65, 0x5f, 0x6c, 0x75, 0x5f, 0x35, 0x34, 0x2f, 0x52,
  0x65, 0x6c, 0x75, 0x3b, 0x73, 0x65, 0x71, 0x75, 0x65, 0x6e, 0x74, 0x69,
  0x61, 0x6c, 0x5f, 0x31, 0x38, 0x2f, 0x62, 0x61, 0x74, 0x63, 0x68, 0x5f,
  0x6e, 0x6f, 0x72, 0x6d, 0x61, 0x6c, 0x69, 0x7a, 0x61, 0x74, 0x69, 0x6f,
  0x6e, 0x5f, 0x35, 0x34, 0x2f, 0x46, 0x75, 0x73, 0x65, 0x64, 0x42, 0x61,
  0x74, 0x63, 0x68, 0x4e, 0x6f, 0x72, 0x6d, 0x56, 0x33, 0x3b, 0x73, 0x65,
  0x71, 0x75, 0x65, 0x6e, 0x74, 0x69, 0x61, 0x6c, 0x5f, 0x31, 0x38, 0x2f,
  0x63, 0x6f, 0x6e, 0x76, 0x32, 0x64, 0x5f, 0x33, 0x36, 0x2f, 0x42, 0x69,
  0x61, 0x73, 0x41, 0x64, 0x64, 0x2f, 0x52, 0x65, 0x61, 0x64, 0x56, 0x61,
  0x72, 0x69, 0x61, 0x62, 0x6c, 0x65, 0x4f, 0x70, 0x3b, 0x73, 0x65, 0x71,
  0x75, 0x65, 0x6e, 0x74, 0x69, 0x61, 0x6c, 0x5f, 0x31, 0x38, 0x2f, 0x63,
  0x6f, 0x6e, 0x76, 0x32, 0x64, 0x5f, 0x33, 0x36, 0x2f, 0x42, 0x69, 0x61,
  0x73, 0x41, 0x64, 0x64, 0x3b, 0x73, 0x65, 0x71, 0x75, 0x65, 0x6e, 0x74,
  0x69, 0x61, 0x6c, 0x5f, 0x31, 0x38, 0x2f, 0x63, 0x6f, 0x6e, 0x76, 0x32,
  0x64, 0x5f, 0x33, 0x36, 0x2f, 0x43, 0x6f, 0x6e, 0x76, 0x32, 0x44, 0x31,
  0x00, 0x00, 0x00, 0x00, 0x04, 0x00, 0x00, 0x00, 0x01, 0x00, 0x00, 0x00,
  0x08, 0x00, 0x00, 0x00, 0x04, 0x00, 0x00, 0x00, 0x10, 0x00, 0x00, 0x00,
  0xc6, 0xf4, 0xff, 0xff, 0x00, 0x00, 0x00, 0x01, 0x18, 0x00, 0x00, 0x00,
  0x28, 0x00, 0x00, 0x00, 0x48, 0x00, 0x00, 0x00, 0x14, 0x00, 0x00, 0x00,
  0x00, 0x00, 0x00, 0x09, 0x64, 0x00, 0x00, 0x00, 0x04, 0x00, 0x00, 0x00,
  0xff, 0xff, 0xff, 0xff, 0x08, 0x00, 0x00, 0x00, 0x04, 0x00, 0x00, 0x00,
  0x03, 0x00, 0x00, 0x00, 0xb4, 0xf4, 0xff, 0xff, 0x08, 0x00, 0x00, 0x00,
  0x14, 0x00, 0x00, 0x00, 0x01, 0x00, 0x00, 0x00, 0xf9, 0xff, 0xff, 0xff,
  0xff, 0xff, 0xff, 0xff, 0x00, 0x00, 0x00, 0x00, 0x01, 0x00, 0x00, 0x00,
  0x95, 0x8b, 0xab, 0x3c, 0x20, 0x00, 0x00, 0x00, 0x73, 0x65, 0x71, 0x75,
  0x65, 0x6e, 0x74, 0x69, 0x61, 0x6c, 0x5f, 0x31, 0x38, 0x2f, 0x72, 0x65,
  0x73, 0x68, 0x61, 0x70, 0x65, 0x5f, 0x31, 0x38, 0x2f, 0x52, 0x65, 0x73,
  0x68, 0x61, 0x70, 0x65, 0x00, 0x00, 0x00, 0x00, 0x04, 0x00, 0x00, 0x00,
  0x01, 0x00, 0x00, 0x00, 0x08, 0x00, 0x00, 0x00, 0x04, 0x00, 0x00, 0x00,
  0x03, 0x00, 0x00, 0x00, 0xd2, 0xf5, 0xff, 0xff, 0x00, 0x00, 0x00, 0x01,
  0x14, 0x00, 0x00, 0x00, 0x14, 0x00, 0x00, 0x00, 0x13, 0x00, 0x00, 0x00,
  0x00, 0x00, 0x00, 0x02, 0x34, 0x00, 0x00, 0x00, 0xbc, 0xf5, 0xff, 0xff,
  0x26, 0x00, 0x00, 0x00, 0x73, 0x65, 0x71, 0x75, 0x65, 0x6e, 0x74, 0x69,
  0x61, 0x6c, 0x5f, 0x31, 0x38, 0x2f, 0x72, 0x65, 0x73, 0x68, 0x61, 0x70,
  0x65, 0x5f, 0x31, 0x38, 0x2f, 0x52, 0x65, 0x73, 0x68, 0x61, 0x70, 0x65,
  0x2f, 0x73, 0x68, 0x61, 0x70, 0x65, 0x00, 0x00, 0x01, 0x00, 0x00, 0x00,
  0x04, 0x00, 0x00, 0x00, 0x26, 0xf6, 0xff, 0xff, 0x00, 0x00, 0x00, 0x01,
  0x14, 0x00, 0x00, 0x00, 0x14, 0x00, 0x00, 0x00, 0x12, 0x00, 0x00, 0x00,
  0x00, 0x00, 0x00, 0x02, 0x34, 0x00, 0x00, 0x00, 0x10, 0xf6, 0xff, 0xff,
  0x26, 0x00, 0x00, 0x00, 0x73, 0x65, 0x71, 0x75, 0x65, 0x6e, 0x74, 0x69,
  0x61, 0x6c, 0x5f, 0x31, 0x38, 0x2f, 0x72, 0x65, 0x73, 0x68, 0x61, 0x70,
  0x65, 0x5f, 0x31, 0x38, 0x2f, 0x73, 0x74, 0x72, 0x69, 0x64, 0x65, 0x64,
  0x5f, 0x73, 0x6c, 0x69, 0x63, 0x65, 0x00, 0x00, 0x00, 0x00, 0x00, 0x00,
  0x76, 0xf6, 0xff, 0xff, 0x00, 0x00, 0x00, 0x01, 0x14, 0x00, 0x00, 0x00,
  0x14, 0x00, 0x00, 0x00, 0x11, 0x00, 0x00, 0x00, 0x00, 0x00, 0x00, 0x02,
  0x2c, 0x00, 0x00, 0x00, 0x60, 0xf6, 0xff, 0xff, 0x1e, 0x00, 0x00, 0x00,
  0x73, 0x65, 0x71, 0x75, 0x65, 0x6e, 0x74, 0x69, 0x61, 0x6c, 0x5f, 0x31,
  0x38, 0x2f, 0x72, 0x65, 0x73, 0x68, 0x61, 0x70, 0x65, 0x5f, 0x31, 0x38,
  0x2f, 0x53, 0x68, 0x61, 0x70, 0x65, 0x00, 0x00, 0x01, 0x00, 0x00, 0x00,
  0x03, 0x00, 0x00, 0x00, 0x4a, 0xf6, 0xff, 0xff, 0x00, 0x00, 0x00, 0x01,
  0x18, 0x00, 0x00, 0x00, 0x24, 0x00, 0x00, 0x00, 0x40, 0x00, 0x00, 0x00,
  0x10, 0x00, 0x00, 0x00, 0x00, 0x00, 0x00, 0x09, 0x48, 0x00, 0x00, 0x00,
  0x03, 0x00, 0x00, 0x00, 0xff, 0xff, 0xff, 0xff, 0x20, 0x00, 0x00, 0x00,
  0x03, 0x00, 0x00, 0x00, 0x34, 0xf6, 0xff, 0xff, 0x08, 0x00, 0x00, 0x00,
  0x10, 0x00, 0x00, 0x00, 0x01, 0x00, 0x00, 0x00, 0xf9, 0xff, 0xff, 0xff,
  0xff, 0xff, 0xff, 0xff, 0x01, 0x00, 0x00, 0x00, 0x95, 0x8b, 0xab, 0x3c,
  0x0c, 0x00, 0x00, 0x00, 0x74, 0x66, 0x6c, 0x2e, 0x71, 0x75, 0x61, 0x6e,
  0x74, 0x69, 0x7a, 0x65, 0x00, 0x00, 0x00, 0x00, 0x03, 0x00, 0x00, 0x00,
  0x01, 0x00, 0x00, 0x00, 0x20, 0x00, 0x00, 0x00, 0x03, 0x00, 0x00, 0x00,
  0x36, 0xf7, 0xff, 0xff, 0x00, 0x00, 0x00, 0x01, 0x14, 0x00, 0x00, 0x00,
  0xe4, 0x00, 0x00, 0x00, 0x0f, 0x00, 0x00, 0x00, 0x00, 0x00, 0x00, 0x09,
  0xfc, 0x00, 0x00, 0x00, 0x94, 0xf6, 0xff, 0xff, 0x08, 0x00, 0x00, 0x00,
  0x88, 0x00, 0x00, 0x00, 0x10, 0x00, 0x00, 0x00, 0x00, 0x00, 0x00, 0x00,
  0x00, 0x00, 0x00, 0x00, 0x00, 0x00, 0x00, 0x00, 0x00, 0x00, 0x00, 0x00,
  0x00, 0x00, 0x00, 0x00, 0x00, 0x00, 0x00, 0x00, 0x00, 0x00, 0x00, 0x00,
  0x00, 0x00, 0x00, 0x00, 0x00, 0x00, 0x00, 0x00, 0x00, 0x00, 0x00, 0x00,
  0x00, 0x00, 0x00, 0x00, 0x00, 0x00, 0x00, 0x00, 0x00, 0x00, 0x00, 0x00,
  0x00, 0x00, 0x00, 0x00, 0x00, 0x00, 0x00, 0x00, 0x00, 0x00, 0x00, 0x00,
  0x00, 0x00, 0x00, 0x00, 0x00, 0x00, 0x00, 0x00, 0x00, 0x00, 0x00, 0x00,
  0x00, 0x00, 0x00, 0x00, 0x00, 0x00, 0x00, 0x00, 0x00, 0x00, 0x00, 0x00,
  0x00, 0x00, 0x00, 0x00, 0x00, 0x00, 0x00, 0x00, 0x00, 0x00, 0x00, 0x00,
  0x00, 0x00, 0x00, 0x00, 0x00, 0x00, 0x00, 0x00, 0x00, 0x00, 0x00, 0x00,
  0x00, 0x00, 0x00, 0x00, 0x00, 0x00, 0x00, 0x00, 0x00, 0x00, 0x00, 0x00,
  0x00, 0x00, 0x00, 0x00, 0x10, 0x00, 0x00, 0x00, 0x21, 0x08, 0x1c, 0x3b,
  0xaa, 0x39, 0x03, 0x3b, 0x95, 0x81, 0x7e, 0x3b, 0x8e, 0x88, 0x26, 0x3b,
  0x3e, 0x6f, 0x03, 0x3b, 0x95, 0x46, 0x83, 0x3b, 0x2c, 0xf7, 0x9b, 0x3b,
  0x49, 0x6b, 0x92, 0x3b, 0x19, 0x91, 0x2c, 0x3b, 0xe5, 0x4d, 0x05, 0x3b,
  0xc5, 0xbc, 0x11, 0x3b, 0x29, 0xc9, 0x3f, 0x3b, 0x4a, 0x63, 0x5c, 0x3b,
  0xb1, 0xf3, 0x27, 0x3b, 0xba, 0xf0, 0x7b, 0x3b, 0xec, 0x41, 0x2a, 0x3b,
  0x1e, 0x00, 0x00, 0x00, 0x73, 0x65, 0x71, 0x75, 0x65, 0x6e, 0x74, 0x69,
  0x61, 0x6c, 0x5f, 0x31, 0x38, 0x2f, 0x63, 0x6f, 0x6e, 0x76, 0x32, 0x64,
  0x5f, 0x33, 0x36, 0x2f, 0x43, 0x6f, 0x6e, 0x76, 0x32, 0x44, 0x00, 0x00,
  0x04, 0x00, 0x00, 0x00, 0x10, 0x00, 0x00, 0x00, 0x03, 0x00, 0x00, 0x00,
  0x03, 0x00, 0x00, 0x00, 0x03, 0x00, 0x00, 0x00, 0x5e, 0xf8, 0xff, 0xff,
  0x00, 0x00, 0x00, 0x01, 0x14, 0x00, 0x00, 0x00, 0xe8, 0x00, 0x00, 0x00,
  0x0e, 0x00, 0x00, 0x00, 0x00, 0x00, 0x00, 0x02, 0xa0, 0x01, 0x00, 0x00,
  0xbc, 0xf7, 0xff, 0xff, 0x08, 0x00, 0x00, 0x00, 0x8c, 0x00, 0x00, 0x00,
  0x10, 0x00, 0x00, 0x00, 0x00, 0x00, 0x00, 0x00, 0x00, 0x00, 0x00, 0x00,
  0x00, 0x00, 0x00, 0x00, 0x00, 0x00, 0x00, 0x00, 0x00, 0x00, 0x00, 0x00,
  0x00, 0x00, 0x00, 0x00, 0x00, 0x00, 0x00, 0x00, 0x00, 0x00, 0x00, 0x00,
  0x00, 0x00, 0x00, 0x00, 0x00, 0x00, 0x00, 0x00, 0x00, 0x00, 0x00, 0x00,
  0x00, 0x00, 0x00, 0x00, 0x00, 0x00, 0x00, 0x00, 0x00, 0x00, 0x00, 0x00,
  0x00, 0x00, 0x00, 0x00, 0x00, 0x00, 0x00, 0x00, 0x00, 0x00, 0x00, 0x00,
  0x00, 0x00, 0x00, 0x00, 0x00, 0x00, 0x00, 0x00, 0x00, 0x00, 0x00, 0x00,
  0x00, 0x00, 0x00, 0x00, 0x00, 0x00, 0x00, 0x00, 0x00, 0x00, 0x00, 0x00,
  0x00, 0x00, 0x00, 0x00, 0x00, 0x00, 0x00, 0x00, 0x00, 0x00, 0x00, 0x00,
  0x00, 0x00, 0x00, 0x00, 0x00, 0x00, 0x00, 0x00, 0x00, 0x00, 0x00, 0x00,
  0x00, 0x00, 0x00, 0x00, 0x00, 0x00, 0x00, 0x00, 0x00, 0x00, 0x00, 0x00,
  0x00, 0x00, 0x00, 0x00, 0x10, 0x00, 0x00, 0x00, 0x03, 0x1d, 0x51, 0x38,
  0x22, 0xde, 0x2f, 0x38, 0x53, 0x8b, 0xaa, 0x38, 0x08, 0x30, 0x5f, 0x38,
  0xf1, 0x25, 0x30, 0x38, 0x73, 0xef, 0xaf, 0x38, 0x49, 0x06, 0xd1, 0x38,
  0xfe, 0x3a, 0xc4, 0x38, 0x06, 0x46, 0x67, 0x38, 0x6e, 0xa7, 0x32, 0x38,
  0x1c, 0x51, 0x43, 0x38, 0xf0, 0x83, 0x80, 0x38, 0x7d, 0xae, 0x93, 0x38,
  0xb5, 0x16, 0x61, 0x38, 0x2b, 0xd3, 0xa8, 0x38, 0xbb, 0x2d, 0x64, 0x38,
  0xbf, 0x00, 0x00, 0x00, 0x73, 0x65, 0x71, 0x75, 0x65, 0x6e, 0x74, 0x69,
  0x61, 0x6c, 0x5f, 0x31, 0x38, 0x2f, 0x72, 0x65, 0x5f, 0x6c, 0x75, 0x5f,
  0x35, 0x34, 0x2f, 0x52, 0x65, 0x6c, 0x75, 0x3b, 0x73, 0x65, 0x71, 0x75,
  0x65, 0x6e, 0x74, 0x69, 0x61, 0x6c, 0x5f, 0x31, 0x38, 0x2f, 0x62, 0x61,
  0x74, 0x63, 0x68, 0x5f, 0x6e, 0x6f, 0x72, 0x6d, 0x61, 0x6c, 0x69, 0x7a,
  0x61, 0x74, 0x69, 0x6f, 0x6e, 0x5f, 0x35, 0x34, 0x2f, 0x46, 0x75, 0x73,
  0x65, 0x64, 0x42, 0x61, 0x74, 0x63, 0x68, 0x4e, 0x6f, 0x72, 0x6d, 0x56,
  0x33, 0x3b, 0x73, 0x65, 0x71, 0x75, 0x65, 0x6e, 0x74, 0x69, 0x61, 0x6c,
  0x5f, 0x31, 0x38, 0x2f, 0x63, 0x6f, 0x6e, 0x76, 0x32, 0x64, 0x5f, 0x33,
  0x36, 0x2f, 0x42, 0x69, 0x61, 0x73, 0x41, 0x64, 0x64, 0x2f, 0x52, 0x65,
  0x61, 0x64, 0x56, 0x61, 0x72, 0x69, 0x61, 0x62, 0x6c, 0x65, 0x4f, 0x70,
  0x3b, 0x73, 0x65, 0x71, 0x75, 0x65, 0x6e, 0x74, 0x69, 0x61, 0x6c, 0x5f,
  0x31, 0x38, 0x2f, 0x63, 0x6f, 0x6e, 0x76, 0x32, 0x64, 0x5f, 0x33, 0x36,
  0x2f, 0x42, 0x69, 0x61, 0x73, 0x41, 0x64, 0x64, 0x3b, 0x73, 0x65, 0x71,
  0x75, 0x65, 0x6e, 0x74, 0x69, 0x61, 0x6c, 0x5f, 0x31, 0x38, 0x2f, 0x63,
  0x6f, 0x6e, 0x76, 0x32, 0x64, 0x5f, 0x33, 0x36, 0x2f, 0x43, 0x6f, 0x6e,
  0x76, 0x32, 0x44, 0x00, 0x01, 0x00, 0x00, 0x00, 0x10, 0x00, 0x00, 0x00,
  0x1e, 0xfa, 0xff, 0xff, 0x00, 0x00, 0x00, 0x01, 0x14, 0x00, 0x00, 0x00,
  0x84, 0x00, 0x00, 0x00, 0x0d, 0x00, 0x00, 0x00, 0x00, 0x00, 0x00, 0x09,
  0x9c, 0x00, 0x00, 0x00, 0x7c, 0xf9, 0xff, 0xff, 0x08, 0x00, 0x00, 0x00,
  0x48, 0x00, 0x00, 0x00, 0x08, 0x00, 0x00, 0x00, 0x00, 0x00, 0x00, 0x00,
  0x00, 0x00, 0x00, 0x00, 0x00, 0x00, 0x00, 0x00, 0x00, 0x00, 0x00, 0x00,
  0x00, 0x00, 0x00, 0x00, 0x00, 0x00, 0x00, 0x00, 0x00, 0x00, 0x00, 0x00,
  0x00, 0x00, 0x00, 0x00, 0x00, 0x00, 0x00, 0x00, 0x00, 0x00, 0x00, 0x00,
  0x00, 0x00, 0x00, 0x00, 0x00, 0x00, 0x00, 0x00, 0x00, 0x00, 0x00, 0x00,
  0x00, 0x00, 0x00, 0x00, 0x00, 0x00, 0x00, 0x00, 0x00, 0x00, 0x00, 0x00,
  0x08, 0x00, 0x00, 0x00, 0xcf, 0x09, 0xba, 0x3a, 0xb4, 0xa0, 0xeb, 0x3a,
  0x4a, 0xd2, 0xc3, 0x3a, 0xc7, 0xc4, 0xfe, 0x3a, 0xae, 0x8a, 0x0a, 0x3b,
  0xe3, 0xc4, 0xe8, 0x3a, 0x36, 0x0c, 0xfd, 0x3a, 0x1d, 0x7f, 0xa8, 0x3a,
  0x1e, 0x00, 0x00, 0x00, 0x73, 0x65, 0x71, 0x75, 0x65, 0x6e, 0x74, 0x69,
  0x61, 0x6c, 0x5f, 0x31, 0x38, 0x2f, 0x63, 0x6f, 0x6e, 0x76, 0x32, 0x64,
  0x5f, 0x33, 0x37, 0x2f, 0x43, 0x6f, 0x6e, 0x76, 0x32, 0x44, 0x00, 0x00,
  0x04, 0x00, 0x00, 0x00, 0x08, 0x00, 0x00, 0x00, 0x03, 0x00, 0x00, 0x00,
  0x03, 0x00, 0x00, 0x00, 0x10, 0x00, 0x00, 0x00, 0xe6, 0xfa, 0xff, 0xff,
  0x00, 0x00, 0x00, 0x01, 0x14, 0x00, 0x00, 0x00, 0x88, 0x00, 0x00, 0x00,
  0x0c, 0x00, 0x00, 0x00, 0x00, 0x00, 0x00, 0x02, 0x40, 0x01, 0x00, 0x00,
  0x44, 0xfa, 0xff, 0xff, 0x08, 0x00, 0x00, 0x00, 0x4c, 0x00, 0x00, 0x00,
  0x08, 0x00, 0x00, 0x00, 0x00, 0x00, 0x00, 0x00, 0x00, 0x00, 0x00, 0x00,
  0x00, 0x00, 0x00, 0x00, 0x00, 0x00, 0x00, 0x00, 0x00, 0x00, 0x00, 0x00,
  0x00, 0x00, 0x00, 0x00, 0x00, 0x00, 0x00, 0x00, 0x00, 0x00, 0x00, 0x00,
  0x00, 0x00, 0x00, 0x00, 0x00, 0x00, 0x00, 0x00, 0x00, 0x00, 0x00, 0x00,
  0x00, 0x00, 0x00, 0x00, 0x00, 0x00, 0x00, 0x00, 0x00, 0x00, 0x00, 0x00,
  0x00, 0x00, 0x00, 0x00, 0x00, 0x00, 0x00, 0x00, 0x00, 0x00, 0x00, 0x00,
  0x08, 0x00, 0x00, 0x00, 0x0a, 0x8b, 0x9d, 0x37, 0x7b, 0x89, 0xc7, 0x37,
  0xea, 0xd3, 0xa5, 0x37, 0x04, 0xbf, 0xd7, 0x37, 0x9d, 0xa4, 0xea, 0x37,
  0xc1, 0x1d, 0xc5, 0x37, 0xee, 0x49, 0xd6, 0x37, 0x2e, 0xb0, 0x8e, 0x37,
  0xbf, 0x00, 0x00, 0x00, 0x73, 0x65, 0x71, 0x75, 0x65, 0x6e, 0x74, 0x69,
  0x61, 0x6c, 0x5f, 0x31, 0x38, 0x2f, 0x72, 0x65, 0x5f, 0x6c, 0x75, 0x5f,
  0x35, 0x35, 0x2f, 0x52, 0x65, 0x6c, 0x75, 0x3b, 0x73, 0x65, 0x71, 0x75,
  0x65, 0x6e, 0x74, 0x69, 0x61, 0x6c, 0x5f, 0x31, 0x38, 0x2f, 0x62, 0x61,
  0x74, 0x63, 0x68, 0x5f, 0x6e, 0x6f, 0x72, 0x6d, 0x61, 0x6c, 0x69, 0x7a,
  0x61, 0x74, 0x69, 0x6f, 0x6e, 0x5f, 0x35, 0x35, 0x2f, 0x46, 0x75, 0x73,
  0x65, 0x64, 0x42, 0x61, 0x74, 0x63, 0x68, 0x4e, 0x6f, 0x72, 0x6d, 0x56,
  0x33, 0x3b, 0x73, 0x65, 0x71, 0x75, 0x65, 0x6e, 0x74, 0x69, 0x61, 0x6c,
  0x5f, 0x31, 0x38, 0x2f, 0x63, 0x6f, 0x6e, 0x76, 0x32, 0x64, 0x5f, 0x33,
  0x37, 0x2f, 0x42, 0x69, 0x61, 0x73, 0x41, 0x64, 0x64, 0x2f, 0x52, 0x65,
  0x61, 0x64, 0x56, 0x61, 0x72, 0x69, 0x61, 0x62, 0x6c, 0x65, 0x4f, 0x70,
  0x3b, 0x73, 0x65, 0x71, 0x75, 0x65, 0x6e, 0x74, 0x69, 0x61, 0x6c, 0x5f,
  0x31, 0x38, 0x2f, 0x63, 0x6f, 0x6e, 0x76, 0x32, 0x64, 0x5f, 0x33, 0x37,
  0x2f, 0x42, 0x69, 0x61, 0x73, 0x41, 0x64, 0x64, 0x3b, 0x73, 0x65, 0x71,
  0x75, 0x65, 0x6e, 0x74, 0x69, 0x61, 0x6c, 0x5f, 0x31, 0x38, 0x2f, 0x63,
  0x6f, 0x6e, 0x76, 0x32, 0x64, 0x5f, 0x33, 0x37, 0x2f, 0x43, 0x6f, 0x6e,
  0x76, 0x32, 0x44, 0x00, 0x01, 0x00, 0x00, 0x00, 0x08, 0x00, 0x00, 0x00,
  0x46, 0xfc, 0xff, 0xff, 0x00, 0x00, 0x00, 0x01, 0x14, 0x00, 0x00, 0x00,
  0x34, 0x00, 0x00, 0x00, 0x0b, 0x00, 0x00, 0x00, 0x00, 0x00, 0x00, 0x09,
  0x64, 0x00, 0x00, 0x00, 0xa4, 0xfb, 0xff, 0xff, 0x08, 0x00, 0x00, 0x00,
  0x14, 0x00, 0x00, 0x00, 0x01, 0x00, 0x00, 0x00, 0x00, 0x00, 0x00, 0x00,
  0x00, 0x00, 0x00, 0x00, 0x00, 0x00, 0x00, 0x00, 0x01, 0x00, 0x00, 0x00,
  0x7c, 0xf3, 0x2e, 0x3b, 0x34, 0x00, 0x00, 0x00, 0x73, 0x65, 0x71, 0x75,
  0x65, 0x6e, 0x74, 0x69, 0x61, 0x6c, 0x5f, 0x31, 0x38, 0x2f, 0x62, 0x61,
  0x74, 0x63, 0x68, 0x5f, 0x6e, 0x6f, 0x72, 0x6d, 0x61, 0x6c, 0x69, 0x7a,
  0x61, 0x74, 0x69, 0x6f, 0x6e, 0x5f, 0x35, 0x36, 0x2f, 0x62, 0x61, 0x74,
  0x63, 0x68, 0x6e, 0x6f, 0x72, 0x6d, 0x2f, 0x6d, 0x75, 0x6c, 0x5f, 0x31,
  0x00, 0x00, 0x00, 0x00, 0x02, 0x00, 0x00, 0x00, 0x08, 0x00, 0x00, 0x00,
  0x40, 0x00, 0x00, 0x00, 0xce, 0xfc, 0xff, 0xff, 0x00, 0x00, 0x00, 0x01,
  0x14, 0x00, 0x00, 0x00, 0x34, 0x00, 0x00, 0x00, 0x0a, 0x00, 0x00, 0x00,
  0x00, 0x00, 0x00, 0x02, 0x80, 0x00, 0x00, 0x00, 0x2c, 0xfc, 0xff, 0xff,
  0x08, 0x00, 0x00, 0x00, 0x14, 0x00, 0x00, 0x00, 0x01, 0x00, 0x00, 0x00,
  0x00, 0x00, 0x00, 0x00, 0x00, 0x00, 0x00, 0x00, 0x00, 0x00, 0x00, 0x00,
  0x01, 0x00, 0x00, 0x00, 0xbc, 0x08, 0x06, 0x38, 0x50, 0x00, 0x00, 0x00,
  0x73, 0x65, 0x71, 0x75, 0x65, 0x6e, 0x74, 0x69, 0x61, 0x6c, 0x5f, 0x31,
  0x38, 0x2f, 0x72, 0x65, 0x5f, 0x6c, 0x75, 0x5f, 0x35, 0x36, 0x2f, 0x52,
  0x65, 0x6c, 0x75, 0x3b, 0x73, 0x65, 0x71, 0x75, 0x65, 0x6e, 0x74, 0x69,
  0x61, 0x6c, 0x5f, 0x31, 0x38, 0x2f, 0x62, 0x61, 0x74, 0x63, 0x68, 0x5f,
  0x6e, 0x6f, 0x72, 0x6d, 0x61, 0x6c, 0x69, 0x7a, 0x61, 0x74, 0x69, 0x6f,
  0x6e, 0x5f, 0x35, 0x36, 0x2f, 0x62, 0x61, 0x74, 0x63, 0x68, 0x6e, 0x6f,
  0x72, 0x6d, 0x2f, 0x61, 0x64, 0x64, 0x5f, 0x31, 0x00, 0x00, 0x00, 0x00,
  0x01, 0x00, 0x00, 0x00, 0x08, 0x00, 0x00, 0x00, 0x6e, 0xfd, 0xff, 0xff,
  0x00, 0x00, 0x00, 0x01, 0x14, 0x00, 0x00, 0x00, 0x34, 0x00, 0x00, 0x00,
  0x09, 0x00, 0x00, 0x00, 0x00, 0x00, 0x00, 0x09, 0x4c, 0x00, 0x00, 0x00,
  0xcc, 0xfc, 0xff, 0xff, 0x08, 0x00, 0x00, 0x00, 0x14, 0x00, 0x00, 0x00,
  0x01, 0x00, 0x00, 0x00, 0x00, 0x00, 0x00, 0x00, 0x00, 0x00, 0x00, 0x00,
  0x00, 0x00, 0x00, 0x00, 0x01, 0x00, 0x00, 0x00, 0x3e, 0x0f, 0x14, 0x3c,
  0x1d, 0x00, 0x00, 0x00, 0x73, 0x65, 0x71, 0x75, 0x65, 0x6e, 0x74, 0x69,
  0x61, 0x6c, 0x5f, 0x31, 0x38, 0x2f, 0x64, 0x65, 0x6e, 0x73, 0x65, 0x5f,
  0x33, 0x37, 0x2f, 0x4d, 0x61, 0x74, 0x4d, 0x75, 0x6c, 0x00, 0x00, 0x00,
  0x02, 0x00, 0x00, 0x00, 0x07, 0x00, 0x00, 0x00, 0x08, 0x00, 0x00, 0x00,
  0xde, 0xfd, 0xff, 0xff, 0x00, 0x00, 0x00, 0x01, 0x14, 0x00, 0x00, 0x00,
  0x34, 0x00, 0x00, 0x00, 0x08, 0x00, 0x00, 0x00, 0x00, 0x00, 0x00, 0x02,
  0x5c, 0x00, 0x00, 0x00, 0x3c, 0xfd, 0xff, 0xff, 0x08, 0x00, 0x00, 0x00,
  0x14, 0x00, 0x00, 0x00, 0x01, 0x00, 0x00, 0x00, 0x00, 0x00, 0x00, 0x00,
  0x00, 0x00, 0x00, 0x00, 0x00, 0x00, 0x00, 0x00, 0x01, 0x00, 0x00, 0x00,
  0x48, 0xa4, 0xc8, 0x38, 0x2d, 0x00, 0x00, 0x00, 0x73, 0x65, 0x71, 0x75,
  0x65, 0x6e, 0x74, 0x69, 0x61, 0x6c, 0x5f, 0x31, 0x38, 0x2f, 0x64, 0x65,
  0x6e, 0x73, 0x65, 0x5f, 0x33, 0x37, 0x2f, 0x42, 0x69, 0x61, 0x73, 0x41,
  0x64, 0x64, 0x2f, 0x52, 0x65, 0x61, 0x64, 0x56, 0x61, 0x72, 0x69, 0x61,
  0x62, 0x6c, 0x65, 0x4f, 0x70, 0x00, 0x00, 0x00, 0x01, 0x00, 0x00, 0x00,
  0x07, 0x00, 0x00, 0x00, 0x5a, 0xfe, 0xff, 0xff, 0x00, 0x00, 0x00, 0x01,
  0x14, 0x00, 0x00, 0x00, 0x14, 0x00, 0x00, 0x00, 0x07, 0x00, 0x00, 0x00,
  0x00, 0x00, 0x00, 0x02, 0x2c, 0x00, 0x00, 0x00, 0x44, 0xfe, 0xff, 0xff,
  0x1e, 0x00, 0x00, 0x00, 0x73, 0x65, 0x71, 0x75, 0x65, 0x6e, 0x74, 0x69,
  0x61, 0x6c, 0x5f, 0x31, 0x38, 0x2f, 0x66, 0x6c, 0x61, 0x74, 0x74, 0x65,
  0x6e, 0x5f, 0x31, 0x38, 0x2f, 0x43, 0x6f, 0x6e, 0x73, 0x74, 0x00, 0x00,
  0x01, 0x00, 0x00, 0x00, 0x02, 0x00, 0x00, 0x00, 0xa6, 0xfe, 0xff, 0xff,
  0x00, 0x00, 0x00, 0x01, 0x14, 0x00, 0x00, 0x00, 0x14, 0x00, 0x00, 0x00,
  0x06, 0x00, 0x00, 0x00, 0x00, 0x00, 0x00, 0x02, 0x38, 0x00, 0x00, 0x00,
  0x90, 0xfe, 0xff, 0xff, 0x28, 0x00, 0x00, 0x00, 0x73, 0x65, 0x71, 0x75,
  0x65, 0x6e, 0x74, 0x69, 0x61, 0x6c, 0x5f, 0x31, 0x38, 0x2f, 0x72, 0x65,
  0x73, 0x68, 0x61, 0x70, 0x65, 0x5f, 0x31, 0x38, 0x2f, 0x52, 0x65, 0x73,
  0x68, 0x61, 0x70, 0x65, 0x2f, 0x73, 0x68, 0x61, 0x70, 0x65, 0x2f, 0x33,
  0x00, 0x00, 0x00, 0x00, 0x00, 0x00, 0x00, 0x00, 0xfa, 0xfe, 0xff, 0xff,
  0x00, 0x00, 0x00, 0x01, 0x14, 0x00, 0x00, 0x00, 0x14, 0x00, 0x00, 0x00,
  0x05, 0x00, 0x00, 0x00, 0x00, 0x00, 0x00, 0x02, 0x38, 0x00, 0x00, 0x00,
  0xe4, 0xfe, 0xff, 0xff, 0x28, 0x00, 0x00, 0x00, 0x73, 0x65, 0x71, 0x75,
  0x65, 0x6e, 0x74, 0x69, 0x61, 0x6c, 0x5f, 0x31, 0x38, 0x2f, 0x72, 0x65,
  0x73, 0x68, 0x61, 0x70, 0x65, 0x5f, 0x31, 0x38, 0x2f, 0x52, 0x65, 0x73,
  0x68, 0x61, 0x70, 0x65, 0x2f, 0x73, 0x68, 0x61, 0x70, 0x65, 0x2f, 0x32,
  0x00, 0x00, 0x00, 0x00, 0x00, 0x00, 0x00, 0x00, 0x4e, 0xff, 0xff, 0xff,
  0x00, 0x00, 0x00, 0x01, 0x14, 0x00, 0x00, 0x00, 0x14, 0x00, 0x00, 0x00,
  0x04, 0x00, 0x00, 0x00, 0x00, 0x00, 0x00, 0x02, 0x38, 0x00, 0x00, 0x00,
  0x38, 0xff, 0xff, 0xff, 0x28, 0x00, 0x00, 0x00, 0x73, 0x65, 0x71, 0x75,
  0x65, 0x6e, 0x74, 0x69, 0x61, 0x6c, 0x5f, 0x31, 0x38, 0x2f, 0x72, 0x65,
  0x73, 0x68, 0x61, 0x70, 0x65, 0x5f, 0x31, 0x38, 0x2f, 0x52, 0x65, 0x73,
  0x68, 0x61, 0x70, 0x65, 0x2f, 0x73, 0x68, 0x61, 0x70, 0x65, 0x2f, 0x31,
  0x00, 0x00, 0x00, 0x00, 0x00, 0x00, 0x00, 0x00, 0xa2, 0xff, 0xff, 0xff,
  0x00, 0x00, 0x00, 0x01, 0x14, 0x00, 0x00, 0x00, 0x14, 0x00, 0x00, 0x00,
  0x03, 0x00, 0x00, 0x00, 0x00, 0x00, 0x00, 0x02, 0x3c, 0x00, 0x00, 0x00,
  0x8c, 0xff, 0xff, 0xff, 0x2e, 0x00, 0x00, 0x00, 0x73, 0x65, 0x71, 0x75,
  0x65, 0x6e, 0x74, 0x69, 0x61, 0x6c, 0x5f, 0x31, 0x38, 0x2f, 0x72, 0x65,
  0x73, 0x68, 0x61, 0x70, 0x65, 0x5f, 0x31, 0x38, 0x2f, 0x73, 0x74, 0x72,
  0x69, 0x64, 0x65, 0x64, 0x5f, 0x73, 0x6c, 0x69, 0x63, 0x65, 0x2f, 0x73,
  0x74, 0x61, 0x63, 0x6b, 0x5f, 0x31, 0x00, 0x00, 0x01, 0x00, 0x00, 0x00,
  0x01, 0x00, 0x00, 0x00, 0x00, 0x00, 0x16, 0x00, 0x1c, 0x00, 0x18, 0x00,
  0x17, 0x00, 0x10, 0x00, 0x0c, 0x00, 0x08, 0x00, 0x00, 0x00, 0x00, 0x00,
  0x00, 0x00, 0x07, 0x00, 0x16, 0x00, 0x00, 0x00, 0x00, 0x00, 0x00, 0x01,
  0x18, 0x00, 0x00, 0x00, 0x18, 0x00, 0x00, 0x00, 0x02, 0x00, 0x00, 0x00,
  0x00, 0x00, 0x00, 0x02, 0x40, 0x00, 0x00, 0x00, 0x04, 0x00, 0x04, 0x00,
  0x04, 0x00, 0x00, 0x00, 0x2c, 0x00, 0x00, 0x00, 0x73, 0x65, 0x71, 0x75,
  0x65, 0x6e, 0x74, 0x69, 0x61, 0x6c, 0x5f, 0x31, 0x38, 0x2f, 0x72, 0x65,
  0x73, 0x68, 0x61, 0x70, 0x65, 0x5f, 0x31, 0x38, 0x2f, 0x73, 0x74, 0x72,
  0x69, 0x64, 0x65, 0x64, 0x5f, 0x73, 0x6c, 0x69, 0x63, 0x65, 0x2f, 0x73,
  0x74, 0x61, 0x63, 0x6b, 0x00, 0x00, 0x00, 0x00, 0x01, 0x00, 0x00, 0x00,
  0x01, 0x00, 0x00, 0x00, 0x00, 0x00, 0x16, 0x00, 0x20, 0x00, 0x1c, 0x00,
  0x1b, 0x00, 0x14, 0x00, 0x10, 0x00, 0x0c, 0x00, 0x00, 0x00, 0x00, 0x00,
  0x08, 0x00, 0x07, 0x00, 0x16, 0x00, 0x00, 0x00, 0x00, 0x00, 0x00, 0x01,
  0x18, 0x00, 0x00, 0x00, 0x30, 0x00, 0x00, 0x00, 0x50, 0x00, 0x00, 0x00,
  0x01, 0x00, 0x00, 0x00, 0x00, 0x00, 0x00, 0x03, 0x64, 0x00, 0x00, 0x00,
  0x03, 0x00, 0x00, 0x00, 0xff, 0xff, 0xff, 0xff, 0x20, 0x00, 0x00, 0x00,
  0x03, 0x00, 0x00, 0x00, 0x0c, 0x00, 0x0c, 0x00, 0x00, 0x00, 0x00, 0x00,
  0x08, 0x00, 0x04, 0x00, 0x0c, 0x00, 0x00, 0x00, 0x08, 0x00, 0x00, 0x00,
  0x14, 0x00, 0x00, 0x00, 0x01, 0x00, 0x00, 0x00, 0x79, 0x00, 0x00, 0x00,
  0x00, 0x00, 0x00, 0x00, 0x00, 0x00, 0x00, 0x00, 0x01, 0x00, 0x00, 0x00,
  0x95, 0x8b, 0xab, 0x3c, 0x1a, 0x00, 0x00, 0x00, 0x73, 0x65, 0x72, 0x76,
  0x69, 0x6e, 0x67, 0x5f, 0x64, 0x65, 0x66, 0x61, 0x75, 0x6c, 0x74, 0x5f,
  0x69, 0x6e, 0x70, 0x75, 0x74, 0x5f, 0x31, 0x39, 0x3a, 0x30, 0x00, 0x00,
  0x03, 0x00, 0x00, 0x00, 0x01, 0x00, 0x00, 0x00, 0x20, 0x00, 0x00, 0x00,
  0x03, 0x00, 0x00, 0x00, 0x09, 0x00, 0x00, 0x00, 0xac, 0x00, 0x00, 0x00,
  0x90, 0x00, 0x00, 0x00, 0x80, 0x00, 0x00, 0x00, 0x70, 0x00, 0x00, 0x00,
  0x60, 0x00, 0x00, 0x00, 0x4c, 0x00, 0x00, 0x00, 0x2c, 0x00, 0x00, 0x00,
  0x18, 0x00, 0x00, 0x00, 0x04, 0x00, 0x00, 0x00, 0xd0, 0xff, 0xff, 0xff,
  0x19, 0x00, 0x00, 0x00, 0x02, 0x00, 0x00, 0x00, 0x00, 0x00, 0x00, 0x19,
  0xe0, 0xff, 0xff, 0xff, 0x09, 0x00, 0x00, 0x00, 0x04, 0x00, 0x00, 0x00,
  0x00, 0x00, 0x00, 0x09, 0xf0, 0xff, 0xff, 0xff, 0x11, 0x00, 0x00, 0x00,
  0x02, 0x00, 0x00, 0x00, 0x00, 0x00, 0x00, 0x11, 0x0c, 0x00, 0x10, 0x00,
  0x0f, 0x00, 0x00, 0x00, 0x08, 0x00, 0x04, 0x00, 0x0c, 0x00, 0x00, 0x00,
  0x03, 0x00, 0x00, 0x00, 0x03, 0x00, 0x00, 0x00, 0x00, 0x00, 0x00, 0x03,
  0xd0, 0xff, 0xff, 0xff, 0x16, 0x00, 0x00, 0x00, 0x00, 0x00, 0x00, 0x16,
  0xdc, 0xff, 0xff, 0xff, 0x53, 0x00, 0x00, 0x00, 0x00, 0x00, 0x00, 0x53,
  0xe8, 0xff, 0xff, 0xff, 0x2d, 0x00, 0x00, 0x00, 0x00, 0x00, 0x00, 0x2d,
  0xf4, 0xff, 0xff, 0xff, 0x4d, 0x00, 0x00, 0x00, 0x00, 0x00, 0x00, 0x4d,
  0x0c, 0x00, 0x0c, 0x00, 0x0b, 0x00, 0x00, 0x00, 0x00, 0x00, 0x04, 0x00,
  0x0c, 0x00, 0x00, 0x00, 0x72, 0x00, 0x00, 0x00, 0x00, 0x00, 0x00, 0x72
 
};

#endif //Q8_DEMO_CNN_H