#ifndef Q8_DEMO_CNN_H
#define Q8_DEMO_CNN_H


static const unsigned int q8_demo_cnn_len = 8656;
static const unsigned char q8_demo_cnn[] = {
 0x1c, 0x00, 0x00, 0x00, 0x54, 0x46, 0x4c, 0x33, 0x14, 0x00, 0x20, 0x00,
  0x1c, 0x00, 0x18, 0x00, 0x14, 0x00, 0x10, 0x00, 0x0c, 0x00, 0x00, 0x00,
  0x08, 0x00, 0x04, 0x00, 0x14, 0x00, 0x00, 0x00, 0x1c, 0x00, 0x00, 0x00,
  0x80, 0x00, 0x00, 0x00, 0xd8, 0x00, 0x00, 0x00, 0xe4, 0x0b, 0x00, 0x00,
  0xf4, 0x0b, 0x00, 0x00, 0xe0, 0x20, 0x00, 0x00, 0x03, 0x00, 0x00, 0x00,
  0x01, 0x00, 0x00, 0x00, 0x04, 0x00, 0x00, 0x00, 0xf2, 0xf1, 0xff, 0xff,
  0x0c, 0x00, 0x00, 0x00, 0x1c, 0x00, 0x00, 0x00, 0x38, 0x00, 0x00, 0x00,
  0x0f, 0x00, 0x00, 0x00, 0x73, 0x65, 0x72, 0x76, 0x69, 0x6e, 0x67, 0x5f,
  0x64, 0x65, 0x66, 0x61, 0x75, 0x6c, 0x74, 0x00, 0x01, 0x00, 0x00, 0x00,
  0x04, 0x00, 0x00, 0x00, 0x9c, 0xff, 0xff, 0xff, 0x1b, 0x00, 0x00, 0x00,
  0x04, 0x00, 0x00, 0x00, 0x07, 0x00, 0x00, 0x00, 0x64, 0x65, 0x6e, 0x73,
  0x65, 0x5f, 0x31, 0x00, 0x01, 0x00, 0x00, 0x00, 0x04, 0x00, 0x00, 0x00,
  0xf6, 0xf1, 0xff, 0xff, 0x04, 0x00, 0x00, 0x00, 0x07, 0x00, 0x00, 0x00,
  0x69, 0x6e, 0x70, 0x75, 0x74, 0x5f, 0x31, 0x00, 0x02, 0x00, 0x00, 0x00,
  0x34, 0x00, 0x00, 0x00, 0x04, 0x00, 0x00, 0x00, 0xdc, 0xff, 0xff, 0xff,
  0x1e, 0x00, 0x00, 0x00, 0x04, 0x00, 0x00, 0x00, 0x13, 0x00, 0x00, 0x00,
  0x43, 0x4f, 0x4e, 0x56, 0x45, 0x52, 0x53, 0x49, 0x4f, 0x4e, 0x5f, 0x4d,
  0x45, 0x54, 0x41, 0x44, 0x41, 0x54, 0x41, 0x00, 0x08, 0x00, 0x0c, 0x00,
  0x08, 0x00, 0x04, 0x00, 0x08, 0x00, 0x00, 0x00, 0x1d, 0x00, 0x00, 0x00,
  0x04, 0x00, 0x00, 0x00, 0x13, 0x00, 0x00, 0x00, 0x6d, 0x69, 0x6e, 0x5f,
  0x72, 0x75, 0x6e, 0x74, 0x69, 0x6d, 0x65, 0x5f, 0x76, 0x65, 0x72, 0x73,
  0x69, 0x6f, 0x6e, 0x00, 0x1f, 0x00, 0x00, 0x00, 0x08, 0x0b, 0x00, 0x00,
  0x00, 0x0b, 0x00, 0x00, 0xec, 0x0a, 0x00, 0x00, 0xd8, 0x0a, 0x00, 0x00,
  0xc4, 0x0a, 0x00, 0x00, 0xb0, 0x0a, 0x00, 0x00, 0x9c, 0x0a, 0x00, 0x00,
  0x84, 0x0a, 0x00, 0x00, 0x54, 0x0a, 0x00, 0x00, 0x04, 0x0a, 0x00, 0x00,
  0xd4, 0x09, 0x00, 0x00, 0xc4, 0x07, 0x00, 0x00, 0x94, 0x07, 0x00, 0x00,
  0x04, 0x03, 0x00, 0x00, 0xb4, 0x02, 0x00, 0x00, 0xf4, 0x00, 0x00, 0x00,
  0xec, 0x00, 0x00, 0x00, 0xe4, 0x00, 0x00, 0x00, 0xdc, 0x00, 0x00, 0x00,
  0xd4, 0x00, 0x00, 0x00, 0xcc, 0x00, 0x00, 0x00, 0xc4, 0x00, 0x00, 0x00,
  0xbc, 0x00, 0x00, 0x00, 0xb4, 0x00, 0x00, 0x00, 0xac, 0x00, 0x00, 0x00,
  0xa4, 0x00, 0x00, 0x00, 0x9c, 0x00, 0x00, 0x00, 0x94, 0x00, 0x00, 0x00,
  0x8c, 0x00, 0x00, 0x00, 0x6c, 0x00, 0x00, 0x00, 0x04, 0x00, 0x00, 0x00,
  0xe6, 0xf2, 0xff, 0xff, 0x04, 0x00, 0x00, 0x00, 0x58, 0x00, 0x00, 0x00,
  0x0c, 0x00, 0x00, 0x00, 0x08, 0x00, 0x0e, 0x00, 0x08, 0x00, 0x04, 0x00,
  0x08, 0x00, 0x00, 0x00, 0x10, 0x00, 0x00, 0x00, 0x28, 0x00, 0x00, 0x00,
  0x00, 0x00, 0x06, 0x00, 0x08, 0x00, 0x04, 0x00, 0x06, 0x00, 0x00, 0x00,
  0x04, 0x00, 0x00, 0x00, 0x01, 0x00, 0x00, 0x00, 0xeb, 0x03, 0x00, 0x00,
  0x00, 0x00, 0x0a, 0x00, 0x10, 0x00, 0x0c, 0x00, 0x08, 0x00, 0x04, 0x00,
  0x0a, 0x00, 0x00, 0x00, 0x02, 0x00, 0x00, 0x00, 0x02, 0x00, 0x00, 0x00,
  0x04, 0x00, 0x00, 0x00, 0x06, 0x00, 0x00, 0x00, 0x32, 0x2e, 0x31, 0x35,
  0x2e, 0x30, 0x00, 0x00, 0x4a, 0xf3, 0xff, 0xff, 0x04, 0x00, 0x00, 0x00,
  0x10, 0x00, 0x00, 0x00, 0x31, 0x2e, 0x31, 0x34, 0x2e, 0x30, 0x00, 0x00,
  0x00, 0x00, 0x00, 0x00, 0x00, 0x00, 0x00, 0x00, 0xd0, 0xe1, 0xff, 0xff,
  0xd4, 0xe1, 0xff, 0xff, 0xd8, 0xe1, 0xff, 0xff, 0xdc, 0xe1, 0xff, 0xff,
  0xe0, 0xe1, 0xff, 0xff, 0xe4, 0xe1, 0xff, 0xff, 0xe8, 0xe1, 0xff, 0xff,
  0xec, 0xe1, 0xff, 0xff, 0xf0, 0xe1, 0xff, 0xff, 0xf4, 0xe1, 0xff, 0xff,
  0xf8, 0xe1, 0xff, 0xff, 0xfc, 0xe1, 0xff, 0xff, 0x00, 0xe2, 0xff, 0xff,
  0x9a, 0xf3, 0xff, 0xff, 0x04, 0x00, 0x00, 0x00, 0xb0, 0x01, 0x00, 0x00,
  0x41, 0x15, 0x2f, 0xc6, 0x00, 0x60, 0x06, 0x1e, 0xdd, 0x81, 0xdf, 0x52,
  0xc6, 0x4e, 0xeb, 0x16, 0x16, 0xe2, 0x51, 0xfa, 0x26, 0x17, 0xfb, 0x53,
  0xa2, 0x29, 0x47, 0x07, 0xa7, 0xc1, 0x04, 0x9d, 0x89, 0x42, 0x21, 0xe3,
  0xee, 0x2e, 0x4c, 0x5a, 0x08, 0x07, 0x36, 0xfa, 0xf1, 0x81, 0xf4, 0xf8,
  0x0c, 0xcc, 0x46, 0xd3, 0x31, 0x41, 0xd4, 0xf6, 0xc6, 0x3e, 0x1b, 0x52,
  0x44, 0x0c, 0xb4, 0x16, 0xf0, 0xe6, 0xe5, 0x34, 0x15, 0xff, 0x08, 0xa6,
  0x46, 0x14, 0xcb, 0x20, 0x16, 0x96, 0x6b, 0x7f, 0xb5, 0xc8, 0x42, 0x2a,
  0x07, 0x20, 0x81, 0xe2, 0xd2, 0xf8, 0x01, 0x13, 0xcd, 0xff, 0x98, 0x2f,
  0x57, 0x1a, 0xf7, 0xbd, 0xe7, 0x31, 0x46, 0xf5, 0x10, 0xef, 0x08, 0x2c,
  0x97, 0xe0, 0x0c, 0x03, 0x64, 0x8f, 0xc6, 0x2c, 0x1c, 0x23, 0xb0, 0x21,
  0xc1, 0xcc, 0x7f, 0x1f, 0xde, 0xfb, 0x2c, 0x0f, 0x18, 0x13, 0x14, 0x07,
  0xc5, 0x4a, 0x9e, 0xf0, 0x39, 0xe9, 0xe5, 0x42, 0xdc, 0x95, 0x1f, 0x7e,
  0x4b, 0x24, 0x8f, 0xca, 0x2f, 0x69, 0x5e, 0x01, 0x7f, 0x26, 0x2c, 0xe7,
  0xf0, 0x13, 0x14, 0x4f, 0x52, 0x40, 0x55, 0x7f, 0xbf, 0x3a, 0x4a, 0xbf,
  0xd0, 0xcc, 0xe4, 0xeb, 0x00, 0x32, 0x0a, 0x0f, 0xa6, 0xb7, 0xa4, 0xde,
  0x9b, 0x39, 0x18, 0xb9, 0x8c, 0xff, 0xd5, 0x05, 0x7f, 0xbd, 0xd6, 0xcb,
  0x2a, 0x1b, 0x02, 0xcf, 0x27, 0xe0, 0xf1, 0x7f, 0x25, 0xe0, 0x76, 0x3e,
  0x3b, 0x0c, 0x0b, 0xd9, 0xdc, 0x52, 0x21, 0x21, 0xff, 0xf5, 0xda, 0xeb,
  0xca, 0x31, 0x81, 0xa3, 0xcd, 0x19, 0xfa, 0xcf, 0x18, 0x3a, 0x3f, 0x49,
  0xf5, 0xbf, 0x2f, 0xf4, 0xe7, 0x52, 0xd2, 0x27, 0xc2, 0x3e, 0x00, 0xf9,
  0x2f, 0x34, 0x26, 0x0a, 0xd1, 0x1f, 0xda, 0xbd, 0x08, 0xe6, 0x22, 0xe9,
  0xde, 0x51, 0x1e, 0xd6, 0xf5, 0x1d, 0x03, 0x32, 0xea, 0x0e, 0xcb, 0xda,
  0xe5, 0xe5, 0x2d, 0x17, 0x81, 0x0b, 0xd6, 0xf2, 0x2f, 0xfc, 0x6c, 0xbc,
  0x17, 0x2a, 0x37, 0xc4, 0xac, 0x42, 0xd0, 0x81, 0x01, 0xae, 0xf2, 0x3e,
  0x53, 0x27, 0xe9, 0xe2, 0x4c, 0x26, 0x16, 0x35, 0xb4, 0x39, 0xe4, 0x10,
  0x7f, 0xf9, 0xcf, 0xfb, 0x19, 0x0b, 0x7c, 0x98, 0xae, 0x67, 0xd8, 0x5c,
  0x51, 0x12, 0x01, 0x19, 0xd5, 0x16, 0xbd, 0x00, 0x16, 0xff, 0x5f, 0x0d,
  0x38, 0xff, 0xb1, 0x11, 0x7f, 0x2c, 0xe5, 0x1e, 0x28, 0xc2, 0xfe, 0xf7,
  0x00, 0x0a, 0x2c, 0x04, 0x22, 0x1b, 0xaf, 0xd4, 0x2e, 0x15, 0x31, 0x07,
  0xdc, 0x06, 0xb9, 0x5f, 0x01, 0x49, 0x48, 0x96, 0x0f, 0x1f, 0xf0, 0x3a,
  0xd5, 0x85, 0xf5, 0x87, 0x0c, 0x25, 0x16, 0xba, 0x5b, 0x7f, 0x16, 0x62,
  0xc5, 0xb8, 0x6e, 0xb6, 0x4d, 0xef, 0x10, 0x5d, 0x0c, 0xec, 0x27, 0x29,
  0x81, 0x5d, 0x01, 0x1f, 0xf6, 0x9d, 0x8c, 0x83, 0xdf, 0x18, 0x4d, 0xbd,
  0xc6, 0x1f, 0xe1, 0x49, 0x47, 0x21, 0x2c, 0xe5, 0xf9, 0x7f, 0xce, 0xf9,
  0x47, 0x11, 0xfa, 0x05, 0xd2, 0xb0, 0xc0, 0x3c, 0xfe, 0xdf, 0x14, 0xf5,
  0xf5, 0x14, 0xe8, 0x3f, 0xe0, 0x1c, 0x38, 0x11, 0xfd, 0xf8, 0x41, 0xfe,
  0x56, 0xf5, 0xff, 0xff, 0x04, 0x00, 0x00, 0x00, 0x40, 0x00, 0x00, 0x00,
  0x8f, 0xfd, 0xff, 0xff, 0x76, 0x01, 0x00, 0x00, 0x91, 0xee, 0xff, 0xff,
  0xbe, 0xfe, 0xff, 0xff, 0x93, 0xfd, 0xff, 0xff, 0x0c, 0x0c, 0x00, 0x00,
  0x5f, 0x0c, 0x00, 0x00, 0x49, 0x00, 0x00, 0x00, 0xb8, 0xfb, 0xff, 0xff,
  0x72, 0xff, 0xff, 0xff, 0x80, 0xf3, 0xff, 0xff, 0xab, 0x0b, 0x00, 0x00,
  0x00, 0xf2, 0xff, 0xff, 0xce, 0xf1, 0xff, 0xff, 0x60, 0xfd, 0xff, 0xff,
  0xcb, 0xfd, 0xff, 0xff, 0xa2, 0xf5, 0xff, 0xff, 0x04, 0x00, 0x00, 0x00,
  0x80, 0x04, 0x00, 0x00, 0x28, 0xf3, 0xc8, 0x2b, 0x1f, 0x38, 0x81, 0x23,
  0xe5, 0x0f, 0xcd, 0x02, 0xc6, 0xe6, 0x31, 0x18, 0x1d, 0x18, 0xa8, 0x2b,
  0x30, 0x01, 0xb8, 0x26, 0x32, 0x36, 0xcc, 0xed, 0xb4, 0xb6, 0x3d, 0xfa,
  0xe9, 0x3b, 0xe3, 0x28, 0x13, 0x3f, 0xcc, 0x3f, 0x30, 0xe3, 0xfb, 0xfc,
  0xc9, 0xab, 0x47, 0x28, 0x07, 0xf2, 0xc8, 0x1c, 0x30, 0xde, 0x8d, 0x0e,
  0xda, 0x31, 0xbe, 0x33, 0xf8, 0x42, 0x16, 0x29, 0xe8, 0x05, 0xb9, 0x28,
  0x3d, 0x1a, 0xbb, 0xe5, 0xf0, 0x01, 0xeb, 0x48, 0xf0, 0xd0, 0xf7, 0xf0,
  0xa2, 0x23, 0xdf, 0xff, 0x2e, 0xf1, 0xbf, 0x05, 0x40, 0x0d, 0xfc, 0x20,
  0xc7, 0xbf, 0x13, 0xed, 0x1d, 0xbf, 0x8c, 0x1d, 0x0e, 0x1d, 0xcd, 0x39,
  0xd0, 0x01, 0xbe, 0xf0, 0xa5, 0x00, 0x07, 0x07, 0xd4, 0xd8, 0xaf, 0x2b,
  0x16, 0x42, 0xa3, 0xf7, 0xf7, 0x11, 0x07, 0xe3, 0xc8, 0xad, 0xf5, 0x21,
  0xd8, 0xb1, 0xb6, 0x36, 0xfd, 0xd1, 0xef, 0xfb, 0x51, 0x14, 0x17, 0xdd,
  0xd5, 0xbb, 0x04, 0xf4, 0x39, 0xc6, 0x05, 0x11, 0x00, 0x3a, 0xe5, 0xf1,
  0xe8, 0xe1, 0xed, 0x81, 0xbc, 0x09, 0x23, 0x0f, 0x71, 0xc0, 0xdd, 0x1b,
  0xd2, 0x05, 0xf4, 0xc3, 0xe7, 0xee, 0xdd, 0x8d, 0xc4, 0x18, 0x26, 0x21,
  0x55, 0x87, 0x1d, 0xe7, 0x13, 0xf8, 0x0a, 0xba, 0xf4, 0xf4, 0xb1, 0xa4,
  0xbf, 0xe3, 0x67, 0x34, 0x4a, 0x13, 0x8d, 0x55, 0xf4, 0xf8, 0x2a, 0x43,
  0x07, 0x00, 0xed, 0xd5, 0x2c, 0xc6, 0x14, 0x01, 0x2d, 0x2d, 0xb5, 0x50,
  0x26, 0x16, 0x10, 0x21, 0x00, 0xb8, 0xd4, 0x05, 0xc1, 0xc8, 0x2f, 0x1a,
  0x1c, 0x25, 0xf6, 0x3f, 0xd9, 0x3c, 0xdc, 0x36, 0x44, 0xcb, 0xfa, 0x3b,
  0xa8, 0xd8, 0xfb, 0x0a, 0x3c, 0x14, 0xc2, 0x16, 0xde, 0xd8, 0x13, 0x41,
  0x18, 0x29, 0xa2, 0x26, 0x02, 0xdc, 0x40, 0xf3, 0xfb, 0x3b, 0xa6, 0x47,
  0x13, 0xe9, 0xe4, 0xfd, 0x28, 0xdd, 0xc0, 0xf7, 0x05, 0xaf, 0x15, 0x0b,
  0x03, 0x42, 0xff, 0x07, 0x27, 0x04, 0xf9, 0x49, 0x22, 0xcc, 0xe6, 0x25,
  0xef, 0xc3, 0x04, 0xf3, 0xd8, 0xfc, 0xf4, 0xe3, 0xe3, 0x27, 0xe0, 0x02,
  0xb7, 0xe9, 0x39, 0xde, 0x69, 0x78, 0x1c, 0xf4, 0xd7, 0x53, 0xeb, 0x16,
  0xc9, 0x01, 0xd8, 0x05, 0xf1, 0xe9, 0xe0, 0xfa, 0xfd, 0x3a, 0x45, 0xae,
  0xa4, 0x33, 0xce, 0x2b, 0xbf, 0x00, 0xd3, 0xfb, 0xc1, 0x46, 0xa6, 0x11,
  0x0c, 0x40, 0x2c, 0x81, 0xd4, 0x44, 0xfb, 0x22, 0xe0, 0x0a, 0xf2, 0x05,
  0xa5, 0xc5, 0xd1, 0x38, 0x22, 0x23, 0xfc, 0xea, 0x03, 0x78, 0x00, 0x32,
  0xec, 0x29, 0x08, 0x04, 0xd5, 0xcb, 0xfe, 0x4f, 0x0a, 0x2d, 0xfa, 0x96,
  0x00, 0x0b, 0xda, 0x32, 0xf7, 0xf7, 0x12, 0x23, 0xee, 0x08, 0xee, 0x63,
  0x31, 0x06, 0x1c, 0xa3, 0x02, 0x23, 0x03, 0x22, 0xb2, 0xda, 0xf1, 0x2d,
  0xf0, 0xe2, 0xff, 0x3f, 0x11, 0x0c, 0xe2, 0xdd, 0x01, 0x50, 0xce, 0x27,
  0xf4, 0xc6, 0xe9, 0x4f, 0x07, 0x16, 0x1e, 0xfa, 0x47, 0x1d, 0xc7, 0xea,
  0x12, 0x39, 0xa6, 0x1b, 0xed, 0xd0, 0xe2, 0xf6, 0xdf, 0xf7, 0xd0, 0xf1,
  0x54, 0x06, 0xbb, 0xe4, 0x15, 0xd6, 0xee, 0xe4, 0xe8, 0x1c, 0x17, 0x2b,
  0x1a, 0xe8, 0xe4, 0xd6, 0xf6, 0x12, 0xd6, 0x19, 0x4d, 0x01, 0xf1, 0x9d,
  0xed, 0xf7, 0x17, 0x16, 0x1c, 0xf0, 0xe6, 0xe8, 0x1e, 0x61, 0x02, 0x29,
  0x29, 0xf6, 0xd3, 0x95, 0xf7, 0xfa, 0x1d, 0x11, 0x1e, 0xf1, 0xf1, 0x81,
  0x04, 0x21, 0xd7, 0xf3, 0xf8, 0xc4, 0x04, 0xf5, 0x12, 0x4c, 0xf8, 0x0b,
  0xf7, 0xb6, 0xcb, 0xa5, 0xfa, 0x03, 0x01, 0x48, 0x1e, 0x36, 0xf9, 0xc6,
  0x03, 0x14, 0xce, 0x08, 0x13, 0xdc, 0xf6, 0xb0, 0x21, 0x1b, 0x1d, 0xf7,
  0xe4, 0x04, 0x4d, 0xac, 0xfc, 0xee, 0xcf, 0xfc, 0x12, 0x03, 0x17, 0xd8,
  0xf2, 0x15, 0x17, 0x1a, 0xf8, 0x29, 0xec, 0x23, 0x22, 0x09, 0x02, 0x20,
  0xf5, 0x97, 0xec, 0xc7, 0xbe, 0xe0, 0x29, 0xf6, 0xf1, 0x47, 0x22, 0x10,
  0x30, 0x19, 0x0d, 0xcf, 0x29, 0xd2, 0x09, 0xdd, 0xd7, 0xd2, 0x38, 0x0b,
  0xcd, 0x4d, 0x4c, 0xfb, 0x0a, 0xf1, 0xfa, 0xb8, 0xed, 0xd2, 0x26, 0xe6,
  0xf5, 0xeb, 0x4c, 0x5e, 0xf3, 0xd3, 0x18, 0x2d, 0x81, 0x09, 0x21, 0x08,
  0xd4, 0x04, 0xb1, 0xbe, 0xe0, 0xc4, 0x2e, 0x1d, 0x2a, 0x03, 0xd4, 0x2b,
  0xc8, 0x0b, 0x13, 0xfd, 0x23, 0x2c, 0xa6, 0xc3, 0x08, 0xd3, 0xfe, 0xfc,
  0xd3, 0xf1, 0xb0, 0x52, 0x14, 0xfa, 0xe9, 0x5c, 0x2d, 0x0e, 0xbf, 0xdd,
  0xa5, 0xd6, 0xf6, 0xec, 0xd3, 0x27, 0x1c, 0xf5, 0xb5, 0x28, 0x13, 0x3b,
  0xfd, 0xe6, 0xb0, 0x1e, 0x2e, 0x01, 0xfb, 0x31, 0x00, 0x28, 0x13, 0x31,
  0xc9, 0x21, 0x0e, 0x2b, 0x23, 0xfe, 0x9f, 0x20, 0x33, 0xc1, 0xf4, 0x48,
  0xd7, 0x16, 0xef, 0x18, 0x09, 0x42, 0x29, 0x03, 0x06, 0x03, 0xbe, 0xe4,
  0xe2, 0xd8, 0x1d, 0xe9, 0x21, 0xf7, 0x22, 0x02, 0x93, 0xfd, 0x19, 0x0f,
  0xd1, 0x16, 0xc3, 0xcf, 0x2d, 0x03, 0x14, 0xd9, 0xd4, 0x17, 0xe9, 0x21,
  0xd4, 0x2b, 0x4e, 0xfe, 0x16, 0x03, 0xcb, 0xf0, 0x13, 0xe9, 0xf2, 0x0e,
  0xfa, 0x08, 0xfa, 0x12, 0xf3, 0x58, 0x22, 0x06, 0x50, 0xc5, 0xeb, 0xf0,
  0x19, 0xe0, 0xfc, 0xbd, 0x87, 0xfa, 0x10, 0x22, 0xe8, 0xe1, 0x4f, 0x08,
  0xae, 0xd6, 0xe9, 0xfa, 0x39, 0xb7, 0x29, 0xfa, 0xc7, 0x03, 0x4b, 0x4d,
  0x1a, 0x19, 0x2a, 0xf2, 0xc8, 0x99, 0x72, 0xc6, 0x44, 0xe1, 0x27, 0xb8,
  0xdb, 0x01, 0xfd, 0x4f, 0xc6, 0x3d, 0x23, 0xba, 0x8c, 0x81, 0x1b, 0xda,
  0x5e, 0x27, 0x13, 0xc5, 0x34, 0xff, 0xac, 0x29, 0x02, 0xa5, 0xf9, 0xce,
  0xf8, 0xec, 0xcb, 0xd5, 0xe2, 0x1a, 0x04, 0xc5, 0x14, 0x1a, 0xc4, 0x3f,
  0xf8, 0xd8, 0x2a, 0xa1, 0xf8, 0xe6, 0x2d, 0x1a, 0x0e, 0x2e, 0x14, 0xd9,
  0xdc, 0xf3, 0xf5, 0x2c, 0x1d, 0xf9, 0x23, 0xba, 0x06, 0xb7, 0x12, 0x20,
  0x1d, 0x57, 0x1a, 0x92, 0x07, 0x13, 0x0b, 0x3c, 0x05, 0x97, 0x3e, 0x3e,
  0x12, 0x15, 0xeb, 0x2a, 0xe0, 0x21, 0x25, 0xe1, 0xff, 0x11, 0xf0, 0x6c,
  0xfc, 0xb7, 0xea, 0xbf, 0x00, 0x22, 0xf2, 0xf3, 0xd7, 0x32, 0x16, 0xdf,
  0xf2, 0x00, 0x37, 0x24, 0x0e, 0xc5, 0xc3, 0xae, 0xe6, 0xb4, 0x34, 0x16,
  0x12, 0x64, 0x40, 0x15, 0xc7, 0xb5, 0xec, 0xec, 0xb6, 0x47, 0x43, 0xc5,
  0xff, 0x16, 0xed, 0xfc, 0xa1, 0xa4, 0x2c, 0x11, 0xea, 0xbc, 0x12, 0xe7,
  0xed, 0x14, 0x28, 0xc3, 0x16, 0x10, 0xf3, 0xcb, 0x13, 0xf9, 0xe0, 0xe2,
  0xea, 0xb4, 0xf5, 0xef, 0x04, 0xf4, 0x34, 0xc3, 0x2c, 0x27, 0xf6, 0xd9,
  0x05, 0x1b, 0xeb, 0x01, 0xbc, 0xc0, 0xbc, 0x35, 0xc6, 0xe2, 0x10, 0xbc,
  0x1d, 0x29, 0x08, 0x2e, 0xe6, 0xf6, 0x08, 0xf5, 0xb3, 0xf8, 0x35, 0x29,
  0xfc, 0xd5, 0x1b, 0xed, 0x20, 0xfc, 0x08, 0xfa, 0xf0, 0xea, 0xf2, 0x04,
  0xfb, 0xe2, 0xf9, 0x18, 0x10, 0xf4, 0xe8, 0xb2, 0x56, 0xc1, 0x1c, 0x07,
  0xfd, 0x00, 0xf6, 0xea, 0xdf, 0xd1, 0xb2, 0x2d, 0xd8, 0x1f, 0x17, 0xfc,
  0x52, 0x03, 0xc4, 0x19, 0xe4, 0xd1, 0x13, 0x01, 0xc9, 0x14, 0x18, 0x2d,
  0x0e, 0x18, 0xd5, 0xff, 0x4c, 0xa1, 0x26, 0xf9, 0x23, 0xfc, 0x26, 0x2e,
  0xfb, 0xf4, 0x04, 0x08, 0x0a, 0x25, 0xf8, 0xfa, 0x42, 0x81, 0x4c, 0x29,
  0xc3, 0x02, 0xf1, 0xee, 0x4c, 0xbf, 0xd8, 0x1f, 0xe7, 0x18, 0x13, 0xf8,
  0xf3, 0x2a, 0x12, 0xa5, 0x55, 0xc8, 0x12, 0x16, 0x4f, 0xe0, 0xc6, 0x64,
  0x4c, 0x1f, 0x1e, 0x22, 0x49, 0xf9, 0x25, 0x81, 0x64, 0xfc, 0x5b, 0x04,
  0x1a, 0xb7, 0xff, 0x22, 0x0b, 0x0a, 0x37, 0xe1, 0x0a, 0xa5, 0x22, 0xba,
  0x4a, 0x07, 0x5e, 0xd7, 0x07, 0xcd, 0xde, 0x2a, 0x36, 0x19, 0x28, 0xf0,
  0x0b, 0xfa, 0x13, 0xf5, 0x2f, 0xe1, 0x36, 0x12, 0x20, 0xc9, 0x2d, 0x46,
  0x23, 0x41, 0xbd, 0x09, 0x23, 0xeb, 0xf8, 0xd2, 0x04, 0x09, 0xfb, 0xd0,
  0xfe, 0x0f, 0x79, 0x1d, 0x46, 0x07, 0xcf, 0xc1, 0x49, 0x07, 0xd6, 0x12,
  0xf0, 0x31, 0xb8, 0xc0, 0xed, 0xb7, 0x1b, 0xda, 0x00, 0x0b, 0x95, 0xb9,
  0x18, 0x34, 0x20, 0xd4, 0xee, 0xe0, 0xd9, 0x08, 0xf4, 0xfb, 0x28, 0xea,
  0x53, 0xfa, 0xc1, 0xfb, 0x73, 0xed, 0x21, 0xde, 0xf4, 0xe1, 0xce, 0xe2,
  0xf0, 0xda, 0x4e, 0xd8, 0x28, 0xdd, 0xe6, 0xad, 0x35, 0xff, 0x22, 0xe7,
  0xbc, 0xe8, 0xd7, 0xfb, 0x2e, 0xfa, 0xff, 0xff, 0x04, 0x00, 0x00, 0x00,
  0x20, 0x00, 0x00, 0x00, 0x9a, 0x1e, 0x00, 0x00, 0x69, 0x00, 0x00, 0x00,
  0xbb, 0xf2, 0xff, 0xff, 0x1f, 0x24, 0x00, 0x00, 0x6c, 0xfb, 0xff, 0xff,
  0x2e, 0x11, 0x00, 0x00, 0xb0, 0x3e, 0x00, 0x00, 0xd8, 0xd9, 0xff, 0xff,
  0x5a, 0xfa, 0xff, 0xff, 0x04, 0x00, 0x00, 0x00, 0x00, 0x02, 0x00, 0x00,
  0xe4, 0xfa, 0xd2, 0x0f, 0x26, 0xe2, 0xf2, 0xe4, 0xdf, 0xc0, 0x0f, 0x24,
  0x11, 0x03, 0xdf, 0xcf, 0xbd, 0x18, 0x02, 0xe6, 0xcf, 0x49, 0xf9, 0xf3,
  0xb0, 0x12, 0x34, 0xe7, 0xe9, 0x4a, 0x25, 0x00, 0xf2, 0xd3, 0x09, 0x29,
  0xeb, 0xf3, 0x2d, 0x16, 0xde, 0xfd, 0xff, 0x3f, 0xc3, 0xe9, 0x0a, 0x25,
  0x26, 0x66, 0x0e, 0x35, 0x36, 0xd8, 0x02, 0x52, 0x17, 0x7e, 0x0f, 0xd4,
  0x2e, 0x11, 0x32, 0x20, 0xb1, 0xdb, 0xdf, 0x0a, 0xc7, 0xd4, 0x33, 0x3f,
  0xe3, 0xb8, 0xfe, 0xf3, 0xa6, 0xf6, 0x2d, 0x2b, 0xf7, 0xe8, 0xd0, 0x0c,
  0xdb, 0xf2, 0x37, 0x00, 0xd1, 0xe4, 0xc9, 0x0a, 0x0b, 0x17, 0x44, 0x19,
  0xcd, 0x11, 0xd4, 0xfa, 0xf8, 0x2e, 0x3c, 0x0b, 0xf8, 0xc9, 0xd2, 0xa3,
  0x1a, 0x46, 0x01, 0x18, 0xed, 0x81, 0xa5, 0x01, 0xf7, 0xde, 0x09, 0x02,
  0xbd, 0xbe, 0xaa, 0xb2, 0xb2, 0x4c, 0x05, 0x35, 0x31, 0x4a, 0xef, 0xda,
  0x0c, 0x2c, 0x31, 0x1f, 0x75, 0x04, 0x0d, 0x43, 0xf0, 0x2d, 0x3d, 0x2e,
  0x0a, 0x19, 0xfb, 0x05, 0x3c, 0xa3, 0x27, 0xfe, 0x40, 0x08, 0xfa, 0x04,
  0xfd, 0xb5, 0xc2, 0xcf, 0x11, 0x0d, 0xe5, 0xe2, 0x1e, 0xcf, 0xc4, 0xed,
  0x3b, 0x0b, 0xcb, 0x06, 0xf1, 0xf1, 0xe6, 0xef, 0xc9, 0xb1, 0xca, 0xf1,
  0xdd, 0xea, 0xfa, 0xd5, 0xe9, 0x8d, 0xb2, 0xa3, 0xae, 0xc0, 0xcf, 0xc2,
  0xe1, 0xc0, 0xfe, 0xf7, 0xb9, 0x2f, 0xe9, 0xa1, 0xff, 0xc8, 0xfa, 0xe0,
  0x9d, 0xd5, 0xb5, 0xa5, 0xff, 0x22, 0x05, 0x1a, 0xf4, 0x1d, 0xf5, 0xbf,
  0xfe, 0x09, 0x1c, 0x03, 0x03, 0xc7, 0xc8, 0xc6, 0x22, 0x1f, 0x56, 0x2f,
  0x12, 0x1d, 0xbe, 0xe1, 0xe7, 0x17, 0x57, 0x35, 0xfc, 0xe8, 0x07, 0x04,
  0x27, 0x48, 0x2e, 0xfa, 0x0f, 0x36, 0x9d, 0xe3, 0x21, 0x5c, 0x21, 0x5a,
  0x0a, 0x0a, 0x04, 0xf1, 0xf7, 0xfe, 0x58, 0x08, 0x28, 0xb3, 0xfa, 0xb8,
  0x1f, 0xe0, 0x22, 0xf6, 0x66, 0xc8, 0xfb, 0xd4, 0xd7, 0x0b, 0x17, 0xd3,
  0xc1, 0x29, 0xbe, 0x25, 0x05, 0x11, 0x03, 0xf7, 0xef, 0x3c, 0xe0, 0x3c,
  0x1d, 0xe3, 0x15, 0xe3, 0x19, 0xec, 0x9c, 0x06, 0x42, 0xf4, 0x00, 0xf0,
  0x13, 0xd6, 0xd4, 0xfa, 0xcf, 0xf2, 0x0c, 0x21, 0x19, 0xb4, 0x15, 0xa1,
  0x2a, 0x3a, 0x4f, 0xb4, 0xb3, 0xb1, 0xbc, 0x09, 0xfc, 0x0c, 0xfd, 0xb1,
  0x10, 0x2a, 0x00, 0x12, 0x34, 0xa3, 0x0a, 0xe7, 0xaf, 0xdd, 0xd5, 0x01,
  0x06, 0x11, 0xed, 0xdd, 0xed, 0xf7, 0xb2, 0xd2, 0x2e, 0x23, 0xcd, 0x3b,
  0xe3, 0x09, 0x31, 0x0e, 0x50, 0xf4, 0xdd, 0x04, 0x12, 0xef, 0x0f, 0x42,
  0x14, 0x13, 0xbe, 0xd4, 0xe0, 0xeb, 0x19, 0x48, 0x31, 0xde, 0xa9, 0xb4,
  0x45, 0xa5, 0xd1, 0x70, 0x57, 0xed, 0xb6, 0xc7, 0xb3, 0xfd, 0x06, 0x0f,
  0xf5, 0xb7, 0xf0, 0x34, 0x94, 0x1f, 0x0d, 0x26, 0x21, 0x02, 0x17, 0xba,
  0xd9, 0x24, 0xc5, 0xff, 0xc8, 0x0b, 0xf4, 0x38, 0xfa, 0xbf, 0x2f, 0x0e,
  0xab, 0xe8, 0x23, 0x2b, 0x17, 0xb4, 0xf3, 0xf5, 0xf9, 0xc3, 0xc7, 0x1c,
  0xe3, 0xff, 0xff, 0x0f, 0xb2, 0xa5, 0xd2, 0x1f, 0xdd, 0xc2, 0xc2, 0x0f,
  0xf9, 0x61, 0x00, 0x6c, 0xf8, 0xf8, 0x38, 0x02, 0x27, 0x3a, 0x2e, 0x54,
  0x5f, 0x44, 0x6b, 0x02, 0xd4, 0xf9, 0xab, 0x23, 0x27, 0xe3, 0x1d, 0x03,
  0xef, 0x35, 0x18, 0x4a, 0x36, 0x5b, 0x39, 0x28, 0x2e, 0xdf, 0x1f, 0xee,
  0x36, 0x28, 0x51, 0x04, 0xe9, 0x00, 0xf2, 0xeb, 0x0f, 0x30, 0xfa, 0xe5,
  0x9a, 0xc6, 0x13, 0x07, 0x11, 0x27, 0xef, 0xda, 0xf7, 0xed, 0xf4, 0x0c,
  0x07, 0xe9, 0x09, 0xa9, 0x84, 0x8e, 0xbd, 0xf0, 0xb6, 0xe9, 0xec, 0xd0,
  0xe1, 0xe5, 0xc8, 0xe1, 0xd2, 0xf2, 0xd3, 0xcb, 0x66, 0xfc, 0xff, 0xff,
  0x04, 0x00, 0x00, 0x00, 0x20, 0x00, 0x00, 0x00, 0xe7, 0x5e, 0x00, 0x00,
  0x7d, 0xad, 0x00, 0x00, 0xba, 0xa7, 0x00, 0x00, 0xd2, 0xc1, 0x00, 0x00,
  0x33, 0x8e, 0x00, 0x00, 0x41, 0x84, 0x00, 0x00, 0x66, 0x84, 0x00, 0x00,
  0xf9, 0x95, 0x00, 0x00, 0x92, 0xfc, 0xff, 0xff, 0x04, 0x00, 0x00, 0x00,
  0x40, 0x00, 0x00, 0x00, 0xdf, 0xaf, 0x73, 0xe7, 0xb8, 0xc6, 0xaf, 0x67,
  0x30, 0xb8, 0xdc, 0xcd, 0x63, 0x11, 0x02, 0xbe, 0x40, 0xcf, 0xdf, 0x43,
  0xa0, 0xf5, 0x6e, 0xb7, 0x59, 0xbd, 0xbe, 0x14, 0x2e, 0xb8, 0xbe, 0x54,
  0x3b, 0x6e, 0xa7, 0xc4, 0xa7, 0x54, 0xec, 0xad, 0xce, 0xda, 0xf3, 0x7f,
  0xbb, 0xc6, 0xd5, 0xd6, 0x94, 0xaa, 0x4d, 0x2b, 0xe8, 0x67, 0xd2, 0xac,
  0xd4, 0x57, 0x1b, 0xc8, 0xa5, 0xb1, 0x5f, 0x2a, 0xde, 0xfc, 0xff, 0xff,
  0x04, 0x00, 0x00, 0x00, 0x20, 0x00, 0x00, 0x00, 0x7d, 0xfe, 0xff, 0xff,
  0x51, 0x03, 0x00, 0x00, 0x35, 0xfc, 0xff, 0xff, 0x00, 0xf1, 0xff, 0xff,
  0x67, 0x03, 0x00, 0x00, 0x2b, 0x16, 0x00, 0x00, 0x49, 0x00, 0x00, 0x00,
  0x15, 0xf5, 0xff, 0xff, 0x0a, 0xfd, 0xff, 0xff, 0x04, 0x00, 0x00, 0x00,
  0x08, 0x00, 0x00, 0x00, 0xff, 0xff, 0xff, 0xff, 0x40, 0x00, 0x00, 0x00,
  0x1e, 0xfd, 0xff, 0xff, 0x04, 0x00, 0x00, 0x00, 0x04, 0x00, 0x00, 0x00,
  0x03, 0x00, 0x00, 0x00, 0x2e, 0xfd, 0xff, 0xff, 0x04, 0x00, 0x00, 0x00,
  0x04, 0x00, 0x00, 0x00, 0x04, 0x00, 0x00, 0x00, 0x3e, 0xfd, 0xff, 0xff,
  0x04, 0x00, 0x00, 0x00, 0x04, 0x00, 0x00, 0x00, 0x08, 0x00, 0x00, 0x00,
  0x4e, 0xfd, 0xff, 0xff, 0x04, 0x00, 0x00, 0x00, 0x04, 0x00, 0x00, 0x00,
  0x01, 0x00, 0x00, 0x00, 0x5e, 0xfd, 0xff, 0xff, 0x04, 0x00, 0x00, 0x00,
  0x04, 0x00, 0x00, 0x00, 0x00, 0x00, 0x00, 0x00, 0xd8, 0xeb, 0xff, 0xff,
  0xdc, 0xeb, 0xff, 0xff, 0x0f, 0x00, 0x00, 0x00, 0x4d, 0x4c, 0x49, 0x52,
  0x20, 0x43, 0x6f, 0x6e, 0x76, 0x65, 0x72, 0x74, 0x65, 0x64, 0x2e, 0x00,
  0x01, 0x00, 0x00, 0x00, 0x14, 0x00, 0x00, 0x00, 0x00, 0x00, 0x0e, 0x00,
  0x18, 0x00, 0x14, 0x00, 0x10, 0x00, 0x0c, 0x00, 0x08, 0x00, 0x04, 0x00,
  0x0e, 0x00, 0x00, 0x00, 0x14, 0x00, 0x00, 0x00, 0x1c, 0x00, 0x00, 0x00,
  0x38, 0x03, 0x00, 0x00, 0x3c, 0x03, 0x00, 0x00, 0x40, 0x03, 0x00, 0x00,
  0x04, 0x00, 0x00, 0x00, 0x6d, 0x61, 0x69, 0x6e, 0x00, 0x00, 0x00, 0x00,
  0x0d, 0x00, 0x00, 0x00, 0x00, 0x03, 0x00, 0x00, 0xb8, 0x02, 0x00, 0x00,
  0x58, 0x02, 0x00, 0x00, 0x10, 0x02, 0x00, 0x00, 0xe8, 0x01, 0x00, 0x00,
  0x8c, 0x01, 0x00, 0x00, 0x48, 0x01, 0x00, 0x00, 0xf4, 0x00, 0x00, 0x00,
  0xcc, 0x00, 0x00, 0x00, 0x90, 0x00, 0x00, 0x00, 0x58, 0x00, 0x00, 0x00,
  0x24, 0x00, 0x00, 0x00, 0x04, 0x00, 0x00, 0x00, 0x3e, 0xfd, 0xff, 0xff,
  0x08, 0x00, 0x00, 0x00, 0x0c, 0x00, 0x00, 0x00, 0x01, 0x00, 0x00, 0x00,
  0x1b, 0x00, 0x00, 0x00, 0x01, 0x00, 0x00, 0x00, 0x1a, 0x00, 0x00, 0x00,
  0xa2, 0xfd, 0xff, 0xff, 0x14, 0x00, 0x00, 0x00, 0x00, 0x00, 0x00, 0x09,
  0x14, 0x00, 0x00, 0x00, 0x18, 0x00, 0x00, 0x00, 0x08, 0x00, 0x00, 0x00,
  0x32, 0xfe, 0xff, 0xff, 0x00, 0x00, 0x80, 0x3f, 0x01, 0x00, 0x00, 0x00,
  0x1a, 0x00, 0x00, 0x00, 0x01, 0x00, 0x00, 0x00, 0x19, 0x00, 0x00, 0x00,
  0xd2, 0xfd, 0xff, 0xff, 0x14, 0x00, 0x00, 0x00, 0x00, 0x00, 0x00, 0x08,
  0x10, 0x00, 0x00, 0x00, 0x14, 0x00, 0x00, 0x00, 0x07, 0x00, 0x00, 0x00,
  0xcc, 0xec, 0xff, 0xff, 0x01, 0x00, 0x00, 0x00, 0x19, 0x00, 0x00, 0x00,
  0x03, 0x00, 0x00, 0x00, 0x18, 0x00, 0x00, 0x00, 0x08, 0x00, 0x00, 0x00,
  0x07, 0x00, 0x00, 0x00, 0x06, 0xfe, 0xff, 0xff, 0x14, 0x00, 0x00, 0x00,
  0x00, 0x00, 0x00, 0x08, 0x14, 0x00, 0x00, 0x00, 0x18, 0x00, 0x00, 0x00,
  0x07, 0x00, 0x00, 0x00, 0xf6, 0xfd, 0xff, 0xff, 0x00, 0x00, 0x00, 0x01,
  0x01, 0x00, 0x00, 0x00, 0x18, 0x00, 0x00, 0x00, 0x03, 0x00, 0x00, 0x00,
  0x17, 0x00, 0x00, 0x00, 0x0a, 0x00, 0x00, 0x00, 0x09, 0x00, 0x00, 0x00,
  0xfe, 0xfe, 0xff, 0xff, 0x0c, 0x00, 0x00, 0x00, 0x10, 0x00, 0x00, 0x00,
  0x04, 0x00, 0x00, 0x00, 0x01, 0x00, 0x00, 0x00, 0x17, 0x00, 0x00, 0x00,
  0x02, 0x00, 0x00, 0x00, 0x16, 0x00, 0x00, 0x00, 0x06, 0x00, 0x00, 0x00,
  0x62, 0xfe, 0xff, 0xff, 0x24, 0x00, 0x00, 0x00, 0x00, 0x00, 0x00, 0x05,
  0x34, 0x00, 0x00, 0x00, 0x38, 0x00, 0x00, 0x00, 0x06, 0x00, 0x00, 0x00,
  0x00, 0x00, 0x0e, 0x00, 0x18, 0x00, 0x17, 0x00, 0x10, 0x00, 0x0c, 0x00,
  0x08, 0x00, 0x04, 0x00, 0x0e, 0x00, 0x00, 0x00, 0x02, 0x00, 0x00, 0x00,
  0x02, 0x00, 0x00, 0x00, 0x02, 0x00, 0x00, 0x00, 0x02, 0x00, 0x00, 0x00,
  0x00, 0x00, 0x00, 0x01, 0x01, 0x00, 0x00, 0x00, 0x16, 0x00, 0x00, 0x00,
  0x01, 0x00, 0x00, 0x00, 0x15, 0x00, 0x00, 0x00, 0xb2, 0xfe, 0xff, 0xff,
  0x14, 0x00, 0x00, 0x00, 0x00, 0x00, 0x00, 0x01, 0x1c, 0x00, 0x00, 0x00,
  0x20, 0x00, 0x00, 0x00, 0x05, 0x00, 0x00, 0x00, 0xc0, 0xff, 0xff, 0xff,
  0x00, 0x00, 0x00, 0x01, 0x01, 0x00, 0x00, 0x00, 0x01, 0x00, 0x00, 0x00,
  0x01, 0x00, 0x00, 0x00, 0x15, 0x00, 0x00, 0x00, 0x03, 0x00, 0x00, 0x00,
  0x14, 0x00, 0x00, 0x00, 0x0c, 0x00, 0x00, 0x00, 0x0b, 0x00, 0x00, 0x00,
  0xf2, 0xfe, 0xff, 0xff, 0x20, 0x00, 0x00, 0x00, 0x00, 0x00, 0x00, 0x01,
  0x28, 0x00, 0x00, 0x00, 0x2c, 0x00, 0x00, 0x00, 0x05, 0x00, 0x00, 0x00,
  0x0c, 0x00, 0x10, 0x00, 0x00, 0x00, 0x0c, 0x00, 0x08, 0x00, 0x07, 0x00,
  0x0c, 0x00, 0x00, 0x00, 0x00, 0x00, 0x00, 0x01, 0x01, 0x00, 0x00, 0x00,
  0x01, 0x00, 0x00, 0x00, 0x01, 0x00, 0x00, 0x00, 0x14, 0x00, 0x00, 0x00,
  0x03, 0x00, 0x00, 0x00, 0x13, 0x00, 0x00, 0x00, 0x0e, 0x00, 0x00, 0x00,
  0x0d, 0x00, 0x00, 0x00, 0x00, 0x00, 0x0a, 0x00, 0x10, 0x00, 0x0c, 0x00,
  0x08, 0x00, 0x04, 0x00, 0x0a, 0x00, 0x00, 0x00, 0x0c, 0x00, 0x00, 0x00,
  0x10, 0x00, 0x00, 0x00, 0x04, 0x00, 0x00, 0x00, 0x01, 0x00, 0x00, 0x00,
  0x13, 0x00, 0x00, 0x00, 0x02, 0x00, 0x00, 0x00, 0x0f, 0x00, 0x00, 0x00,
  0x12, 0x00, 0x00, 0x00, 0x6e, 0xff, 0xff, 0xff, 0x1c, 0x00, 0x00, 0x00,
  0x00, 0x00, 0x00, 0x3b, 0x1c, 0x00, 0x00, 0x00, 0x20, 0x00, 0x00, 0x00,
  0x03, 0x00, 0x00, 0x00, 0x00, 0x00, 0x06, 0x00, 0x08, 0x00, 0x04, 0x00,
  0x06, 0x00, 0x00, 0x00, 0x04, 0x00, 0x00, 0x00, 0x01, 0x00, 0x00, 0x00,
  0x12, 0x00, 0x00, 0x00, 0x04, 0x00, 0x00, 0x00, 0x11, 0x00, 0x00, 0x00,
  0x03, 0x00, 0x00, 0x00, 0x04, 0x00, 0x00, 0x00, 0x05, 0x00, 0x00, 0x00,
  0xb2, 0xff, 0xff, 0xff, 0x24, 0x00, 0x00, 0x00, 0x00, 0x00, 0x00, 0x20,
  0x24, 0x00, 0x00, 0x00, 0x28, 0x00, 0x00, 0x00, 0x02, 0x00, 0x00, 0x00,
  0x00, 0x00, 0x0e, 0x00, 0x08, 0x00, 0x00, 0x00, 0x00, 0x00, 0x00, 0x00,
  0x00, 0x00, 0x04, 0x00, 0x0e, 0x00, 0x00, 0x00, 0x01, 0x00, 0x00, 0x00,
  0x01, 0x00, 0x00, 0x00, 0x11, 0x00, 0x00, 0x00, 0x04, 0x00, 0x00, 0x00,
  0x10, 0x00, 0x00, 0x00, 0x01, 0x00, 0x00, 0x00, 0x02, 0x00, 0x00, 0x00,
  0x02, 0x00, 0x00, 0x00, 0x00, 0x00, 0x0e, 0x00, 0x1a, 0x00, 0x14, 0x00,
  0x10, 0x00, 0x0c, 0x00, 0x0b, 0x00, 0x04, 0x00, 0x0e, 0x00, 0x00, 0x00,
  0x1c, 0x00, 0x00, 0x00, 0x00, 0x00, 0x00, 0x37, 0x1c, 0x00, 0x00, 0x00,
  0x20, 0x00, 0x00, 0x00, 0x01, 0x00, 0x00, 0x00, 0x00, 0x00, 0x06, 0x00,
  0x08, 0x00, 0x07, 0x00, 0x06, 0x00, 0x00, 0x00, 0x00, 0x00, 0x00, 0x02,
  0x01, 0x00, 0x00, 0x00, 0x10, 0x00, 0x00, 0x00, 0x01, 0x00, 0x00, 0x00,
  0x0f, 0x00, 0x00, 0x00, 0x00, 0x00, 0x0a, 0x00, 0x0c, 0x00, 0x00, 0x00,
  0x08, 0x00, 0x04, 0x00, 0x0a, 0x00, 0x00, 0x00, 0x08, 0x00, 0x00, 0x00,
  0x0c, 0x00, 0x00, 0x00, 0x01, 0x00, 0x00, 0x00, 0x0f, 0x00, 0x00, 0x00,
  0x01, 0x00, 0x00, 0x00, 0x00, 0x00, 0x00, 0x00, 0x01, 0x00, 0x00, 0x00,
  0x1b, 0x00, 0x00, 0x00, 0x01, 0x00, 0x00, 0x00, 0x00, 0x00, 0x00, 0x00,
  0x1c, 0x00, 0x00, 0x00, 0xf0, 0x10, 0x00, 0x00, 0x7c, 0x10, 0x00, 0x00,
  0x08, 0x10, 0x00, 0x00, 0xb8, 0x0f, 0x00, 0x00, 0x68, 0x0f, 0x00, 0x00,
  0x18, 0x0f, 0x00, 0x00, 0xcc, 0x0e, 0x00, 0x00, 0x54, 0x0e, 0x00, 0x00,
  0xe8, 0x0d, 0x00, 0x00, 0x4c, 0x0d, 0x00, 0x00, 0xc8, 0x0c, 0x00, 0x00,
  0x7c, 0x0b, 0x00, 0x00, 0xb0, 0x0a, 0x00, 0x00, 0x0c, 0x09, 0x00, 0x00,
  0xe0, 0x07, 0x00, 0x00, 0x68, 0x07, 0x00, 0x00, 0x1c, 0x07, 0x00, 0x00,
  0xcc, 0x06, 0x00, 0x00, 0x78, 0x06, 0x00, 0x00, 0xec, 0x05, 0x00, 0x00,
  0xd8, 0x04, 0x00, 0x00, 0xb4, 0x03, 0x00, 0x00, 0x20, 0x03, 0x00, 0x00,
  0xa4, 0x02, 0x00, 0x00, 0x98, 0x01, 0x00, 0x00, 0xfc, 0x00, 0x00, 0x00,
  0x80, 0x00, 0x00, 0x00, 0x04, 0x00, 0x00, 0x00, 0x96, 0xef, 0xff, 0xff,
  0x00, 0x00, 0x00, 0x01, 0x18, 0x00, 0x00, 0x00, 0x20, 0x00, 0x00, 0x00,
  0x3c, 0x00, 0x00, 0x00, 0x1c, 0x00, 0x00, 0x00, 0x00, 0x00, 0x00, 0x03,
  0x50, 0x00, 0x00, 0x00, 0x02, 0x00, 0x00, 0x00, 0xff, 0xff, 0xff, 0xff,
  0x08, 0x00, 0x00, 0x00, 0x7c, 0xef, 0xff, 0xff, 0x08, 0x00, 0x00, 0x00,
  0x10, 0x00, 0x00, 0x00, 0x01, 0x00, 0x00, 0x00, 0x00, 0x00, 0x00, 0x00,
  0x00, 0x00, 0x00, 0x00, 0x01, 0x00, 0x00, 0x00, 0x00, 0x00, 0x80, 0x3b,
  0x19, 0x00, 0x00, 0x00, 0x53, 0x74, 0x61, 0x74, 0x65, 0x66, 0x75, 0x6c,
  0x50, 0x61, 0x72, 0x74, 0x69, 0x74, 0x69, 0x6f, 0x6e, 0x65, 0x64, 0x43,
  0x61, 0x6c, 0x6c, 0x3a, 0x30, 0x00, 0x00, 0x00, 0x02, 0x00, 0x00, 0x00,
  0x01, 0x00, 0x00, 0x00, 0x08, 0x00, 0x00, 0x00, 0x0e, 0xf0, 0xff, 0xff,
  0x00, 0x00, 0x00, 0x01, 0x18, 0x00, 0x00, 0x00, 0x20, 0x00, 0x00, 0x00,
  0x3c, 0x00, 0x00, 0x00, 0x1b, 0x00, 0x00, 0x00, 0x00, 0x00, 0x00, 0x09,
  0x50, 0x00, 0x00, 0x00, 0x02, 0x00, 0x00, 0x00, 0xff, 0xff, 0xff, 0xff,
  0x08, 0x00, 0x00, 0x00, 0xf4, 0xef, 0xff, 0xff, 0x08, 0x00, 0x00, 0x00,
  0x10, 0x00, 0x00, 0x00, 0x01, 0x00, 0x00, 0x00, 0x80, 0xff, 0xff, 0xff,
  0xff, 0xff, 0xff, 0xff, 0x01, 0x00, 0x00, 0x00, 0x00, 0x00, 0x80, 0x3b,
  0x1a, 0x00, 0x00, 0x00, 0x53, 0x74, 0x61, 0x74, 0x65, 0x66, 0x75, 0x6c,
  0x50, 0x61, 0x72, 0x74, 0x69, 0x74, 0x69, 0x6f, 0x6e, 0x65, 0x64, 0x43,
  0x61, 0x6c, 0x6c, 0x3a, 0x30, 0x31, 0x00, 0x00, 0x02, 0x00, 0x00, 0x00,
  0x01, 0x00, 0x00, 0x00, 0x08, 0x00, 0x00, 0x00, 0x86, 0xf0, 0xff, 0xff,
  0x00, 0x00, 0x00, 0x01, 0x18, 0x00, 0x00, 0x00, 0x20, 0x00, 0x00, 0x00,
  0x40, 0x00, 0x00, 0x00, 0x1a, 0x00, 0x00, 0x00, 0x00, 0x00, 0x00, 0x09,
  0x70, 0x00, 0x00, 0x00, 0x02, 0x00, 0x00, 0x00, 0xff, 0xff, 0xff, 0xff,
  0x08, 0x00, 0x00, 0x00, 0x6c, 0xf0, 0xff, 0xff, 0x08, 0x00, 0x00, 0x00,
  0x14, 0x00, 0x00, 0x00, 0x01, 0x00, 0x00, 0x00, 0xf8, 0xff, 0xff, 0xff,
  0xff, 0xff, 0xff, 0xff, 0x00, 0x00, 0x00, 0x00, 0x01, 0x00, 0x00, 0x00,
  0x60, 0x98, 0x1a, 0x3d, 0x34, 0x00, 0x00, 0x00, 0x73, 0x65, 0x71, 0x75,
  0x65, 0x6e, 0x74, 0x69, 0x61, 0x6c, 0x2f, 0x64, 0x65, 0x6e, 0x73, 0x65,
  0x5f, 0x31, 0x2f, 0x4d, 0x61, 0x74, 0x4d, 0x75, 0x6c, 0x3b, 0x73, 0x65,
  0x71, 0x75, 0x65, 0x6e, 0x74, 0x69, 0x61, 0x6c, 0x2f, 0x64, 0x65, 0x6e,
  0x73, 0x65, 0x5f, 0x31, 0x2f, 0x42, 0x69, 0x61, 0x73, 0x41, 0x64, 0x64,
  0x00, 0x00, 0x00, 0x00, 0x02, 0x00, 0x00, 0x00, 0x01, 0x00, 0x00, 0x00,
  0x08, 0x00, 0x00, 0x00, 0x1e, 0xf1, 0xff, 0xff, 0x00, 0x00, 0x00, 0x01,
  0x18, 0x00, 0x00, 0x00, 0x20, 0x00, 0x00, 0x00, 0x3c, 0x00, 0x00, 0x00,
  0x19, 0x00, 0x00, 0x00, 0x00, 0x00, 0x00, 0x09, 0xe0, 0x00, 0x00, 0x00,
  0x02, 0x00, 0x00, 0x00, 0xff, 0xff, 0xff, 0xff, 0x08, 0x00, 0x00, 0x00,
  0x04, 0xf1, 0xff, 0xff, 0x08, 0x00, 0x00, 0x00, 0x10, 0x00, 0x00, 0x00,
  0x01, 0x00, 0x00, 0x00, 0x80, 0xff, 0xff, 0xff, 0xff, 0xff, 0xff, 0xff,
  0x01, 0x00, 0x00, 0x00, 0x5d, 0x6f, 0x4a, 0x3c, 0xaa, 0x00, 0x00, 0x00,
  0x73, 0x65, 0x71, 0x75, 0x65, 0x6e, 0x74, 0x69, 0x61, 0x6c, 0x2f, 0x64,
  0x65, 0x6e, 0x73, 0x65, 0x2f, 0x4d, 0x61, 0x74, 0x4d, 0x75, 0x6c, 0x3b,
  0x73, 0x65, 0x71, 0x75, 0x65, 0x6e, 0x74, 0x69, 0x61, 0x6c, 0x2f, 0x64,
  0x65, 0x6e, 0x73, 0x65, 0x2f, 0x42, 0x69, 0x61, 0x73, 0x41, 0x64, 0x64,
  0x3b, 0x73, 0x65, 0x71, 0x75, 0x65, 0x6e, 0x74, 0x69, 0x61, 0x6c, 0x2f,
  0x62, 0x61, 0x74, 0x63, 0x68, 0x5f, 0x6e, 0x6f, 0x72, 0x6d, 0x61, 0x6c,
  0x69, 0x7a, 0x61, 0x74, 0x69, 0x6f, 0x6e, 0x5f, 0x32, 0x2f, 0x62, 0x61,
  0x74, 0x63, 0x68, 0x6e, 0x6f, 0x72, 0x6d, 0x2f, 0x6d, 0x75, 0x6c, 0x5f,
  0x31, 0x3b, 0x73, 0x65, 0x71, 0x75, 0x65, 0x6e, 0x74, 0x69, 0x61, 0x6c,
  0x2f, 0x72, 0x65, 0x5f, 0x6c, 0x75, 0x5f, 0x32, 0x2f, 0x52, 0x65, 0x6c,
  0x75, 0x3b, 0x73, 0x65, 0x71, 0x75, 0x65, 0x6e, 0x74, 0x69, 0x61, 0x6c,
  0x2f, 0x62, 0x61, 0x74, 0x63, 0x68, 0x5f, 0x6e, 0x6f, 0x72, 0x6d, 0x61,
  0x6c, 0x69, 0x7a, 0x61, 0x74, 0x69, 0x6f, 0x6e, 0x5f, 0x32, 0x2f, 0x62,
  0x61, 0x74, 0x63, 0x68, 0x6e, 0x6f, 0x72, 0x6d, 0x2f, 0x61, 0x64, 0x64,
  0x5f, 0x31, 0x00, 0x00, 0x02, 0x00, 0x00, 0x00, 0x01, 0x00, 0x00, 0x00,
  0x08, 0x00, 0x00, 0x00, 0x26, 0xf2, 0xff, 0xff, 0x00, 0x00, 0x00, 0x01,
  0x18, 0x00, 0x00, 0x00, 0x20, 0x00, 0x00, 0x00, 0x3c, 0x00, 0x00, 0x00,
  0x18, 0x00, 0x00, 0x00, 0x00, 0x00, 0x00, 0x09, 0x50, 0x00, 0x00, 0x00,
  0x02, 0x00, 0x00, 0x00, 0xff, 0xff, 0xff, 0xff, 0x40, 0x00, 0x00, 0x00,
  0x0c, 0xf2, 0xff, 0xff, 0x08, 0x00, 0x00, 0x00, 0x10, 0x00, 0x00, 0x00,
  0x01, 0x00, 0x00, 0x00, 0x80, 0xff, 0xff, 0xff, 0xff, 0xff, 0xff, 0xff,
  0x01, 0x00, 0x00, 0x00, 0x1d, 0xeb, 0x44, 0x3c, 0x1a, 0x00, 0x00, 0x00,
  0x73, 0x65, 0x71, 0x75, 0x65, 0x6e, 0x74, 0x69, 0x61, 0x6c, 0x2f, 0x66,
  0x6c, 0x61, 0x74, 0x74, 0x65, 0x6e, 0x2f, 0x52, 0x65, 0x73, 0x68, 0x61,
  0x70, 0x65, 0x00, 0x00, 0x02, 0x00, 0x00, 0x00, 0x01, 0x00, 0x00, 0x00,
  0x40, 0x00, 0x00, 0x00, 0x9e, 0xf2, 0xff, 0xff, 0x00, 0x00, 0x00, 0x01,
  0x18, 0x00, 0x00, 0x00, 0x28, 0x00, 0x00, 0x00, 0x44, 0x00, 0x00, 0x00,
  0x17, 0x00, 0x00, 0x00, 0x00, 0x00, 0x00, 0x09, 0x60, 0x00, 0x00, 0x00,
  0x04, 0x00, 0x00, 0x00, 0xff, 0xff, 0xff, 0xff, 0x04, 0x00, 0x00, 0x00,
  0x02, 0x00, 0x00, 0x00, 0x08, 0x00, 0x00, 0x00, 0x8c, 0xf2, 0xff, 0xff,
  0x08, 0x00, 0x00, 0x00, 0x10, 0x00, 0x00, 0x00, 0x01, 0x00, 0x00, 0x00,
  0x80, 0xff, 0xff, 0xff, 0xff, 0xff, 0xff, 0xff, 0x01, 0x00, 0x00, 0x00,
  0x1d, 0xeb, 0x44, 0x3c, 0x20, 0x00, 0x00, 0x00, 0x73, 0x65, 0x71, 0x75,
  0x65, 0x6e, 0x74, 0x69, 0x61, 0x6c, 0x2f, 0x6d, 0x61, 0x78, 0x5f, 0x70,
  0x6f, 0x6f, 0x6c, 0x69, 0x6e, 0x67, 0x32, 0x64, 0x2f, 0x4d, 0x61, 0x78,
  0x50, 0x6f, 0x6f, 0x6c, 0x00, 0x00, 0x00, 0x00, 0x04, 0x00, 0x00, 0x00,
  0x01, 0x00, 0x00, 0x00, 0x04, 0x00, 0x00, 0x00, 0x02, 0x00, 0x00, 0x00,
  0x08, 0x00, 0x00, 0x00, 0x2e, 0xf3, 0xff, 0xff, 0x00, 0x00, 0x00, 0x01,
  0x18, 0x00, 0x00, 0x00, 0x28, 0x00, 0x00, 0x00, 0x48, 0x00, 0x00, 0x00,
  0x16, 0x00, 0x00, 0x00, 0x00, 0x00, 0x00, 0x09, 0xf0, 0x00, 0x00, 0x00,
  0x04, 0x00, 0x00, 0x00, 0xff, 0xff, 0xff, 0xff, 0x08, 0x00, 0x00, 0x00,
  0x04, 0x00, 0x00, 0x00, 0x08, 0x00, 0x00, 0x00, 0x1c, 0xf3, 0xff, 0xff,
  0x08, 0x00, 0x00, 0x00, 0x14, 0x00, 0x00, 0x00, 0x01, 0x00, 0x00, 0x00,
  0x80, 0xff, 0xff, 0xff, 0xff, 0xff, 0xff, 0xff, 0x00, 0x00, 0x00, 0x00,
  0x01, 0x00, 0x00, 0x00, 0x1d, 0xeb, 0x44, 0x3c, 0xac, 0x00, 0x00, 0x00,
  0x73, 0x65, 0x71, 0x75, 0x65, 0x6e, 0x74, 0x69, 0x61, 0x6c, 0x2f, 0x72,
  0x65, 0x5f, 0x6c, 0x75, 0x5f, 0x31, 0x2f, 0x52, 0x65, 0x6c, 0x75, 0x3b,
  0x73, 0x65, 0x71, 0x75, 0x65, 0x6e, 0x74, 0x69, 0x61, 0x6c, 0x2f, 0x62,
  0x61, 0x74, 0x63, 0x68, 0x5f, 0x6e, 0x6f, 0x72, 0x6d, 0x61, 0x6c, 0x69,
  0x7a, 0x61, 0x74, 0x69, 0x6f, 0x6e, 0x5f, 0x31, 0x2f, 0x46, 0x75, 0x73,
  0x65, 0x64, 0x42, 0x61, 0x74, 0x63, 0x68, 0x4e, 0x6f, 0x72, 0x6d, 0x56,
  0x33, 0x3b, 0x73, 0x65, 0x71, 0x75, 0x65, 0x6e, 0x74, 0x69, 0x61, 0x6c,
  0x2f, 0x63, 0x6f, 0x6e, 0x76, 0x32, 0x64, 0x5f, 0x31, 0x2f, 0x42, 0x69,
  0x61, 0x73, 0x41, 0x64, 0x64, 0x2f, 0x52, 0x65, 0x61, 0x64, 0x56, 0x61,
  0x72, 0x69, 0x61, 0x62, 0x6c, 0x65, 0x4f, 0x70, 0x3b, 0x73, 0x65, 0x71,
  0x75, 0x65, 0x6e, 0x74, 0x69, 0x61, 0x6c, 0x2f, 0x63, 0x6f, 0x6e, 0x76,
  0x32, 0x64, 0x5f, 0x31, 0x2f, 0x42, 0x69, 0x61, 0x73, 0x41, 0x64, 0x64,
  0x3b, 0x73, 0x65, 0x71, 0x75, 0x65, 0x6e, 0x74, 0x69, 0x61, 0x6c, 0x2f,
  0x63, 0x6f, 0x6e, 0x76, 0x32, 0x64, 0x5f, 0x31, 0x2f, 0x43, 0x6f, 0x6e,
  0x76, 0x32, 0x44, 0x31, 0x00, 0x00, 0x00, 0x00, 0x04, 0x00, 0x00, 0x00,
  0x01, 0x00, 0x00, 0x00, 0x08, 0x00, 0x00, 0x00, 0x04, 0x00, 0x00, 0x00,
  0x08, 0x00, 0x00, 0x00, 0x4e, 0xf4, 0xff, 0xff, 0x00, 0x00, 0x00, 0x01,
  0x18, 0x00, 0x00, 0x00, 0x28, 0x00, 0x00, 0x00, 0x44, 0x00, 0x00, 0x00,
  0x15, 0x00, 0x00, 0x00, 0x00, 0x00, 0x00, 0x09, 0xe0, 0x00, 0x00, 0x00,
  0x04, 0x00, 0x00, 0x00, 0xff, 0xff, 0xff, 0xff, 0x08, 0x00, 0x00, 0x00,
  0x04, 0x00, 0x00, 0x00, 0x10, 0x00, 0x00, 0x00, 0x3c, 0xf4, 0xff, 0xff,
  0x08, 0x00, 0x00, 0x00, 0x10, 0x00, 0x00, 0x00, 0x01, 0x00, 0x00, 0x00,
  0x80, 0xff, 0xff, 0xff, 0xff, 0xff, 0xff, 0xff, 0x01, 0x00, 0x00, 0x00,
  0x78, 0xdb, 0x59, 0x3c, 0xa2, 0x00, 0x00, 0x00, 0x73, 0x65, 0x71, 0x75,
  0x65, 0x6e, 0x74, 0x69, 0x61, 0x6c, 0x2f, 0x72, 0x65, 0x5f, 0x6c, 0x75,
  0x2f, 0x52, 0x65, 0x6c, 0x75, 0x3b, 0x73, 0x65, 0x71, 0x75, 0x65, 0x6e,
  0x74, 0x69, 0x61, 0x6c, 0x2f, 0x62, 0x61, 0x74, 0x63, 0x68, 0x5f, 0x6e,
  0x6f, 0x72, 0x6d, 0x61, 0x6c, 0x69, 0x7a, 0x61, 0x74, 0x69, 0x6f, 0x6e,
  0x2f, 0x46, 0x75, 0x73, 0x65, 0x64, 0x42, 0x61, 0x74, 0x63, 0x68, 0x4e,
  0x6f, 0x72, 0x6d, 0x56, 0x33, 0x3b, 0x73, 0x65, 0x71, 0x75, 0x65, 0x6e,
  0x74, 0x69, 0x61, 0x6c, 0x2f, 0x63, 0x6f, 0x6e, 0x76, 0x32, 0x64, 0x2f,
  0x42, 0x69, 0x61, 0x73, 0x41, 0x64, 0x64, 0x2f, 0x52, 0x65, 0x61, 0x64,
  0x56, 0x61, 0x72, 0x69, 0x61, 0x62, 0x6c, 0x65, 0x4f, 0x70, 0x3b, 0x73,
  0x65, 0x71, 0x75, 0x65, 0x6e, 0x74, 0x69, 0x61, 0x6c, 0x2f, 0x63, 0x6f,
  0x6e, 0x76, 0x32, 0x64, 0x2f, 0x42, 0x69, 0x61, 0x73, 0x41, 0x64, 0x64,
  0x3b, 0x73, 0x65, 0x71, 0x75, 0x65, 0x6e, 0x74, 0x69, 0x61, 0x6c, 0x2f,
  0x63, 0x6f, 0x6e, 0x76, 0x32, 0x64, 0x2f, 0x43, 0x6f, 0x6e, 0x76, 0x32,
  0x44, 0x31, 0x00, 0x00, 0x04, 0x00, 0x00, 0x00, 0x01, 0x00, 0x00, 0x00,
  0x08, 0x00, 0x00, 0x00, 0x04, 0x00, 0x00, 0x00, 0x10, 0x00, 0x00, 0x00,
  0x5e, 0xf5, 0xff, 0xff, 0x00, 0x00, 0x00, 0x01, 0x18, 0x00, 0x00, 0x00,
  0x28, 0x00, 0x00, 0x00, 0x44, 0x00, 0x00, 0x00, 0x14, 0x00, 0x00, 0x00,
  0x00, 0x00, 0x00, 0x09, 0x58, 0x00, 0x00, 0x00, 0x04, 0x00, 0x00, 0x00,
  0xff, 0xff, 0xff, 0xff, 0x08, 0x00, 0x00, 0x00, 0x04, 0x00, 0x00, 0x00,
  0x03, 0x00, 0x00, 0x00, 0x4c, 0xf5, 0xff, 0xff, 0x08, 0x00, 0x00, 0x00,
  0x10, 0x00, 0x00, 0x00, 0x01, 0x00, 0x00, 0x00, 0xf7, 0xff, 0xff, 0xff,
  0xff, 0xff, 0xff, 0xff, 0x01, 0x00, 0x00, 0x00, 0xc2, 0xef, 0xa9, 0x3c,
  0x1a, 0x00, 0x00, 0x00, 0x73, 0x65, 0x71, 0x75, 0x65, 0x6e, 0x74, 0x69,
  0x61, 0x6c, 0x2f, 0x72, 0x65, 0x73, 0x68, 0x61, 0x70, 0x65, 0x2f, 0x52,
  0x65, 0x73, 0x68, 0x61, 0x70, 0x65, 0x00, 0x00, 0x04, 0x00, 0x00, 0x00,
  0x01, 0x00, 0x00, 0x00, 0x08, 0x00, 0x00, 0x00, 0x04, 0x00, 0x00, 0x00,
  0x03, 0x00, 0x00, 0x00, 0x56, 0xf6, 0xff, 0xff, 0x00, 0x00, 0x00, 0x01,
  0x14, 0x00, 0x00, 0x00, 0x14, 0x00, 0x00, 0x00, 0x13, 0x00, 0x00, 0x00,
  0x00, 0x00, 0x00, 0x02, 0x30, 0x00, 0x00, 0x00, 0x40, 0xf6, 0xff, 0xff,
  0x20, 0x00, 0x00, 0x00, 0x73, 0x65, 0x71, 0x75, 0x65, 0x6e, 0x74, 0x69,
  0x61, 0x6c, 0x2f, 0x72, 0x65, 0x73, 0x68, 0x61, 0x70, 0x65, 0x2f, 0x52,
  0x65, 0x73, 0x68, 0x61, 0x70, 0x65, 0x2f, 0x73, 0x68, 0x61, 0x70, 0x65,
  0x00, 0x00, 0x00, 0x00, 0x01, 0x00, 0x00, 0x00, 0x04, 0x00, 0x00, 0x00,
  0xa6, 0xf6, 0xff, 0xff, 0x00, 0x00, 0x00, 0x01, 0x14, 0x00, 0x00, 0x00,
  0x14, 0x00, 0x00, 0x00, 0x12, 0x00, 0x00, 0x00, 0x00, 0x00, 0x00, 0x02,
  0x30, 0x00, 0x00, 0x00, 0x90, 0xf6, 0xff, 0xff, 0x20, 0x00, 0x00, 0x00,
  0x73, 0x65, 0x71, 0x75, 0x65, 0x6e, 0x74, 0x69, 0x61, 0x6c, 0x2f, 0x72,
  0x65, 0x73, 0x68, 0x61, 0x70, 0x65, 0x2f, 0x73, 0x74, 0x72, 0x69, 0x64,
  0x65, 0x64, 0x5f, 0x73, 0x6c, 0x69, 0x63, 0x65, 0x00, 0x00, 0x00, 0x00,
  0x00, 0x00, 0x00, 0x00, 0xf2, 0xf6, 0xff, 0xff, 0x00, 0x00, 0x00, 0x01,
  0x14, 0x00, 0x00, 0x00, 0x14, 0x00, 0x00, 0x00, 0x11, 0x00, 0x00, 0x00,
  0x00, 0x00, 0x00, 0x02, 0x28, 0x00, 0x00, 0x00, 0xdc, 0xf6, 0xff, 0xff,
  0x18, 0x00, 0x00, 0x00, 0x73, 0x65, 0x71, 0x75, 0x65, 0x6e, 0x74, 0x69,
  0x61, 0x6c, 0x2f, 0x72, 0x65, 0x73, 0x68, 0x61, 0x70, 0x65, 0x2f, 0x53,
  0x68, 0x61, 0x70, 0x65, 0x00, 0x00, 0x00, 0x00, 0x01, 0x00, 0x00, 0x00,
  0x03, 0x00, 0x00, 0x00, 0xca, 0xf6, 0xff, 0xff, 0x00, 0x00, 0x00, 0x01,
  0x18, 0x00, 0x00, 0x00, 0x24, 0x00, 0x00, 0x00, 0x40, 0x00, 0x00, 0x00,
  0x10, 0x00, 0x00, 0x00, 0x00, 0x00, 0x00, 0x09, 0x48, 0x00, 0x00, 0x00,
  0x03, 0x00, 0x00, 0x00, 0xff, 0xff, 0xff, 0xff, 0x20, 0x00, 0x00, 0x00,
  0x03, 0x00, 0x00, 0x00, 0xb4, 0xf6, 0xff, 0xff, 0x08, 0x00, 0x00, 0x00,
  0x10, 0x00, 0x00, 0x00, 0x01, 0x00, 0x00, 0x00, 0xf7, 0xff, 0xff, 0xff,
  0xff, 0xff, 0xff, 0xff, 0x01, 0x00, 0x00, 0x00, 0xc2, 0xef, 0xa9, 0x3c,
  0x0c, 0x00, 0x00, 0x00, 0x74, 0x66, 0x6c, 0x2e, 0x71, 0x75, 0x61, 0x6e,
  0x74, 0x69, 0x7a, 0x65, 0x00, 0x00, 0x00, 0x00, 0x03, 0x00, 0x00, 0x00,
  0x01, 0x00, 0x00, 0x00, 0x20, 0x00, 0x00, 0x00, 0x03, 0x00, 0x00, 0x00,
  0xae, 0xf7, 0xff, 0xff, 0x00, 0x00, 0x00, 0x01, 0x14, 0x00, 0x00, 0x00,
  0xe8, 0x00, 0x00, 0x00, 0x0f, 0x00, 0x00, 0x00, 0x00, 0x00, 0x00, 0x09,
  0xfc, 0x00, 0x00, 0x00, 0x14, 0xf7, 0xff, 0xff, 0x08, 0x00, 0x00, 0x00,
  0x8c, 0x00, 0x00, 0x00, 0x10, 0x00, 0x00, 0x00, 0x00, 0x00, 0x00, 0x00,
  0x00, 0x00, 0x00, 0x00, 0x00, 0x00, 0x00, 0x00, 0x00, 0x00, 0x00, 0x00,
  0x00, 0x00, 0x00, 0x00, 0x00, 0x00, 0x00, 0x00, 0x00, 0x00, 0x00, 0x00,
  0x00, 0x00, 0x00, 0x00, 0x00, 0x00, 0x00, 0x00, 0x00, 0x00, 0x00, 0x00,
  0x00, 0x00, 0x00, 0x00, 0x00, 0x00, 0x00, 0x00, 0x00, 0x00, 0x00, 0x00,
  0x00, 0x00, 0x00, 0x00, 0x00, 0x00, 0x00, 0x00, 0x00, 0x00, 0x00, 0x00,
  0x00, 0x00, 0x00, 0x00, 0x00, 0x00, 0x00, 0x00, 0x00, 0x00, 0x00, 0x00,
  0x00, 0x00, 0x00, 0x00, 0x00, 0x00, 0x00, 0x00, 0x00, 0x00, 0x00, 0x00,
  0x00, 0x00, 0x00, 0x00, 0x00, 0x00, 0x00, 0x00, 0x00, 0x00, 0x00, 0x00,
  0x00, 0x00, 0x00, 0x00, 0x00, 0x00, 0x00, 0x00, 0x00, 0x00, 0x00, 0x00,
  0x00, 0x00, 0x00, 0x00, 0x00, 0x00, 0x00, 0x00, 0x00, 0x00, 0x00, 0x00,
  0x00, 0x00, 0x00, 0x00, 0x00, 0x00, 0x00, 0x00, 0x10, 0x00, 0x00, 0x00,
  0xb1, 0xaf, 0x85, 0x3b, 0x04, 0xc6, 0x66, 0x3b, 0x84, 0xd1, 0x25, 0x3b,
  0xa1, 0x16, 0x71, 0x3b, 0x3f, 0x2b, 0x5e, 0x3b, 0xe1, 0x67, 0x17, 0x3b,
  0x06, 0xfd, 0x02, 0x3b, 0xd2, 0x89, 0x50, 0x3b, 0xeb, 0xe3, 0x3d, 0x3b,
  0x93, 0xe9, 0xb1, 0x3b, 0x9b, 0x10, 0x72, 0x3b, 0xc5, 0x51, 0x23, 0x3b,
  0x9e, 0x89, 0x85, 0x3b, 0x7d, 0xbd, 0x09, 0x3b, 0xf9, 0x8f, 0x2a, 0x3b,
  0x8b, 0x26, 0xa1, 0x3b, 0x18, 0x00, 0x00, 0x00, 0x73, 0x65, 0x71, 0x75,
  0x65, 0x6e, 0x74, 0x69, 0x61, 0x6c, 0x2f, 0x63, 0x6f, 0x6e, 0x76, 0x32,
  0x64, 0x2f, 0x43, 0x6f, 0x6e, 0x76, 0x32, 0x44, 0x00, 0x00, 0x00, 0x00,
  0x04, 0x00, 0x00, 0x00, 0x10, 0x00, 0x00, 0x00, 0x03, 0x00, 0x00, 0x00,
  0x03, 0x00, 0x00, 0x00, 0x03, 0x00, 0x00, 0x00, 0xd6, 0xf8, 0xff, 0xff,
  0x00, 0x00, 0x00, 0x01, 0x14, 0x00, 0x00, 0x00, 0xe4, 0x00, 0x00, 0x00,
  0x0e, 0x00, 0x00, 0x00, 0x00, 0x00, 0x00, 0x02, 0x80, 0x01, 0x00, 0x00,
  0x3c, 0xf8, 0xff, 0xff, 0x08, 0x00, 0x00, 0x00, 0x88, 0x00, 0x00, 0x00,
  0x10, 0x00, 0x00, 0x00, 0x00, 0x00, 0x00, 0x00, 0x00, 0x00, 0x00, 0x00,
  0x00, 0x00, 0x00, 0x00, 0x00, 0x00, 0x00, 0x00, 0x00, 0x00, 0x00, 0x00,
  0x00, 0x00, 0x00, 0x00, 0x00, 0x00, 0x00, 0x00, 0x00, 0x00, 0x00, 0x00,
  0x00, 0x00, 0x00, 0x00, 0x00, 0x00, 0x00, 0x00, 0x00, 0x00, 0x00, 0x00,
  0x00, 0x00, 0x00, 0x00, 0x00, 0x00, 0x00, 0x00, 0x00, 0x00, 0x00, 0x00,
  0x00, 0x00, 0x00, 0x00, 0x00, 0x00, 0x00, 0x00, 0x00, 0x00, 0x00, 0x00,
  0x00, 0x00, 0x00, 0x00, 0x00, 0x00, 0x00, 0x00, 0x00, 0x00, 0x00, 0x00,
  0x00, 0x00, 0x00, 0x00, 0x00, 0x00, 0x00, 0x00, 0x00, 0x00, 0x00, 0x00,
  0x00, 0x00, 0x00, 0x00, 0x00, 0x00, 0x00, 0x00, 0x00, 0x00, 0x00, 0x00,
  0x00, 0x00, 0x00, 0x00, 0x00, 0x00, 0x00, 0x00, 0x00, 0x00, 0x00, 0x00,
  0x00, 0x00, 0x00, 0x00, 0x00, 0x00, 0x00, 0x00, 0x00, 0x00, 0x00, 0x00,
  0x10, 0x00, 0x00, 0x00, 0x60, 0x7c, 0xb1, 0x38, 0xda, 0x30, 0x99, 0x38,
  0x39, 0x25, 0x5c, 0x38, 0xbb, 0x09, 0xa0, 0x38, 0x9f, 0x7a, 0x93, 0x38,
  0xc1, 0x02, 0x49, 0x38, 0x6d, 0xe7, 0x2d, 0x38, 0x4a, 0x6e, 0x8a, 0x38,
  0x9c, 0x1a, 0x7c, 0x38, 0xa4, 0x33, 0xec, 0x38, 0xab, 0xaf, 0xa0, 0x38,
  0xe0, 0xd3, 0x58, 0x38, 0xd4, 0x49, 0xb1, 0x38, 0x30, 0xde, 0x36, 0x38,
  0x92, 0x71, 0x62, 0x38, 0xbe, 0xf2, 0xd5, 0x38, 0xa1, 0x00, 0x00, 0x00,
  0x73, 0x65, 0x71, 0x75, 0x65, 0x6e, 0x74, 0x69, 0x61, 0x6c, 0x2f, 0x72,
  0x65, 0x5f, 0x6c, 0x75, 0x2f, 0x52, 0x65, 0x6c, 0x75, 0x3b, 0x73, 0x65,
  0x71, 0x75, 0x65, 0x6e, 0x74, 0x69, 0x61, 0x6c, 0x2f, 0x62, 0x61, 0x74,
  0x63, 0x68, 0x5f, 0x6e, 0x6f, 0x72, 0x6d, 0x61, 0x6c, 0x69, 0x7a, 0x61,
  0x74, 0x69, 0x6f, 0x6e, 0x2f, 0x46, 0x75, 0x73, 0x65, 0x64, 0x42, 0x61,
  0x74, 0x63, 0x68, 0x4e, 0x6f, 0x72, 0x6d, 0x56, 0x33, 0x3b, 0x73, 0x65,
  0x71, 0x75, 0x65, 0x6e, 0x74, 0x69, 0x61, 0x6c, 0x2f, 0x63, 0x6f, 0x6e,
  0x76, 0x32, 0x64, 0x2f, 0x42, 0x69, 0x61, 0x73, 0x41, 0x64, 0x64, 0x2f,
  0x52, 0x65, 0x61, 0x64, 0x56, 0x61, 0x72, 0x69, 0x61, 0x62, 0x6c, 0x65,
  0x4f, 0x70, 0x3b, 0x73, 0x65, 0x71, 0x75, 0x65, 0x6e, 0x74, 0x69, 0x61,
  0x6c, 0x2f, 0x63, 0x6f, 0x6e, 0x76, 0x32, 0x64, 0x2f, 0x42, 0x69, 0x61,
  0x73, 0x41, 0x64, 0x64, 0x3b, 0x73, 0x65, 0x71, 0x75, 0x65, 0x6e, 0x74,
  0x69, 0x61, 0x6c, 0x2f, 0x63, 0x6f, 0x6e, 0x76, 0x32, 0x64, 0x2f, 0x43,
  0x6f, 0x6e, 0x76, 0x32, 0x44, 0x00, 0x00, 0x00, 0x01, 0x00, 0x00, 0x00,
  0x10, 0x00, 0x00, 0x00, 0x76, 0xfa, 0xff, 0xff, 0x00, 0x00, 0x00, 0x01,
  0x14, 0x00, 0x00, 0x00, 0x88, 0x00, 0x00, 0x00, 0x0d, 0x00, 0x00, 0x00,
  0x00, 0x00, 0x00, 0x09, 0x9c, 0x00, 0x00, 0x00, 0xdc, 0xf9, 0xff, 0xff,
  0x08, 0x00, 0x00, 0x00, 0x4c, 0x00, 0x00, 0x00, 0x08, 0x00, 0x00, 0x00,
  0x00, 0x00, 0x00, 0x00, 0x00, 0x00, 0x00, 0x00, 0x00, 0x00, 0x00, 0x00,
  0x00, 0x00, 0x00, 0x00, 0x00, 0x00, 0x00, 0x00, 0x00, 0x00, 0x00, 0x00,
  0x00, 0x00, 0x00, 0x00, 0x00, 0x00, 0x00, 0x00, 0x00, 0x00, 0x00, 0x00,
  0x00, 0x00, 0x00, 0x00, 0x00, 0x00, 0x00, 0x00, 0x00, 0x00, 0x00, 0x00,
  0x00, 0x00, 0x00, 0x00, 0x00, 0x00, 0x00, 0x00, 0x00, 0x00, 0x00, 0x00,
  0x00, 0x00, 0x00, 0x00, 0x00, 0x00, 0x00, 0x00, 0x08, 0x00, 0x00, 0x00,
  0xc8, 0x6b, 0x06, 0x3b, 0x9e, 0x06, 0xba, 0x3a, 0x8f, 0x2d, 0xf2, 0x3a,
  0x7c, 0xad, 0x0b, 0x3b, 0xf1, 0x80, 0x06, 0x3b, 0x13, 0x77, 0xef, 0x3a,
  0x21, 0xc5, 0x01, 0x3b, 0x9b, 0xf6, 0xa9, 0x3a, 0x1a, 0x00, 0x00, 0x00,
  0x73, 0x65, 0x71, 0x75, 0x65, 0x6e, 0x74, 0x69, 0x61, 0x6c, 0x2f, 0x63,
  0x6f, 0x6e, 0x76, 0x32, 0x64, 0x5f, 0x31, 0x2f, 0x43, 0x6f, 0x6e, 0x76,
  0x32, 0x44, 0x00, 0x00, 0x04, 0x00, 0x00, 0x00, 0x08, 0x00, 0x00, 0x00,
  0x03, 0x00, 0x00, 0x00, 0x03, 0x00, 0x00, 0x00, 0x10, 0x00, 0x00, 0x00,
  0x3e, 0xfb, 0xff, 0xff, 0x00, 0x00, 0x00, 0x01, 0x14, 0x00, 0x00, 0x00,
  0x84, 0x00, 0x00, 0x00, 0x0c, 0x00, 0x00, 0x00, 0x00, 0x00, 0x00, 0x02,
  0x28, 0x01, 0x00, 0x00, 0xa4, 0xfa, 0xff, 0xff, 0x08, 0x00, 0x00, 0x00,
  0x48, 0x00, 0x00, 0x00, 0x08, 0x00, 0x00, 0x00, 0x00, 0x00, 0x00, 0x00,
  0x00, 0x00, 0x00, 0x00, 0x00, 0x00, 0x00, 0x00, 0x00, 0x00, 0x00, 0x00,
  0x00, 0x00, 0x00, 0x00, 0x00, 0x00, 0x00, 0x00, 0x00, 0x00, 0x00, 0x00,
  0x00, 0x00, 0x00, 0x00, 0x00, 0x00, 0x00, 0x00, 0x00, 0x00, 0x00, 0x00,
  0x00, 0x00, 0x00, 0x00, 0x00, 0x00, 0x00, 0x00, 0x00, 0x00, 0x00, 0x00,
  0x00, 0x00, 0x00, 0x00, 0x00, 0x00, 0x00, 0x00, 0x00, 0x00, 0x00, 0x00,
  0x08, 0x00, 0x00, 0x00, 0x33, 0xc9, 0xe4, 0x37, 0x17, 0x4f, 0x9e, 0x37,
  0x3d, 0x18, 0xce, 0x37, 0x9a, 0xbb, 0xed, 0x37, 0x37, 0xed, 0xe4, 0x37,
  0x3a, 0xc9, 0xcb, 0x37, 0xb3, 0xde, 0xdc, 0x37, 0xbf, 0xa3, 0x90, 0x37,
  0xab, 0x00, 0x00, 0x00, 0x73, 0x65, 0x71, 0x75, 0x65, 0x6e, 0x74, 0x69,
  0x61, 0x6c, 0x2f, 0x72, 0x65, 0x5f, 0x6c, 0x75, 0x5f, 0x31, 0x2f, 0x52,
  0x65, 0x6c, 0x75, 0x3b, 0x73, 0x65, 0x71, 0x75, 0x65, 0x6e, 0x74, 0x69,
  0x61, 0x6c, 0x2f, 0x62, 0x61, 0x74, 0x63, 0x68, 0x5f, 0x6e, 0x6f, 0x72,
  0x6d, 0x61, 0x6c, 0x69, 0x7a, 0x61, 0x74, 0x69, 0x6f, 0x6e, 0x5f, 0x31,
  0x2f, 0x46, 0x75, 0x73, 0x65, 0x64, 0x42, 0x61, 0x74, 0x63, 0x68, 0x4e,
  0x6f, 0x72, 0x6d, 0x56, 0x33, 0x3b, 0x73, 0x65, 0x71, 0x75, 0x65, 0x6e,
  0x74, 0x69, 0x61, 0x6c, 0x2f, 0x63, 0x6f, 0x6e, 0x76, 0x32, 0x64, 0x5f,
  0x31, 0x2f, 0x42, 0x69, 0x61, 0x73, 0x41, 0x64, 0x64, 0x2f, 0x52, 0x65,
  0x61, 0x64, 0x56, 0x61, 0x72, 0x69, 0x61, 0x62, 0x6c, 0x65, 0x4f, 0x70,
  0x3b, 0x73, 0x65, 0x71, 0x75, 0x65, 0x6e, 0x74, 0x69, 0x61, 0x6c, 0x2f,
  0x63, 0x6f, 0x6e, 0x76, 0x32, 0x64, 0x5f, 0x31, 0x2f, 0x42, 0x69, 0x61,
  0x73, 0x41, 0x64, 0x64, 0x3b, 0x73, 0x65, 0x71, 0x75, 0x65, 0x6e, 0x74,
  0x69, 0x61, 0x6c, 0x2f, 0x63, 0x6f, 0x6e, 0x76, 0x32, 0x64, 0x5f, 0x31,
  0x2f, 0x43, 0x6f, 0x6e, 0x76, 0x32, 0x44, 0x00, 0x01, 0x00, 0x00, 0x00,
  0x08, 0x00, 0x00, 0x00, 0x86, 0xfc, 0xff, 0xff, 0x00, 0x00, 0x00, 0x01,
  0x14, 0x00, 0x00, 0x00, 0x30, 0x00, 0x00, 0x00, 0x0b, 0x00, 0x00, 0x00,
  0x00, 0x00, 0x00, 0x09, 0x5c, 0x00, 0x00, 0x00, 0xec, 0xfb, 0xff, 0xff,
  0x08, 0x00, 0x00, 0x00, 0x10, 0x00, 0x00, 0x00, 0x01, 0x00, 0x00, 0x00,
  0x00, 0x00, 0x00, 0x00, 0x00, 0x00, 0x00, 0x00, 0x01, 0x00, 0x00, 0x00,
  0xd2, 0x97, 0x19, 0x3b, 0x30, 0x00, 0x00, 0x00, 0x73, 0x65, 0x71, 0x75,
  0x65, 0x6e, 0x74, 0x69, 0x61, 0x6c, 0x2f, 0x62, 0x61, 0x74, 0x63, 0x68,
  0x5f, 0x6e, 0x6f, 0x72, 0x6d, 0x61, 0x6c, 0x69, 0x7a, 0x61, 0x74, 0x69,
  0x6f, 0x6e, 0x5f, 0x32, 0x2f, 0x62, 0x61, 0x74, 0x63, 0x68, 0x6e, 0x6f,
  0x72, 0x6d, 0x2f, 0x6d, 0x75, 0x6c, 0x5f, 0x31, 0x00, 0x00, 0x00, 0x00,
  0x02, 0x00, 0x00, 0x00, 0x08, 0x00, 0x00, 0x00, 0x40, 0x00, 0x00, 0x00,
  0x06, 0xfd, 0xff, 0xff, 0x00, 0x00, 0x00, 0x01, 0x14, 0x00, 0x00, 0x00,
  0x34, 0x00, 0x00, 0x00, 0x0a, 0x00, 0x00, 0x00, 0x00, 0x00, 0x00, 0x02,
  0x78, 0x00, 0x00, 0x00, 0x6c, 0xfc, 0xff, 0xff, 0x08, 0x00, 0x00, 0x00,
  0x14, 0x00, 0x00, 0x00, 0x01, 0x00, 0x00, 0x00, 0x00, 0x00, 0x00, 0x00,
  0x00, 0x00, 0x00, 0x00, 0x00, 0x00, 0x00, 0x00, 0x01, 0x00, 0x00, 0x00,
  0x99, 0x4a, 0xec, 0x37, 0x48, 0x00, 0x00, 0x00, 0x73, 0x65, 0x71, 0x75,
  0x65, 0x6e, 0x74, 0x69, 0x61, 0x6c, 0x2f, 0x72, 0x65, 0x5f, 0x6c, 0x75,
  0x5f, 0x32, 0x2f, 0x52, 0x65, 0x6c, 0x75, 0x3b, 0x73, 0x65, 0x71, 0x75,
  0x65, 0x6e, 0x74, 0x69, 0x61, 0x6c, 0x2f, 0x62, 0x61, 0x74, 0x63, 0x68,
  0x5f, 0x6e, 0x6f, 0x72, 0x6d, 0x61, 0x6c, 0x69, 0x7a, 0x61, 0x74, 0x69,
  0x6f, 0x6e, 0x5f, 0x32, 0x2f, 0x62, 0x61, 0x74, 0x63, 0x68, 0x6e, 0x6f,
  0x72, 0x6d, 0x2f, 0x61, 0x64, 0x64, 0x5f, 0x31, 0x00, 0x00, 0x00, 0x00,
  0x01, 0x00, 0x00, 0x00, 0x08, 0x00, 0x00, 0x00, 0x9e, 0xfd, 0xff, 0xff,
  0x00, 0x00, 0x00, 0x01, 0x14, 0x00, 0x00, 0x00, 0x30, 0x00, 0x00, 0x00,
  0x09, 0x00, 0x00, 0x00, 0x00, 0x00, 0x00, 0x09, 0x44, 0x00, 0x00, 0x00,
  0x04, 0xfd, 0xff, 0xff, 0x08, 0x00, 0x00, 0x00, 0x10, 0x00, 0x00, 0x00,
  0x01, 0x00, 0x00, 0x00, 0x00, 0x00, 0x00, 0x00, 0x00, 0x00, 0x00, 0x00,
  0x01, 0x00, 0x00, 0x00, 0xb1, 0x53, 0x18, 0x3c, 0x19, 0x00, 0x00, 0x00,
  0x73, 0x65, 0x71, 0x75, 0x65, 0x6e, 0x74, 0x69, 0x61, 0x6c, 0x2f, 0x64,
  0x65, 0x6e, 0x73, 0x65, 0x5f, 0x31, 0x2f, 0x4d, 0x61, 0x74, 0x4d, 0x75,
  0x6c, 0x00, 0x00, 0x00, 0x02, 0x00, 0x00, 0x00, 0x08, 0x00, 0x00, 0x00,
  0x08, 0x00, 0x00, 0x00, 0x06, 0xfe, 0xff, 0xff, 0x00, 0x00, 0x00, 0x01,
  0x14, 0x00, 0x00, 0x00, 0x30, 0x00, 0x00, 0x00, 0x08, 0x00, 0x00, 0x00,
  0x00, 0x00, 0x00, 0x02, 0x54, 0x00, 0x00, 0x00, 0x6c, 0xfd, 0xff, 0xff,
  0x08, 0x00, 0x00, 0x00, 0x10, 0x00, 0x00, 0x00, 0x01, 0x00, 0x00, 0x00,
  0x00, 0x00, 0x00, 0x00, 0x00, 0x00, 0x00, 0x00, 0x01, 0x00, 0x00, 0x00,
  0x9b, 0xe8, 0xf0, 0x38, 0x29, 0x00, 0x00, 0x00, 0x73, 0x65, 0x71, 0x75,
  0x65, 0x6e, 0x74, 0x69, 0x61, 0x6c, 0x2f, 0x64, 0x65, 0x6e, 0x73, 0x65,
  0x5f, 0x31, 0x2f, 0x42, 0x69, 0x61, 0x73, 0x41, 0x64, 0x64, 0x2f, 0x52,
  0x65, 0x61, 0x64, 0x56, 0x61, 0x72, 0x69, 0x61, 0x62, 0x6c, 0x65, 0x4f,
  0x70, 0x00, 0x00, 0x00, 0x01, 0x00, 0x00, 0x00, 0x08, 0x00, 0x00, 0x00,
  0x7a, 0xfe, 0xff, 0xff, 0x00, 0x00, 0x00, 0x01, 0x14, 0x00, 0x00, 0x00,
  0x14, 0x00, 0x00, 0x00, 0x07, 0x00, 0x00, 0x00, 0x00, 0x00, 0x00, 0x02,
  0x28, 0x00, 0x00, 0x00, 0x64, 0xfe, 0xff, 0xff, 0x18, 0x00, 0x00, 0x00,
  0x73, 0x65, 0x71, 0x75, 0x65, 0x6e, 0x74, 0x69, 0x61, 0x6c, 0x2f, 0x66,
  0x6c, 0x61, 0x74, 0x74, 0x65, 0x6e, 0x2f, 0x43, 0x6f, 0x6e, 0x73, 0x74,
  0x00, 0x00, 0x00, 0x00, 0x01, 0x00, 0x00, 0x00, 0x02, 0x00, 0x00, 0x00,
  0xc2, 0xfe, 0xff, 0xff, 0x00, 0x00, 0x00, 0x01, 0x14, 0x00, 0x00, 0x00,
  0x14, 0x00, 0x00, 0x00, 0x06, 0x00, 0x00, 0x00, 0x00, 0x00, 0x00, 0x02,
  0x30, 0x00, 0x00, 0x00, 0xac, 0xfe, 0xff, 0xff, 0x22, 0x00, 0x00, 0x00,
  0x73, 0x65, 0x71, 0x75, 0x65, 0x6e, 0x74, 0x69, 0x61, 0x6c, 0x2f, 0x72,
  0x65, 0x73, 0x68, 0x61, 0x70, 0x65, 0x2f, 0x52, 0x65, 0x73, 0x68, 0x61,
  0x70, 0x65, 0x2f, 0x73, 0x68, 0x61, 0x70, 0x65, 0x2f, 0x33, 0x00, 0x00,
  0x00, 0x00, 0x00, 0x00, 0x0e, 0xff, 0xff, 0xff, 0x00, 0x00, 0x00, 0x01,
  0x14, 0x00, 0x00, 0x00, 0x14, 0x00, 0x00, 0x00, 0x05, 0x00, 0x00, 0x00,
  0x00, 0x00, 0x00, 0x02, 0x30, 0x00, 0x00, 0x00, 0xf8, 0xfe, 0xff, 0xff,
  0x22, 0x00, 0x00, 0x00, 0x73, 0x65, 0x71, 0x75, 0x65, 0x6e, 0x74, 0x69,
  0x61, 0x6c, 0x2f, 0x72, 0x65, 0x73, 0x68, 0x61, 0x70, 0x65, 0x2f, 0x52,
  0x65, 0x73, 0x68, 0x61, 0x70, 0x65, 0x2f, 0x73, 0x68, 0x61, 0x70, 0x65,
  0x2f, 0x32, 0x00, 0x00, 0x00, 0x00, 0x00, 0x00, 0x5a, 0xff, 0xff, 0xff,
  0x00, 0x00, 0x00, 0x01, 0x14, 0x00, 0x00, 0x00, 0x14, 0x00, 0x00, 0x00,
  0x04, 0x00, 0x00, 0x00, 0x00, 0x00, 0x00, 0x02, 0x30, 0x00, 0x00, 0x00,
  0x44, 0xff, 0xff, 0xff, 0x22, 0x00, 0x00, 0x00, 0x73, 0x65, 0x71, 0x75,
  0x65, 0x6e, 0x74, 0x69, 0x61, 0x6c, 0x2f, 0x72, 0x65, 0x73, 0x68, 0x61,
  0x70, 0x65, 0x2f, 0x52, 0x65, 0x73, 0x68, 0x61, 0x70, 0x65, 0x2f, 0x73,
  0x68, 0x61, 0x70, 0x65, 0x2f, 0x31, 0x00, 0x00, 0x00, 0x00, 0x00, 0x00,
  0xa6, 0xff, 0xff, 0xff, 0x00, 0x00, 0x00, 0x01, 0x14, 0x00, 0x00, 0x00,
  0x14, 0x00, 0x00, 0x00, 0x03, 0x00, 0x00, 0x00, 0x00, 0x00, 0x00, 0x02,
  0x38, 0x00, 0x00, 0x00, 0x90, 0xff, 0xff, 0xff, 0x28, 0x00, 0x00, 0x00,
  0x73, 0x65, 0x71, 0x75, 0x65, 0x6e, 0x74, 0x69, 0x61, 0x6c, 0x2f, 0x72,
  0x65, 0x73, 0x68, 0x61, 0x70, 0x65, 0x2f, 0x73, 0x74, 0x72, 0x69, 0x64,
  0x65, 0x64, 0x5f, 0x73, 0x6c, 0x69, 0x63, 0x65, 0x2f, 0x73, 0x74, 0x61,
  0x63, 0x6b, 0x5f, 0x31, 0x00, 0x00, 0x00, 0x00, 0x01, 0x00, 0x00, 0x00,
  0x01, 0x00, 0x00, 0x00, 0x00, 0x00, 0x16, 0x00, 0x1c, 0x00, 0x18, 0x00,
  0x17, 0x00, 0x10, 0x00, 0x0c, 0x00, 0x08, 0x00, 0x00, 0x00, 0x00, 0x00,
  0x00, 0x00, 0x07, 0x00, 0x16, 0x00, 0x00, 0x00, 0x00, 0x00, 0x00, 0x01,
  0x18, 0x00, 0x00, 0x00, 0x18, 0x00, 0x00, 0x00, 0x02, 0x00, 0x00, 0x00,
  0x00, 0x00, 0x00, 0x02, 0x38, 0x00, 0x00, 0x00, 0x04, 0x00, 0x04, 0x00,
  0x04, 0x00, 0x00, 0x00, 0x26, 0x00, 0x00, 0x00, 0x73, 0x65, 0x71, 0x75,
  0x65, 0x6e, 0x74, 0x69, 0x61, 0x6c, 0x2f, 0x72, 0x65, 0x73, 0x68, 0x61,
  0x70, 0x65, 0x2f, 0x73, 0x74, 0x72, 0x69, 0x64, 0x65, 0x64, 0x5f, 0x73,
  0x6c, 0x69, 0x63, 0x65, 0x2f, 0x73, 0x74, 0x61, 0x63, 0x6b, 0x00, 0x00,
  0x01, 0x00, 0x00, 0x00, 0x01, 0x00, 0x00, 0x00, 0x00, 0x00, 0x16, 0x00,
  0x20, 0x00, 0x1c, 0x00, 0x1b, 0x00, 0x14, 0x00, 0x10, 0x00, 0x0c, 0x00,
  0x00, 0x00, 0x00, 0x00, 0x08, 0x00, 0x07, 0x00, 0x16, 0x00, 0x00, 0x00,
  0x00, 0x00, 0x00, 0x01, 0x18, 0x00, 0x00, 0x00, 0x30, 0x00, 0x00, 0x00,
  0x50, 0x00, 0x00, 0x00, 0x01, 0x00, 0x00, 0x00, 0x00, 0x00, 0x00, 0x03,
  0x64, 0x00, 0x00, 0x00, 0x03, 0x00, 0x00, 0x00, 0xff, 0xff, 0xff, 0xff,
  0x20, 0x00, 0x00, 0x00, 0x03, 0x00, 0x00, 0x00, 0x0c, 0x00, 0x0c, 0x00,
  0x00, 0x00, 0x00, 0x00, 0x08, 0x00, 0x04, 0x00, 0x0c, 0x00, 0x00, 0x00,
  0x08, 0x00, 0x00, 0x00, 0x14, 0x00, 0x00, 0x00, 0x01, 0x00, 0x00, 0x00,
  0x77, 0x00, 0x00, 0x00, 0x00, 0x00, 0x00, 0x00, 0x00, 0x00, 0x00, 0x00,
  0x01, 0x00, 0x00, 0x00, 0xc2, 0xef, 0xa9, 0x3c, 0x19, 0x00, 0x00, 0x00,
  0x73, 0x65, 0x72, 0x76, 0x69, 0x6e, 0x67, 0x5f, 0x64, 0x65, 0x66, 0x61,
  0x75, 0x6c, 0x74, 0x5f, 0x69, 0x6e, 0x70, 0x75, 0x74, 0x5f, 0x31, 0x3a,
  0x30, 0x00, 0x00, 0x00, 0x03, 0x00, 0x00, 0x00, 0x01, 0x00, 0x00, 0x00,
  0x20, 0x00, 0x00, 0x00, 0x03, 0x00, 0x00, 0x00, 0x09, 0x00, 0x00, 0x00,
  0xac, 0x00, 0x00, 0x00, 0x90, 0x00, 0x00, 0x00, 0x80, 0x00, 0x00, 0x00,
  0x70, 0x00, 0x00, 0x00, 0x60, 0x00, 0x00, 0x00, 0x4c, 0x00, 0x00, 0x00,
  0x2c, 0x00, 0x00, 0x00, 0x18, 0x00, 0x00, 0x00, 0x04, 0x00, 0x00, 0x00,
  0xd0, 0xff, 0xff, 0xff, 0x19, 0x00, 0x00, 0x00, 0x02, 0x00, 0x00, 0x00,
  0x00, 0x00, 0x00, 0x19, 0xe0, 0xff, 0xff, 0xff, 0x09, 0x00, 0x00, 0x00,
  0x04, 0x00, 0x00, 0x00, 0x00, 0x00, 0x00, 0x09, 0xf0, 0xff, 0xff, 0xff,
  0x11, 0x00, 0x00, 0x00, 0x02, 0x00, 0x00, 0x00, 0x00, 0x00, 0x00, 0x11,
  0x0c, 0x00, 0x10, 0x00, 0x0f, 0x00, 0x00, 0x00, 0x08, 0x00, 0x04, 0x00,
  0x0c, 0x00, 0x00, 0x00, 0x03, 0x00, 0x00, 0x00, 0x03, 0x00, 0x00, 0x00,
  0x00, 0x00, 0x00, 0x03, 0xd0, 0xff, 0xff, 0xff, 0x16, 0x00, 0x00, 0x00,
  0x00, 0x00, 0x00, 0x16, 0xdc, 0xff, 0xff, 0xff, 0x53, 0x00, 0x00, 0x00,
  0x00, 0x00, 0x00, 0x53, 0xe8, 0xff, 0xff, 0xff, 0x2d, 0x00, 0x00, 0x00,
  0x00, 0x00, 0x00, 0x2d, 0xf4, 0xff, 0xff, 0xff, 0x4d, 0x00, 0x00, 0x00,
  0x00, 0x00, 0x00, 0x4d, 0x0c, 0x00, 0x0c, 0x00, 0x0b, 0x00, 0x00, 0x00,
  0x00, 0x00, 0x04, 0x00, 0x0c, 0x00, 0x00, 0x00, 0x72, 0x00, 0x00, 0x00,
  0x00, 0x00, 0x00, 0x72
};

#endif //Q8_DEMO_CNN_H